{
  "version": "1.0",
  "truncation": null,
  "padding": null,
  "added_tokens": [
    {
      "id": 0,
      "content": "<|endoftext|>",
      "single_word": false,
      "lstrip": false,
      "rstrip": false,
      "normalized": false,
      "special": true
    }
  ],
  "normalizer": null,
  "pre_tokenizer": {
    "type": "ByteLevel",
    "add_prefix_space": false,
    "trim_offsets": true,
    "use_regex": true
  },
  "post_processor": null,
  "decoder": {
    "type": "ByteLevel",
    "add_prefix_space": true,
    "trim_offsets": true,
    "use_regex": true
  },
  "model": {
    "type": "BPE",
    "dropout": null,
    "unk_token": null,
    "continuing_subword_prefix": null,
    "end_of_word_suffix": null,
    "fuse_unk": false,
    "byte_fallback": false,
    "ignore_merges": false,
    "vocab": {
      "<|endoftext|>": 0,
      "!": 1,
      "\"": 2,
      "#": 3,
      "$": 4,
      "%": 5,
      "&": 6,
      "'": 7,
      "(": 8,
      ")": 9,
      "*": 10,
      "+": 11,
      ",": 12,
      "-": 13,
      ".": 14,
      "/": 15,
      "0": 16,
      "1": 17,
      "2": 18,
      "3": 19,
      "4": 20,
      "5": 21,
      "6": 22,
      "7": 23,
      "8": 24,
      "9": 25,
      ":": 26,
      ";": 27,
      "<": 28,
      "=": 29,
      ">": 30,
      "?": 31,
      "@": 32,
      "A": 33,
      "B": 34,
      "C": 35,
      "D": 36,
      "E": 37,
      "F": 38,
      "G": 39,
      "H": 40,
      "I": 41,
      "J": 42,
      "K": 43,
      "L": 44,
      "M": 45,
      "N": 46,
      "O": 47,
      "P": 48,
      "Q": 49,
      "R": 50,
      "S": 51,
      "T": 52,
      "U": 53,
      "V": 54,
      "W": 55,
      "X": 56,
      "Y": 57,
      "Z": 58,
      "[": 59,
      "\\": 60,
      "]": 61,
      "^": 62,
      "_": 63,
      "`": 64,
      "a": 65,
      "b": 66,
      "c": 67,
      "d": 68,
      "e": 69,
      "f": 70,
      "g": 71,
      "h": 72,
      "i": 73,
      "j": 74,
      "k": 75,
      "l": 76,
      "m": 77,
      "n": 78,
      "o": 79,
      "p": 80,
      "q": 81,
      "r": 82,
      "s": 83,
      "t": 84,
      "u": 85,
      "v": 86,
      "w": 87,
      "x": 88,
      "y": 89,
      "z": 90,
      "{": 91,
      "|": 92,
      "}": 93,
      "~": 94,
      "¡": 95,
      "¢": 96,
      "£": 97,
      "¤": 98,
      "¥": 99,
      "¦": 100,
      "§": 101,
      "¨": 102,
      "©": 103,
      "ª": 104,
      "«": 105,
      "¬": 106,
      "®": 107,
      "¯": 108,
      "°": 109,
      "±": 110,
      "²": 111,
      "³": 112,
      "´": 113,
      "µ": 114,
      "¶": 115,
      "·": 116,
      "¸": 117,
      "¹": 118,
      "º": 119,
      "»": 120,
      "¼": 121,
      "½": 122,
      "¾": 123,
      "¿": 124,
      "À": 125,
      "Á": 126,
      "Â": 127,
      "Ã": 128,
      "Ä": 129,
      "Å": 130,
      "Æ": 131,
      "Ç": 132,
      "È": 133,
      "É": 134,
      "Ê": 135,
      "Ë": 136,
      "Ì": 137,
      "Í": 138,
      "Î": 139,
      "Ï": 140,
      "Ð": 141,
      "Ñ": 142,
      "Ò": 143,
      "Ó": 144,
      "Ô": 145,
      "Õ": 146,
      "Ö": 147,
      "×": 148,
      "Ø": 149,
      "Ù": 150,
      "Ú": 151,
      "Û": 152,
      "Ü": 153,
      "Ý": 154,
      "Þ": 155,
      "ß": 156,
      "à": 157,
      "á": 158,
      "â": 159,
      "ã": 160,
      "ä": 161,
      "å": 162,
      "æ": 163,
      "ç": 164,
      "è": 165,
      "é": 166,
      "ê": 167,
      "ë": 168,
      "ì": 169,
      "í": 170,
      "î": 171,
      "ï": 172,
      "ð": 173,
      "ñ": 174,
      "ò": 175,
      "ó": 176,
      "ô": 177,
      "õ": 178,
      "ö": 179,
      "÷": 180,
      "ø": 181,
      "ù": 182,
      "ú": 183,
      "û": 184,
      "ü": 185,
      "ý": 186,
      "þ": 187,
      "ÿ": 188,
      "Ā": 189,
      "ā": 190,
      "Ă": 191,
      "ă": 192,
      "Ą": 193,
      "ą": 194,
      "Ć": 195,
      "ć": 196,
      "Ĉ": 197,
      "ĉ": 198,
      "Ċ": 199,
      "ċ": 200,
      "Č": 201,
      "č": 202,
      "Ď": 203,
      "ď": 204,
      "Đ": 205,
      "đ": 206,
      "Ē": 207,
      "ē": 208,
      "Ĕ": 209,
      "ĕ": 210,
      "Ė": 211,
      "ė": 212,
      "Ę": 213,
      "ę": 214,
      "Ě": 215,
      "ě": 216,
      "Ĝ": 217,
      "ĝ": 218,
      "Ğ": 219,
      "ğ": 220,
      "Ġ": 221,
      "ġ": 222,
      "Ģ": 223,
      "ģ": 224,
      "Ĥ": 225,
      "ĥ": 226,
      "Ħ": 227,
      "ħ": 228,
      "Ĩ": 229,
      "ĩ": 230,
      "Ī": 231,
      "ī": 232,
      "Ĭ": 233,
      "ĭ": 234,
      "Į": 235,
      "į": 236,
      "İ": 237,
      "ı": 238,
      "Ĳ": 239,
      "ĳ": 240,
      "Ĵ": 241,
      "ĵ": 242,
      "Ķ": 243,
      "ķ": 244,
      "ĸ": 245,
      "Ĺ": 246,
      "ĺ": 247,
      "Ļ": 248,
      "ļ": 249,
      "Ľ": 250,
      "ľ": 251,
      "Ŀ": 252,
      "ŀ": 253,
      "Ł": 254,
      "ł": 255,
      "Ń": 256,
      "Ġt": 257,
      "Ġa": 258,
      "he": 259,
      "in": 260,
      "re": 261,
      "Ġthe": 262,
      "on": 263,
      "er": 264,
      "Ġs": 265,
      "Ġw": 266,
      "at": 267,
      "Ġo": 268,
      "en": 269,
      "Ġc": 270,
      "it": 271,
      "is": 272,
      "an": 273,
      "or": 274,
      "Ġb": 275,
      "ed": 276,
      "es": 277,
      "Ġf": 278,
      "ing": 279,
      "Ġp": 280,
      "ou": 281,
      "Ġan": 282,
      "al": 283,
      "Ġto": 284,
      "ar": 285,
      "Ġm": 286,
      "Ġin": 287,
      "Ġof": 288,
      "Ġd": 289,
      "Ġh": 290,
      "as": 291,
      "âĢ": 292,
      "ic": 293,
      "Ġand": 294,
      "Ġth": 295,
      "le": 296,
      "om": 297,
      "ion": 298,
      "ll": 299,
      "ent": 300,
      "Ġn": 301,
      "Ġl": 302,
      "Ġre": 303,
      "st": 304,
      "ve": 305,
      "ly": 306,
      "Ġe": 307,
      "Ġbe": 308,
      "Ġg": 309,
      "ro": 310,
      "id": 311,
      "ac": 312,
      "ut": 313,
      "ot": 314,
      "ĠT": 315,
      "Ġthat": 316,
      "ĠI": 317,
      "Ġon": 318,
      "ay": 319,
      "Ġis": 320,
      "ĠS": 321,
      "im": 322,
      "et": 323,
      "am": 324,
      "ad": 325,
      "ow": 326,
      "se": 327,
      "ig": 328,
      "Ġfor": 329,
      "âĢĻ": 330,
      "ver": 331,
      "ĠA": 332,
      "ur": 333,
      "ld": 334,
      "ct": 335,
      "ĠC": 336,
      "Ġu": 337,
      "Ġst": 338,
      "Ġy": 339,
      "Ġit": 340,
      "Ġhe": 341,
      "ir": 342,
      "ation": 343,
      "ith": 344,
      "Ġwh": 345,
      "ce": 346,
      "ĠM": 347,
      "ter": 348,
      "ol": 349,
      "Ġwe": 350,
      "il": 351,
      "Ġwith": 352,
      "Ġas": 353,
      "ĠB": 354,
      "ch": 355,
      "ill": 356,
      "nd": 357,
      "Ġwas": 358,
      "ĠP": 359,
      "ers": 360,
      "Ġyou": 361,
      "ke": 362,
      "ĠâĢ": 363,
      "Ġcon": 364,
      "Ġde": 365,
      "Ġr": 366,
      "her": 367,
      "if": 368,
      "ate": 369,
      "Ġat": 370,
      "ag": 371,
      "Ġha": 372,
      "ĠW": 373,
      "ĠH": 374,
      "ul": 375,
      "Ġse": 376,
      "ore": 377,
      "Ġpro": 378,
      "pp": 379,
      "ment": 380,
      "ri": 381,
      "Ġare": 382,
      "Ġ1": 383,
      "est": 384,
      "ĠD": 385,
      "Ġcom": 386,
      "and": 387,
      "ist": 388,
      "us": 389,
      "ain": 390,
      "op": 391,
      "ĠThe": 392,
      "ĠR": 393,
      "Ġ2": 394,
      "ort": 395,
      "rom": 396,
      "igh": 397,
      "Ġ(": 398,
      "od": 399,
      "Ġne": 400,
      "ĠF": 401,
      "um": 402,
      "Ġex": 403,
      "un": 404,
      "res": 405,
      "ab": 406,
      "Ġnot": 407,
      "âĢĿ": 408,
      "ĠN": 409,
      "ity": 410,
      "Ġv": 411,
      "ess": 412,
      "em": 413,
      "ould": 414,
      "Ġhave": 415,
      "Ġor": 416,
      "th": 417,
      "Ġby": 418,
      "ĠG": 419,
      "ant": 420,
      "os": 421,
      "Ġal": 422,
      "Ġfrom": 423,
      "ive": 424,
      "'s": 425,
      "el": 426,
      "Ġsu": 427,
      "oc": 428,
      "art": 429,
      "nt": 430,
      "ĠL": 431,
      "Ġsh": 432,
      "Ġthis": 433,
      "qu": 434,
      "pe": 435,
      "ust": 436,
      "ight": 437,
      "Ġle": 438,
      "ies": 439,
      "end": 440,
      "Ġch": 441,
      "ĠE": 442,
      "The": 443,
      "Ġsa": 444,
      "out": 445,
      "Ġab": 446,
      "ie": 447,
      "red": 448,
      "ack": 449,
      "all": 450,
      "ally": 451,
      "00": 452,
      "ĠâĢľ": 453,
      "Ġhas": 454,
      "Ġpl": 455,
      "Ġgo": 456,
      "ard": 457,
      "ĠJ": 458,
      "Ġhis": 459,
      "iv": 460,
      "ome": 461,
      "gh": 462,
      "ap": 463,
      "ost": 464,
      "ĠO": 465,
      "ear": 466,
      "Ġtr": 467,
      "our": 468,
      "Ġj": 469,
      "ast": 470,
      "ak": 471,
      "ud": 472,
      "Ġdo": 473,
      "Ġthey": 474,
      "Ġbut": 475,
      "Ġwor": 476,
      "rou": 477,
      "Ġ\"": 478,
      "ĠU": 479,
      "ge": 480,
      "Ġcan": 481,
      "Ġwhe": 482,
      "Ġsaid": 483,
      "Ġwill": 484,
      "Ġk": 485,
      "ok": 486,
      "ich": 487,
      "Ġall": 488,
      "Ġwho": 489,
      "ide": 490,
      "ans": 491,
      "Ġint": 492,
      "ial": 493,
      "ther": 494,
      "ff": 495,
      "Ġout": 496,
      "ame": 497,
      "Ġtheir": 498,
      "ong": 499,
      "ice": 500,
      "ect": 501,
      "pl": 502,
      "ure": 503,
      "pt": 504,
      "Ġmore": 505,
      "one": 506,
      "ions": 507,
      "act": 508,
      "age": 509,
      "ous": 510,
      "ike": 511,
      "Ġup": 512,
      "Ġme": 513,
      "Ġad": 514,
      "ine": 515,
      "Ġabout": 516,
      "ated": 517,
      "ber": 518,
      "Ġso": 519,
      "ra": 520,
      "Ġwere": 521,
      "Ġone": 522,
      "Ġus": 523,
      "Ġhad": 524,
      "are": 525,
      "og": 526,
      "ime": 527,
      "ub": 528,
      "ep": 529,
      "ĠK": 530,
      "ia": 531,
      "Ġwould": 532,
      "cc": 533,
      "Ġim": 534,
      "Ġwhich": 535,
      "Ġ20": 536,
      "ake": 537,
      "Ġcl": 538,
      "ue": 539,
      "ind": 540,
      "iz": 541,
      "Ġag": 542,
      "Ġcont": 543,
      "very": 544,
      "Ġcomp": 545,
      "Ġoff": 546,
      "Ġun": 547,
      "Ġte": 548,
      "per": 549,
      "Ġbeen": 550,
      "ĠSt": 551,
      "Ġen": 552,
      "ign": 553,
      "au": 554,
      "so": 555,
      "ĠTh": 556,
      "ace": 557,
      "ew": 558,
      "ven": 559,
      "Ġyear": 560,
      "ary": 561,
      "ip": 562,
      "Ġlike": 563,
      "ere": 564,
      "Ġinc": 565,
      "ook": 566,
      "ays": 567,
      "Ġpe": 568,
      "Ġman": 569,
      "ose": 570,
      "Ġper": 571,
      "Ġres": 572,
      "ry": 573,
      "Ġsp": 574,
      "ite": 575,
      "ord": 576,
      "able": 577,
      "ass": 578,
      "ire": 579,
      "mer": 580,
      "ĠIn": 581,
      "Ġother": 582,
      "Ġsome": 583,
      "ople": 584,
      "ib": 585,
      "Ġover": 586,
      "ence": 587,
      "Ġthere": 588,
      "ile": 589,
      "ations": 590,
      "Ġ201": 591,
      "ical": 592,
      "ress": 593,
      "ult": 594,
      "Ġthan": 595,
      "own": 596,
      "ks": 597,
      "ount": 598,
      "Ġdis": 599,
      "ough": 600,
      "ru": 601,
      "Ġnew": 602,
      "Ġbec": 603,
      "int": 604,
      "ance": 605,
      "Ġalso": 606,
      "Ġar": 607,
      "port": 608,
      "Ġthem": 609,
      "Ġwhat": 610,
      "ree": 611,
      "Ġpart": 612,
      "Ġwhen": 613,
      "Ġapp": 614,
      "fter": 615,
      "ĠCh": 616,
      "Ġpeople": 617,
      "orm": 618,
      "Ġqu": 619,
      "ail": 620,
      "Ġyour": 621,
      "Ġsc": 622,
      "ond": 623,
      "ase": 624,
      "Ġher": 625,
      "Ġjust": 626,
      "av": 627,
      "Ġkn": 628,
      "Ġany": 629,
      "Ġtime": 630,
      "ĠY": 631,
      "lic": 632,
      "ĠIt": 633,
      "ach": 634,
      "Ġits": 635,
      "Ġrec": 636,
      "ens": 637,
      "Ġget": 638,
      "ĠV": 639,
      "Ġif": 640,
      "reat": 641,
      "Ġmy": 642,
      "ian": 643,
      "Ġinto": 644,
      ".âĢĿ": 645,
      "ound": 646,
      "vel": 647,
      "irst": 648,
      "ction": 649,
      "Ġno": 650,
      "Ġ3": 651,
      "Ġtw": 652,
      "Ġwork": 653,
      "du": 654,
      "ory": 655,
      "ings": 656,
      "ident": 657,
      "ick": 658,
      "Ġour": 659,
      "ors": 660,
      "ition": 661,
      "Ġco": 662,
      "ang": 663,
      "ob": 664,
      "Ġ19": 665,
      "Ġpre": 666,
      "Ġpol": 667,
      "wn": 668,
      "ink": 669,
      "ause": 670,
      "Ġshe": 671,
      "ark": 672,
      "ish": 673,
      "ates": 674,
      "vers": 675,
      "Ġplay": 676,
      "ade": 677,
      "Ġro": 678,
      "te": 679,
      "Ġafter": 680,
      "amp": 681,
      "ĠHe": 682,
      ",âĢĿ": 683,
      "ove": 684,
      "ious": 685,
      "Ġhim": 686,
      "ne": 687,
      "Ġcould": 688,
      "aw": 689,
      "Ġfirst": 690,
      "Ġhow": 691,
      "nder": 692,
      "Ġacc": 693,
      "Ġ-": 694,
      "ons": 695,
      "'t": 696,
      "ild": 697,
      "Ġfe": 698,
      "Ġpo": 699,
      "hed": 700,
      "Ġpr": 701,
      "Ġonly": 702,
      "rit": 703,
      "Ġatt": 704,
      "ict": 705,
      "Ġspe": 706,
      "Ġtwo": 707,
      "Ġcomm": 708,
      ".\"": 709,
      "we": 710,
      "âĢľ": 711,
      "erv": 712,
      "hing": 713,
      "ov": 714,
      "Ġact": 715,
      "ft": 716,
      "Ġdec": 717,
      "form": 718,
      "Ġbl": 719,
      "Ġbet": 720,
      "Ġback": 721,
      "ning": 722,
      "Ġmost": 723,
      "ood": 724,
      "ces": 725,
      "ater": 726,
      "Ġ$": 727,
      "Ġam": 728,
      "round": 729,
      "Ġdid": 730,
      "ck": 731,
      "ĠâĢĵ": 732,
      "iff": 733,
      "rough": 734,
      "Ġdes": 735,
      "Ġ4": 736,
      "Ġagain": 737,
      "day": 738,
      "oy": 739,
      "ublic": 740,
      "Ġunder": 741,
      "Ġcons": 742,
      "ise": 743,
      "Ġnow": 744,
      "man": 745,
      "Ġwant": 746,
      "sel": 747,
      "ual": 748,
      "lud": 749,
      "Ġeven": 750,
      "Ġinv": 751,
      "iss": 752,
      "Ġbecause": 753,
      "ull": 754,
      "ents": 755,
      "Ġyears": 756,
      "tern": 757,
      "Ġknow": 758,
      "Ġneed": 759,
      "ced": 760,
      "ec": 761,
      "ĠUn": 762,
      "Ġind": 763,
      "ĠâĢĶ": 764,
      "old": 765,
      "ting": 766,
      "ments": 767,
      "Ġadd": 768,
      "Ġsee": 769,
      "ĠWe": 770,
      "uch": 771,
      "fore": 772,
      "urn": 773,
      "Ġsec": 774,
      ",\"": 775,
      "Ġevery": 776,
      "pect": 777,
      "In": 778,
      "Ġsupp": 779,
      "Ġem": 780,
      "Ġmake": 781,
      "vern": 782,
      "Ġthese": 783,
      "oll": 784,
      "Ġ5": 785,
      "ject": 786,
      "ational": 787,
      "ock": 788,
      "Ġwhere": 789,
      "Ġev": 790,
      "oss": 791,
      "Ġbu": 792,
      "Ġright": 793,
      "Ġway": 794,
      "Ġcall": 795,
      "Ġbeing": 796,
      "lect": 797,
      "Th": 798,
      "ied": 799,
      "xt": 800,
      "Ġlook": 801,
      "Ġdon": 802,
      "ating": 803,
      "ily": 804,
      "ĠAnd": 805,
      "Ġmay": 806,
      "Ġdef": 807,
      "row": 808,
      "Ġthen": 809,
      "Ġmany": 810,
      "Ġdiff": 811,
      "Ġrem": 812,
      "iew": 813,
      "ont": 814,
      "Ġrel": 815,
      "ased": 816,
      "Ġpres": 817,
      "Ġinclud": 818,
      "ump": 819,
      "meric": 820,
      "ng": 821,
      "Ġthink": 822,
      "Ġfl": 823,
      "..": 824,
      "ell": 825,
      "ĠBut": 826,
      "ited": 827,
      "aking": 828,
      "Ġreg": 829,
      "ath": 830,
      "Ġimp": 831,
      ").": 832,
      "rib": 833,
      "ower": 834,
      "Ġthrough": 835,
      "Ġsy": 836,
      "Ġvery": 837,
      "ason": 838,
      "Ġshould": 839,
      "uring": 840,
      "Ġsay": 841,
      "Ġmuch": 842,
      "Ġthose": 843,
      "Ġlast": 844,
      "Ġstate": 845,
      "les": 846,
      "ĠTr": 847,
      "ĠThis": 848,
      "ty": 849,
      "other": 850,
      "ific": 851,
      "Ġ[": 852,
      "Ġcount": 853,
      "ities": 854,
      "tle": 855,
      "ative": 856,
      "Ġwell": 857,
      "ĠWh": 858,
      "Ġ200": 859,
      "Ġshow": 860,
      "Ġbel": 861,
      "oth": 862,
      "Ġend": 863,
      "ss": 864,
      "arg": 865,
      "arly": 866,
      "ince": 867,
      "als": 868,
      "Ġreport": 869,
      "ange": 870,
      "Ġdown": 871,
      "ics": 872,
      "ward": 873,
      "hen": 874,
      "Ġph": 875,
      "Ġgovern": 876,
      "Ġbr": 877,
      "Ġown": 878,
      "und": 879,
      "Ġdoes": 880,
      "Ġass": 881,
      "Ġuse": 882,
      "ĠAmeric": 883,
      "Ġlong": 884,
      "âĢĶ": 885,
      "Ġmon": 886,
      "Ġbefore": 887,
      "ts": 888,
      "up": 889,
      "ible": 890,
      "omet": 891,
      "ble": 892,
      "ix": 893,
      "ters": 894,
      "olog": 895,
      "Ġstart": 896,
      "gr": 897,
      "ĠNew": 898,
      "ms": 899,
      "ues": 900,
      "ener": 901,
      "Ġke": 902,
      "Ġmade": 903,
      "ife": 904,
      "oun": 905,
      "Ġsuch": 906,
      "Ġfin": 907,
      "),": 908,
      "ually": 909,
      "Ġteam": 910,
      "tain": 911,
      "Ġsm": 912,
      "ars": 913,
      "Ġgoing": 914,
      "erson": 915,
      "ren": 916,
      "Ġhel": 917,
      "It": 918,
      "Ġgood": 919,
      "Ġworld": 920,
      "Ġac": 921,
      "--": 922,
      "ility": 923,
      "ful": 924,
      "ek": 925,
      "Ġstud": 926,
      "Ġsur": 927,
      "Ġsub": 928,
      "its": 929,
      "ists": 930,
      "stem": 931,
      "Ġgu": 932,
      "ork": 933,
      "Ġeff": 934,
      "Ġset": 935,
      "ys": 936,
      "Ġent": 937,
      "Ġagainst": 938,
      "illion": 939,
      "Ġcr": 940,
      "roup": 941,
      "000": 942,
      ".[": 943,
      "ween": 944,
      "gan": 945,
      "ism": 946,
      "Ġpoint": 947,
      "Ġlead": 948,
      "Ġ6": 949,
      "Ġmin": 950,
      "Ġprodu": 951,
      "Ġstill": 952,
      "com": 953,
      "io": 954,
      "imes": 955,
      "Ġprov": 956,
      "air": 957,
      "cy": 958,
      "Ġhelp": 959,
      "alk": 960,
      "Ġsays": 961,
      "Ġgr": 962,
      "ĠRe": 963,
      "Ġstr": 964,
      "Ġoffic": 965,
      "Ġwhile": 966,
      "ax": 967,
      "Ġlaw": 968,
      "Ġconf": 969,
      "Ġinter": 970,
      "ank": 971,
      "Ġob": 972,
      "Ġgame": 973,
      "Ġinst": 974,
      "Ġtake": 975,
      "self": 976,
      "li": 977,
      "Ġthough": 978,
      "cess": 979,
      "Ġsim": 980,
      "Ġbetween": 981,
      "ci": 982,
      "land": 983,
      "ool": 984,
      "Ġed": 985,
      "Ġgovernment": 986,
      "ever": 987,
      "Ġnum": 988,
      "read": 989,
      "Ġcol": 990,
      "Ġdiffere": 991,
      "Ġop": 992,
      "ef": 993,
      "cent": 994,
      "Ġhigh": 995,
      "Ġsame": 996,
      "led": 997,
      "ollow": 998,
      "ah": 999,
      "arch": 1000,
      "ures": 1001,
      "ution": 1002,
      "hes": 1003,
      "Ġaround": 1004,
      "ted": 1005,
      "atch": 1006,
      "Ġsign": 1007,
      "ner": 1008,
      "way": 1009,
      "Ġter": 1010,
      "velop": 1011,
      "gg": 1012,
      "Ġsomet": 1013,
      "ten": 1014,
      "ather": 1015,
      "Ġref": 1016,
      "Ġfound": 1017,
      "any": 1018,
      "Ġthree": 1019,
      "hip": 1020,
      "ouse": 1021,
      "ave": 1022,
      "Ġcour": 1023,
      "Ġdisc": 1024,
      "Ġsystem": 1025,
      "Ġins": 1026,
      "Ġtrans": 1027,
      "Ġmem": 1028,
      "ames": 1029,
      "az": 1030,
      "Ġrun": 1031,
      "Ġreal": 1032,
      "ved": 1033,
      "Ġser": 1034,
      "Ġexp": 1035,
      "oot": 1036,
      "ives": 1037,
      "We": 1038,
      "Ġused": 1039,
      "uss": 1040,
      "Ġreally": 1041,
      "Ġgroup": 1042,
      "con": 1043,
      "Ġpublic": 1044,
      "ĠYou": 1045,
      "cept": 1046,
      "Ġ10": 1047,
      "Ġhere": 1048,
      "ving": 1049,
      "Ġmed": 1050,
      "ale": 1051,
      "ĠLe": 1052,
      "Ġ7": 1053,
      "ĠAr": 1054,
      "Ġmod": 1055,
      "ĠAl": 1056,
      "Ġfact": 1057,
      "Ġext": 1058,
      "ph": 1059,
      "Ġgreat": 1060,
      "ern": 1061,
      "Ġspec": 1062,
      "Ġsupport": 1063,
      "pr": 1064,
      "ton": 1065,
      "min": 1066,
      "Ġexper": 1067,
      "Ġret": 1068,
      "Ġfam": 1069,
      "Ġhapp": 1070,
      "Ġhand": 1071,
      "Ġcur": 1072,
      "ying": 1073,
      "ets": 1074,
      "Ġcar": 1075,
      "Ġcap": 1076,
      "irect": 1077,
      "ins": 1078,
      "Ġsl": 1079,
      "ense": 1080,
      "Ġboth": 1081,
      "Ġwom": 1082,
      "Ġday": 1083,
      "ered": 1084,
      "ivers": 1085,
      "ĠThey": 1086,
      "Ġrep": 1087,
      "Ġduring": 1088,
      "Ġlit": 1089,
      "ular": 1090,
      "ĠIs": 1091,
      "ĠSh": 1092,
      "Ġtold": 1093,
      "Ġfind": 1094,
      "Ġfr": 1095,
      "alth": 1096,
      "Ġiss": 1097,
      "aj": 1098,
      "ines": 1099,
      "uth": 1100,
      "Ġwar": 1101,
      "oh": 1102,
      "Ġread": 1103,
      "Ġcre": 1104,
      "iet": 1105,
      "ices": 1106,
      "orth": 1107,
      "Ġmonth": 1108,
      "Ġpolit": 1109,
      "ically": 1110,
      "Ġdevelop": 1111,
      "ared": 1112,
      "Ġperson": 1113,
      "Ġserv": 1114,
      "Ġ8": 1115,
      "ĠTrump": 1116,
      "Ġsince": 1117,
      "ĠCom": 1118,
      "Ġdet": 1119,
      "ording": 1120,
      "Ġbig": 1121,
      "ĠAs": 1122,
      "Ġgener": 1123,
      "Ġcent": 1124,
      "akes": 1125,
      "the": 1126,
      "ages": 1127,
      "med": 1128,
      "Ġfollow": 1129,
      "Ġ9": 1130,
      "ĠCl": 1131,
      "Ġfew": 1132,
      "Ġweek": 1133,
      "ision": 1134,
      "Ġlot": 1135,
      "anc": 1136,
      "Ġbelie": 1137,
      "Ġleg": 1138,
      "der": 1139,
      "chool": 1140,
      "ves": 1141,
      "get": 1142,
      "rent": 1143,
      "ric": 1144,
      "Ġcontin": 1145,
      "Ġrequ": 1146,
      "ĠSe": 1147,
      "ized": 1148,
      "Ġtoo": 1149,
      "Ġexpl": 1150,
      "Ġput": 1151,
      "Ġcle": 1152,
      "Ġresp": 1153,
      "Ġcor": 1154,
      "Ġinvest": 1155,
      "ata": 1156,
      "Wh": 1157,
      "Ġprot": 1158,
      "Ġsoc": 1159,
      "ness": 1160,
      "ash": 1161,
      "Ġpower": 1162,
      "arge": 1163,
      "Ġche": 1164,
      "ĠIf": 1165,
      "bers": 1166,
      "Ġinf": 1167,
      "Ġanother": 1168,
      "Ġrele": 1169,
      "Ġfil": 1170,
      "ĠFr": 1171,
      "Ġsomething": 1172,
      "Ġopp": 1173,
      "Ġplan": 1174,
      "ex": 1175,
      "Ġloc": 1176,
      "Ġask": 1177,
      "Ġposs": 1178,
      "Ġdifferent": 1179,
      "Ġvot": 1180,
      "Ġcommun": 1181,
      "Ġlife": 1182,
      "Ġhead": 1183,
      "ute": 1184,
      "thing": 1185,
      "Ġ'": 1186,
      "Ġart": 1187,
      "ention": 1188,
      "Ġthings": 1189,
      "Ġpass": 1190,
      "Ġdep": 1191,
      "Ġmight": 1192,
      "view": 1193,
      "Ġquest": 1194,
      "Ġfar": 1195,
      "Ġnever": 1196,
      "Ġcome": 1197,
      "Ġbo": 1198,
      "ants": 1199,
      "ience": 1200,
      "Ġ0": 1201,
      "ĠDe": 1202,
      "iness": 1203,
      "Ġcamp": 1204,
      "ĠAn": 1205,
      "ody": 1206,
      "Ġmet": 1207,
      "ĠâĢĺ": 1208,
      "ize": 1209,
      "Ġdem": 1210,
      "Ġpercent": 1211,
      "ĠFor": 1212,
      "erest": 1213,
      "Ġbus": 1214,
      "Ġchild": 1215,
      "nce": 1216,
      "This": 1217,
      "Ġgot": 1218,
      "Ġadv": 1219,
      "ĠUS": 1220,
      "Ġeach": 1221,
      "Ġnext": 1222,
      "ret": 1223,
      "uc": 1224,
      "Ġmark": 1225,
      "ross": 1226,
      "Ġfeel": 1227,
      "Ġopen": 1228,
      "gy": 1229,
      "rat": 1230,
      "ield": 1231,
      "Ġsecond": 1232,
      "20": 1233,
      "Ġallow": 1234,
      "Ġpri": 1235,
      "ient": 1236,
      "Ġbest": 1237,
      "ĠThat": 1238,
      "ired": 1239,
      "Ġhome": 1240,
      "ama": 1241,
      "ik": 1242,
      "Ġ.": 1243,
      "ĠRep": 1244,
      "Ġdirect": 1245,
      "Ġcontro": 1246,
      "orn": 1247,
      "less": 1248,
      "Ġseem": 1249,
      "ier": 1250,
      "conom": 1251,
      "ling": 1252,
      "co": 1253,
      "Ġnumber": 1254,
      "ple": 1255,
      "Ġincre": 1256,
      "ital": 1257,
      "Ġresult": 1258,
      "ĠPro": 1259,
      "Ġproble": 1260,
      "Ġdist": 1261,
      "Ġtop": 1262,
      "Ġimport": 1263,
      "Ġconc": 1264,
      "ately": 1265,
      "Ġcomple": 1266,
      "gram": 1267,
      "osed": 1268,
      "ug": 1269,
      "ration": 1270,
      "son": 1271,
      "Ġincluding": 1272,
      "Ġcountry": 1273,
      "Ġcare": 1274,
      "chn": 1275,
      "Ġgl": 1276,
      "Ġmillion": 1277,
      "Ġwithout": 1278,
      "Ġav": 1279,
      "Ġhard": 1280,
      "Ġplace": 1281,
      "Ġpost": 1282,
      "oney": 1283,
      "ished": 1284,
      "Ġbuild": 1285,
      "Ġel": 1286,
      "Ġide": 1287,
      "aim": 1288,
      "Ġstand": 1289,
      "uro": 1290,
      "Ġcalled": 1291,
      "Ġlet": 1292,
      "Ġinform": 1293,
      "ably": 1294,
      "arn": 1295,
      "Ġcase": 1296,
      "Ġhum": 1297,
      "ĠBl": 1298,
      "Ġappro": 1299,
      "But": 1300,
      "ral": 1301,
      "Ġpop": 1302,
      "Ġfour": 1303,
      "Ġtri": 1304,
      "ina": 1305,
      "Ġbro": 1306,
      "riend": 1307,
      "Ġpartic": 1308,
      "ways": 1309,
      "Ġfun": 1310,
      "Ġlittle": 1311,
      "Ġless": 1312,
      "Ġrecent": 1313,
      "ering": 1314,
      "Ġann": 1315,
      "Ġturn": 1316,
      "me": 1317,
      "10": 1318,
      "Ġdr": 1319,
      "Ġbetter": 1320,
      "to": 1321,
      "ised": 1322,
      "Ġinterest": 1323,
      "ead": 1324,
      "inal": 1325,
      "Ġmil": 1326,
      "Ġbeh": 1327,
      "Ġpolice": 1328,
      "pped": 1329,
      "ann": 1330,
      "ajor": 1331,
      "Ġmov": 1332,
      "ĠInd": 1333,
      "Ġmain": 1334,
      "ature": 1335,
      "Ġkeep": 1336,
      "Ġfull": 1337,
      "ency": 1338,
      "ĠThere": 1339,
      "ract": 1340,
      "Ġseason": 1341,
      "leg": 1342,
      "Ġeconom": 1343,
      "Ġrest": 1344,
      "line": 1345,
      "Ġdidn": 1346,
      "Ġleft": 1347,
      "Ġschool": 1348,
      "ertain": 1349,
      "be": 1350,
      "ined": 1351,
      "Ġprev": 1352,
      "Ġeffect": 1353,
      "Ġtest": 1354,
      "Ġpresident": 1355,
      "Ġform": 1356,
      "ology": 1357,
      "tt": 1358,
      "Ġdata": 1359,
      "Ġattack": 1360,
      "Ġsit": 1361,
      "iversity": 1362,
      "ĠZ": 1363,
      "Ġwrit": 1364,
      "ĠAmerican": 1365,
      "Ġprogram": 1366,
      "Ġmove": 1367,
      "Ġwin": 1368,
      "ode": 1369,
      "uck": 1370,
      "ĠSo": 1371,
      "Ġlevel": 1372,
      "Ġgiv": 1373,
      "Ġusing": 1374,
      "ĠOb": 1375,
      "Ġprocess": 1376,
      "ruct": 1377,
      "Ġval": 1378,
      "Ġpos": 1379,
      "ready": 1380,
      "ided": 1381,
      "ains": 1382,
      "Ġnews": 1383,
      "Ġprom": 1384,
      "Ġsmall": 1385,
      "Ġpay": 1386,
      "Ġunt": 1387,
      "Ġdri": 1388,
      "Ġchar": 1389,
      "He": 1390,
      "Ġcurrent": 1391,
      "Ġlist": 1392,
      "ĠUnited": 1393,
      "used": 1394,
      "Ġmat": 1395,
      "ians": 1396,
      "mit": 1397,
      "Ġrece": 1398,
      "Ġmoney": 1399,
      "ron": 1400,
      "Ġeas": 1401,
      "'re": 1402,
      "Ġwomen": 1403,
      "Ġofficial": 1404,
      "rap": 1405,
      "Ġchange": 1406,
      "Ġcompany": 1407,
      "Ġsol": 1408,
      "Ġlater": 1409,
      "ohn": 1410,
      "Ġbre": 1411,
      "aign": 1412,
      "Ġalready": 1413,
      "Ġproject": 1414,
      "ases": 1415,
      "stand": 1416,
      "Ġexpect": 1417,
      "aff": 1418,
      "19": 1419,
      "Ġedit": 1420,
      "ploy": 1421,
      "Ġwhy": 1422,
      "Ġtechn": 1423,
      "ĠShe": 1424,
      "reen": 1425,
      "Ġthing": 1426,
      "ĠBe": 1427,
      "Ġchang": 1428,
      "Ġhist": 1429,
      "Ġmajor": 1430,
      "Ġdesign": 1431,
      "Ġbook": 1432,
      "Ġalways": 1433,
      "cl": 1434,
      "outh": 1435,
      "Ġbusiness": 1436,
      "ury": 1437,
      "ger": 1438,
      "Ġorgan": 1439,
      "ĠHow": 1440,
      "Ġstory": 1441,
      "Ġtalk": 1442,
      "ĠQ": 1443,
      "Ġty": 1444,
      "ior": 1445,
      "Ġcost": 1446,
      "Ġclaim": 1447,
      "Ġ18": 1448,
      "Ġclass": 1449,
      "Ġvis": 1450,
      "Ġhappen": 1451,
      "rist": 1452,
      "lection": 1453,
      "urs": 1454,
      "ird": 1455,
      "Ġimportant": 1456,
      "Ġprof": 1457,
      "Ġjob": 1458,
      "ĠPh": 1459,
      "ption": 1460,
      "Ġsk": 1461,
      "Ġable": 1462,
      "Ġlarge": 1463,
      "Ġpast": 1464,
      "Ġdays": 1465,
      "Ġconst": 1466,
      "Ġmust": 1467,
      "ending": 1468,
      "Ġrese": 1469,
      "Ġgrow": 1470,
      "Ġhealth": 1471,
      "ards": 1472,
      "ample": 1473,
      "Ġest": 1474,
      "Ġoper": 1475,
      "wit": 1476,
      "ured": 1477,
      "ator": 1478,
      "Ġkill": 1479,
      "Ġcampaign": 1480,
      "Ġmen": 1481,
      "Ġaway": 1482,
      "Ġcity": 1483,
      "here": 1484,
      "Ġold": 1485,
      "Ġvar": 1486,
      "Ġleast": 1487,
      "acy": 1488,
      "ural": 1489,
      "Ġpolic": 1490,
      "Ġfree": 1491,
      "Ġdoesn": 1492,
      "Ġinformation": 1493,
      "els": 1494,
      "uthor": 1495,
      "ider": 1496,
      "Ġtell": 1497,
      "ney": 1498,
      "Ġaff": 1499,
      "Ġhop": 1500,
      "Ġuntil": 1501,
      "Ġ--": 1502,
      "ides": 1503,
      "eral": 1504,
      "ission": 1505,
      "Ġmar": 1506,
      "Ġstre": 1507,
      "Ġcame": 1508,
      "Ġfamily": 1509,
      "app": 1510,
      "urity": 1511,
      "Ġ12": 1512,
      "ĠAd": 1513,
      "Ġrecord": 1514,
      "side": 1515,
      "Ġfriend": 1516,
      "ĠRepublic": 1517,
      "Ġenough": 1518,
      "Ġpat": 1519,
      "Ġview": 1520,
      "Ġ199": 1521,
      "Ġpolitical": 1522,
      "St": 1523,
      "ware": 1524,
      "Ġelect": 1525,
      "50": 1526,
      "ained": 1527,
      "ĠCan": 1528,
      "ister": 1529,
      "ified": 1530,
      "ĠMar": 1531,
      "ccess": 1532,
      "Ġmaking": 1533,
      "resident": 1534,
      "Ġtax": 1535,
      "ley": 1536,
      "ee": 1537,
      "ality": 1538,
      "Ġes": 1539,
      "ĠSp": 1540,
      "ĠGo": 1541,
      "Ġline": 1542,
      "Ġdeb": 1543,
      "ush": 1544,
      "Ġair": 1545,
      "Ġworking": 1546,
      "alf": 1547,
      "augh": 1548,
      "ued": 1549,
      "ox": 1550,
      "Ġfore": 1551,
      "Ġkind": 1552,
      "ived": 1553,
      "bs": 1554,
      "ĠSc": 1555,
      "...": 1556,
      "by": 1557,
      "ĠJohn": 1558,
      "As": 1559,
      "Ġtook": 1560,
      "ocrat": 1561,
      "ĠMay": 1562,
      "Ġword": 1563,
      "arent": 1564,
      "Ġname": 1565,
      "Ġactually": 1566,
      "ries": 1567,
      "ror": 1568,
      "Ġvide": 1569,
      "sc": 1570,
      "ĠOr": 1571,
      "ĠDem": 1572,
      "Ġpar": 1573,
      "ott": 1574,
      "Ġwon": 1575,
      "Ġbecome": 1576,
      "If": 1577,
      "ising": 1578,
      "Ġintern": 1579,
      "ional": 1580,
      "ison": 1581,
      "Ġdeal": 1582,
      "Ġoften": 1583,
      "most": 1584,
      "ĠEuro": 1585,
      "aining": 1586,
      "âĢ¦": 1587,
      "Ġever": 1588,
      "Ġorder": 1589,
      "Ġve": 1590,
      "enn": 1591,
      "aring": 1592,
      "Ġsever": 1593,
      "Ġ=": 1594,
      "Ġtimes": 1595,
      "wh": 1596,
      "Ġaccording": 1597,
      "ember": 1598,
      "for": 1599,
      "Ġformer": 1600,
      "aps": 1601,
      "Ġfund": 1602,
      "gin": 1603,
      "year": 1604,
      "Ġmean": 1605,
      "Ġwater": 1606,
      "Ġla": 1607,
      "11": 1608,
      "Ġhuman": 1609,
      "ĠPl": 1610,
      "ization": 1611,
      "Ġgive": 1612,
      "ĠAll": 1613,
      "aken": 1614,
      "iol": 1615,
      "ony": 1616,
      "Ġreturn": 1617,
      "Ġ|": 1618,
      "oad": 1619,
      "work": 1620,
      "idence": 1621,
      "ane": 1622,
      "Ġpress": 1623,
      "There": 1624,
      "Ġocc": 1625,
      "Ġbit": 1626,
      "Ġsing": 1627,
      "urch": 1628,
      "Ġlikely": 1629,
      "Ġseveral": 1630,
      "Ġperform": 1631,
      "Ġseen": 1632,
      "Ġtoday": 1633,
      "br": 1634,
      "iqu": 1635,
      "ĠYork": 1636,
      "Ġsocial": 1637,
      "eng": 1638,
      "sh": 1639,
      "ĠCon": 1640,
      "Ġearly": 1641,
      "ĠObama": 1642,
      "uture": 1643,
      "ither": 1644,
      "Ġwr": 1645,
      "Ġear": 1646,
      "Ġnight": 1647,
      "Ġfac": 1648,
      "Ġmarket": 1649,
      "Ġra": 1650,
      "Ġequ": 1651,
      "Ġcrit": 1652,
      "ories": 1653,
      "ubl": 1654,
      "inc": 1655,
      "Ġhaving": 1656,
      "Ġwent": 1657,
      "ots": 1658,
      "Ġdoing": 1659,
      "artment": 1660,
      "Ġevent": 1661,
      "Ġsure": 1662,
      "oint": 1663,
      "Ġquestion": 1664,
      "ĠMc": 1665,
      "ĠAt": 1666,
      "Ġcontrol": 1667,
      "ĠUniversity": 1668,
      "mber": 1669,
      "icle": 1670,
      "raft": 1671,
      "Ġbas": 1672,
      "Ġchildren": 1673,
      "Ġcharac": 1674,
      "ium": 1675,
      "ĠStates": 1676,
      "ĠPresident": 1677,
      "ãģ": 1678,
      "Ġplayers": 1679,
      "Ġ15": 1680,
      "Ġside": 1681,
      "Ġappear": 1682,
      "Ġgames": 1683,
      "Ġinvol": 1684,
      "ended": 1685,
      "Ġshort": 1686,
      "Ġyoung": 1687,
      "Ġalong": 1688,
      "idd": 1689,
      "Ġdev": 1690,
      "rop": 1691,
      "iver": 1692,
      "Ġonce": 1693,
      "Ġmeet": 1694,
      "iously": 1695,
      "Ġexample": 1696,
      "Ġfive": 1697,
      "une": 1698,
      "ched": 1699,
      "Ġmedia": 1700,
      "----": 1701,
      "Ġwhether": 1702,
      "lf": 1703,
      "Ġcertain": 1704,
      "nect": 1705,
      "Ġknown": 1706,
      "ĠEurope": 1707,
      "iety": 1708,
      "Ġmembers": 1709,
      "Ġ]": 1710,
      "Ġben": 1711,
      "Ġcourse": 1712,
      "Ġprop": 1713,
      "Ġarg": 1714,
      "Ġdesc": 1715,
      "ster": 1716,
      "ĠTe": 1717,
      "rew": 1718,
      "Ġinvestig": 1719,
      "Ġvers": 1720,
      "Ġ11": 1721,
      "Ġhour": 1722,
      "ands": 1723,
      "Ġmilit": 1724,
      "Ġpossible": 1725,
      "Ġproblem": 1726,
      "ĠMr": 1727,
      "Ġmonths": 1728,
      "Ġpot": 1729,
      "Ġsuccess": 1730,
      "Ġpriv": 1731,
      "ĠCol": 1732,
      "ulation": 1733,
      "Ġwithin": 1734,
      "Ġnon": 1735,
      "gress": 1736,
      "ĠSy": 1737,
      "Ġactiv": 1738,
      "Ġcho": 1739,
      "verage": 1740,
      "And": 1741,
      "ague": 1742,
      "Ġthought": 1743,
      "empt": 1744,
      "Ġant": 1745,
      "ential": 1746,
      "iting": 1747,
      "Ġamong": 1748,
      "ially": 1749,
      "ĠHouse": 1750,
      "Ġfail": 1751,
      "âĢĵ": 1752,
      "ats": 1753,
      "Ġeng": 1754,
      "Ġmeans": 1755,
      "Ġasked": 1756,
      "Ġca": 1757,
      "oci": 1758,
      "Ġdone": 1759,
      "ortun": 1760,
      "ball": 1761,
      "Ġunderstand": 1762,
      "Ġgiven": 1763,
      "Ġproduct": 1764,
      "Ġreason": 1765,
      "Ġlocal": 1766,
      "Ġprotect": 1767,
      "ggest": 1768,
      "ederal": 1769,
      "imate": 1770,
      "Ġauthor": 1771,
      "Ġfuture": 1772,
      "uff": 1773,
      "let": 1774,
      "Ġmus": 1775,
      "ER": 1776,
      "12": 1777,
      "ert": 1778,
      "Ġacross": 1779,
      "ald": 1780,
      "iving": 1781,
      "Ġorig": 1782,
      "iber": 1783,
      "ĠOn": 1784,
      "ivid": 1785,
      "ĠCar": 1786,
      "You": 1787,
      "orld": 1788,
      "Ġhold": 1789,
      "Ġbelieve": 1790,
      "ensive": 1791,
      "Ġreported": 1792,
      "ĠWhen": 1793,
      "Ġsuggest": 1794,
      "Ġfight": 1795,
      "back": 1796,
      "itions": 1797,
      "ourn": 1798,
      "vert": 1799,
      "Ġviol": 1800,
      "por": 1801,
      "ailable": 1802,
      "Ġyet": 1803,
      "book": 1804,
      "30": 1805,
      "ĠRuss": 1806,
      "Ġmakes": 1807,
      "ĠState": 1808,
      "ĠChrist": 1809,
      "ones": 1810,
      "my": 1811,
      "Ġcommunity": 1812,
      "ĠDemocrat": 1813,
      "aged": 1814,
      "Ġsent": 1815,
      "ĠPr": 1816,
      "Ġvideo": 1817,
      "Ġannoun": 1818,
      "Ġhig": 1819,
      "Ġdeath": 1820,
      "not": 1821,
      "Ġprob": 1822,
      "rest": 1823,
      "itive": 1824,
      "Ġ&": 1825,
      "Ġlow": 1826,
      "Ġstrong": 1827,
      "ored": 1828,
      "ĠNo": 1829,
      "Ġissue": 1830,
      "Ġ/": 1831,
      "Ġi": 1832,
      "Ġindust": 1833,
      "Ġothers": 1834,
      "Ġgetting": 1835,
      "cher": 1836,
      "urther": 1837,
      "ances": 1838,
      "Ġlight": 1839,
      "Ġ2016": 1840,
      "15": 1841,
      "erman": 1842,
      "Ġlim": 1843,
      ".,": 1844,
      "Ġnational": 1845,
      "ament": 1846,
      "iron": 1847,
      "Ġident": 1848,
      "ober": 1849,
      "Ġland": 1850,
      "Ġcond": 1851,
      "Ġsaf": 1852,
      "ĠCo": 1853,
      "ĠCent": 1854,
      "Ġalmost": 1855,
      "Ġaccount": 1856,
      "Ġsex": 1857,
      "ustom": 1858,
      "arm": 1859,
      "ene": 1860,
      "ring": 1861,
      "Ġstarted": 1862,
      "Ġ,": 1863,
      "Ġ#": 1864,
      "Ġ30": 1865,
      "ĠBrit": 1866,
      "aster": 1867,
      "ief": 1868,
      "Ġcut": 1869,
      "Ġago": 1870,
      "erence": 1871,
      "though": 1872,
      "Ġlove": 1873,
      "ashing": 1874,
      "Ġsour": 1875,
      "ler": 1876,
      "Ġcourt": 1877,
      "ams": 1878,
      "Ġclear": 1879,
      "Ġbat": 1880,
      "__": 1881,
      "Ġbased": 1882,
      "selves": 1883,
      "Ġ2015": 1884,
      "Ġfollowing": 1885,
      "ument": 1886,
      "Ġavailable": 1887,
      "utes": 1888,
      "resent": 1889,
      "Ġtrad": 1890,
      "'ve": 1891,
      "ĠBro": 1892,
      "ĠOne": 1893,
      "Ġcomes": 1894,
      "orts": 1895,
      "Ġclose": 1896,
      "minist": 1897,
      "Ġarea": 1898,
      "Ġpract": 1899,
      "Ġadded": 1900,
      "Ġrul": 1901,
      "Ġtrying": 1902,
      "For": 1903,
      "ĠMin": 1904,
      "uly": 1905,
      "use": 1906,
      "Ġcreat": 1907,
      "ability": 1908,
      "Ġnet": 1909,
      "Ġseries": 1910,
      "Ġparty": 1911,
      "ĠX": 1912,
      "ĠWhat": 1913,
      "Ġexperience": 1914,
      "ĠCanad": 1915,
      "rug": 1916,
      "Ġidea": 1917,
      "Ġtoget": 1918,
      "Ġtogether": 1919,
      "Ġemploy": 1920,
      "Ġmom": 1921,
      "Ġ16": 1922,
      "Ġcommit": 1923,
      "Ġtaken": 1924,
      "ĠPol": 1925,
      "itional": 1926,
      "ĠBr": 1927,
      "Ġhalf": 1928,
      "ĠSen": 1929,
      "ividual": 1930,
      "ination": 1931,
      "ĠAmerica": 1932,
      "reed": 1933,
      "inton": 1934,
      "Ġtot": 1935,
      "Ġpresent": 1936,
      "Ġcompet": 1937,
      "wards": 1938,
      "Ġanal": 1939,
      "pro": 1940,
      "ĠNorth": 1941,
      "Ġfoc": 1942,
      "Ġanything": 1943,
      "Ġfilm": 1944,
      "amed": 1945,
      "ev": 1946,
      "ged": 1947,
      "ai": 1948,
      "cially": 1949,
      "Ġhistory": 1950,
      "Ġmind": 1951,
      "of": 1952,
      "ilar": 1953,
      "Ġsaying": 1954,
      "Ġisn": 1955,
      "Ġz": 1956,
      "aid": 1957,
      "rict": 1958,
      "Ġris": 1959,
      "Ġaccess": 1960,
      "af": 1961,
      "sy": 1962,
      "Ġlive": 1963,
      "ĠEx": 1964,
      "Ġimpro": 1965,
      "ĠFl": 1966,
      "ĠAm": 1967,
      "raw": 1968,
      "Ġcomplete": 1969,
      "Ġproper": 1970,
      "eb": 1971,
      "Ġmess": 1972,
      "unch": 1973,
      "Ġsix": 1974,
      "Ġpubl": 1975,
      "Ġlooking": 1976,
      "Ġhit": 1977,
      "Ġtre": 1978,
      "Ġentire": 1979,
      "'m": 1980,
      "Ġbehind": 1981,
      "irc": 1982,
      "Ġbad": 1983,
      "oto": 1984,
      "Ġrather": 1985,
      "ids": 1986,
      "ote": 1987,
      "Ġnear": 1988,
      "ails": 1989,
      "Ġaut": 1990,
      "ograp": 1991,
      "Ġbill": 1992,
      "ĠEng": 1993,
      "Ġindividual": 1994,
      "Ġmiss": 1995,
      "Ġpolicy": 1996,
      "ĠGr": 1997,
      "Ġfall": 1998,
      "Ġer": 1999,
      "ien": 2000,
      "ĠWar": 2001,
      "witter": 2002,
      "par": 2003,
      "osp": 2004,
      "play": 2005,
      "Ġdiscuss": 2006,
      "ris": 2007,
      "Ġvict": 2008,
      "Ġfood": 2009,
      "Ġmilitary": 2010,
      "What": 2011,
      "Ġthreat": 2012,
      "Ġfoot": 2013,
      "cer": 2014,
      "ĠAf": 2015,
      "Ġquick": 2016,
      "ĠComm": 2017,
      "ators": 2018,
      "Ġconnect": 2019,
      "Ġface": 2020,
      "lling": 2021,
      "Ġspace": 2022,
      "atic": 2023,
      "Ġ14": 2024,
      "Ġwanted": 2025,
      "ĠDon": 2026,
      "Ġtry": 2027,
      "Ġ2014": 2028,
      "Ġmult": 2029,
      "Ġtra": 2030,
      "reme": 2031,
      "rael": 2032,
      "ĠTo": 2033,
      "Ġbring": 2034,
      "AT": 2035,
      "aper": 2036,
      "Ġstudy": 2037,
      "ĠMan": 2038,
      "Ġsingle": 2039,
      "Ġsecurity": 2040,
      "yn": 2041,
      "uge": 2042,
      "ĠDep": 2043,
      "Ġblack": 2044,
      "Ġconcern": 2045,
      "Ġ13": 2046,
      "ĠCal": 2047,
      "elt": 2048,
      "On": 2049,
      "Ġmor": 2050,
      "ault": 2051,
      "RE": 2052,
      "off": 2053,
      "ĠCity": 2054,
      "ply": 2055,
      "Ġsal": 2056,
      "ĠWorld": 2057,
      ".)": 2058,
      "Ġsum": 2059,
      "Ġmass": 2060,
      "ĠIm": 2061,
      "Ġcoun": 2062,
      "Ġtaking": 2063,
      "now": 2064,
      "ify": 2065,
      "ran": 2066,
      "Ġattempt": 2067,
      "Ġfav": 2068,
      "An": 2069,
      "ĠClinton": 2070,
      "Ġdescrib": 2071,
      "Ġcult": 2072,
      "Ġspecial": 2073,
      "cing": 2074,
      "ÂŃ": 2075,
      "Ġcou": 2076,
      "Ġener": 2077,
      "Ġfront": 2078,
      "icult": 2079,
      "Ġjo": 2080,
      "Ġcompan": 2081,
      "Ġimm": 2082,
      "Ġ198": 2083,
      "Ġ17": 2084,
      "Ġsomeone": 2085,
      "14": 2086,
      "ĠHar": 2087,
      "When": 2088,
      "Ġnothing": 2089,
      "Ġhowever": 2090,
      "Ġlearn": 2091,
      "IN": 2092,
      "Ġkey": 2093,
      "Ġcomb": 2094,
      "ana": 2095,
      "rote": 2096,
      "13": 2097,
      "Ġredu": 2098,
      "aces": 2099,
      "Ġdecision": 2100,
      "ape": 2101,
      "ully": 2102,
      "ming": 2103,
      "ĠSec": 2104,
      "Ġbenef": 2105,
      "Ġstates": 2106,
      "That": 2107,
      "nes": 2108,
      "Ġinfl": 2109,
      "lement": 2110,
      "aul": 2111,
      "Ġexist": 2112,
      "dd": 2113,
      "Ġconv": 2114,
      "over": 2115,
      "ĠGe": 2116,
      "ashington": 2117,
      "Ġfederal": 2118,
      "Ġrepl": 2119,
      "Ã©": 2120,
      "Ġcoming": 2121,
      "Ġpret": 2122,
      "Ġplayer": 2123,
      "Ġprobably": 2124,
      "So": 2125,
      "ĠSu": 2126,
      "Ġhouse": 2127,
      "Ġsound": 2128,
      "lish": 2129,
      "Ġgun": 2130,
      "16": 2131,
      "Ġsus": 2132,
      "Ġstep": 2133,
      "Ġdoc": 2134,
      "asing": 2135,
      "Ġfurther": 2136,
      "uation": 2137,
      "Ġbegin": 2138,
      "ĠNational": 2139,
      "pecially": 2140,
      "Ġresearch": 2141,
      "Ġdue": 2142,
      "viron": 2143,
      "ĠGerman": 2144,
      "Ġrights": 2145,
      "lier": 2146,
      "Ġfire": 2147,
      "ĠHowever": 2148,
      "ches": 2149,
      "ĠJan": 2150,
      "Ġelse": 2151,
      "ĠAust": 2152,
      "Ġfig": 2153,
      "ĠGu": 2154,
      "Ġwa": 2155,
      "go": 2156,
      "Ġenc": 2157,
      "ried": 2158,
      "ivil": 2159,
      "ĠApp": 2160,
      "ĠSouth": 2161,
      "ively": 2162,
      "Ġfeat": 2163,
      "Ġsignific": 2164,
      "Ġissues": 2165,
      "Ġsw": 2166,
      "Ġwrote": 2167,
      "Ġdom": 2168,
      "Ġreleased": 2169,
      "Ġexec": 2170,
      "Ġsuper": 2171,
      "Ġwhole": 2172,
      "obal": 2173,
      "Ġbody": 2174,
      "Ġ2013": 2175,
      "Ġcand": 2176,
      "Ġeither": 2177,
      "Ġleaders": 2178,
      "Ġpoints": 2179,
      "Ġgeneral": 2180,
      "ery": 2181,
      "Ġeverything": 2182,
      "anks": 2183,
      "Ġbecame": 2184,
      "Ġtarg": 2185,
      "Ġseems": 2186,
      "Ġwasn": 2187,
      "Ġevidence": 2188,
      "Ġcreate": 2189,
      "ĠChina": 2190,
      "ilt": 2191,
      "ĠWith": 2192,
      "Ġstop": 2193,
      "Ġofficials": 2194,
      "Ch": 2195,
      "Ġservice": 2196,
      "Ġdi": 2197,
      "IS": 2198,
      "ently": 2199,
      "oon": 2200,
      "Ġsimilar": 2201,
      "Ġenergy": 2202,
      "ĠIsrael": 2203,
      "Ġthird": 2204,
      "olution": 2205,
      "irl": 2206,
      "Ġamount": 2207,
      "ĠDav": 2208,
      "Ġcompl": 2209,
      "Ġpick": 2210,
      "ps": 2211,
      "ĠRes": 2212,
      "Ġcompanies": 2213,
      "Ġey": 2214,
      "Ġstri": 2215,
      "sec": 2216,
      "Ġroom": 2217,
      "pite": 2218,
      "Ġdevelopment": 2219,
      "ades": 2220,
      "ĠÂ": 2221,
      "mb": 2222,
      "sw": 2223,
      "Ġcountries": 2224,
      "ĠWashington": 2225,
      "yle": 2226,
      "Ġmatter": 2227,
      "Ġwatch": 2228,
      "Ġbegan": 2229,
      "ĠPart": 2230,
      "Ġrole": 2231,
      "Ġopt": 2232,
      "Ġground": 2233,
      "Ġcustom": 2234,
      "iday": 2235,
      "Ġadminist": 2236,
      "Ġfinal": 2237,
      "Ġmusic": 2238,
      "Ġself": 2239,
      "Ġchall": 2240,
      "Ġdrug": 2241,
      "Ġposition": 2242,
      "ogn": 2243,
      "Ġdou": 2244,
      "Ġstat": 2245,
      "Ġcharacter": 2246,
      "Ġbreak": 2247,
      "att": 2248,
      "Ġ2017": 2249,
      "ON": 2250,
      "//": 2251,
      "17": 2252,
      "lim": 2253,
      "Ġmeas": 2254,
      "BC": 2255,
      "Ġ25": 2256,
      "Ġtrue": 2257,
      "rodu": 2258,
      "ww": 2259,
      "pping": 2260,
      "Ġfield": 2261,
      "Ġ100": 2262,
      "Ġspecific": 2263,
      "Ġhimself": 2264,
      "Ġhours": 2265,
      "Ġinterview": 2266,
      "like": 2267,
      "Ġ2012": 2268,
      "ĠJust": 2269,
      "Ġagree": 2270,
      "Ġstatement": 2271,
      "ĠIntern": 2272,
      "Ġrepresent": 2273,
      "Ġlarg": 2274,
      "aced": 2275,
      "AN": 2276,
      "iod": 2277,
      "Ġtem": 2278,
      "Ġoffice": 2279,
      "ĠInst": 2280,
      "Ġoutside": 2281,
      "ĠMed": 2282,
      "eal": 2283,
      "Ġaction": 2284,
      "ows": 2285,
      "Ġtreat": 2286,
      "Ġinit": 2287,
      "Ġsimply": 2288,
      "Ġlab": 2289,
      "Ġitself": 2290,
      "Ġwhite": 2291,
      "Ġgroups": 2292,
      "Ġthemselves": 2293,
      "Ġsuff": 2294,
      "Ġneeded": 2295,
      "Ġrad": 2296,
      "Ġcontinue": 2297,
      "amer": 2298,
      "AS": 2299,
      "ibility": 2300,
      "umb": 2301,
      "Ġdifficult": 2302,
      "vironment": 2303,
      "Ġsaw": 2304,
      "Ġphys": 2305,
      "Ġabove": 2306,
      "Ġbar": 2307,
      "Ġrelease": 2308,
      "Ġrelations": 2309,
      "'ll": 2310,
      "ĠAss": 2311,
      "**": 2312,
      "Ġcommon": 2313,
      "ili": 2314,
      "Ġneg": 2315,
      "ached": 2316,
      "light": 2317,
      "Ġrunning": 2318,
      "Ġdam": 2319,
      "Ġprovide": 2320,
      "head": 2321,
      "Ġwoman": 2322,
      "Ġanim": 2323,
      "ask": 2324,
      "iding": 2325,
      "ĠHis": 2326,
      "ograph": 2327,
      "eks": 2328,
      "Ġversion": 2329,
      "18": 2330,
      "Ġsignificant": 2331,
      "ĠEd": 2332,
      "Ġdest": 2333,
      "Ġbuilding": 2334,
      "Ġstudents": 2335,
      "Ġcharg": 2336,
      "ĠBar": 2337,
      "ream": 2338,
      "Ġbelow": 2339,
      "Ġshows": 2340,
      "ung": 2341,
      "ift": 2342,
      "Ġprofess": 2343,
      "ender": 2344,
      "Ġdeep": 2345,
      "right": 2346,
      "ned": 2347,
      "Ġaddress": 2348,
      "Ġexc": 2349,
      "Ġinclude": 2350,
      "Ġrespons": 2351,
      "Ġneeds": 2352,
      "Ġeconomic": 2353,
      "Ġespecially": 2354,
      "Ġchanges": 2355,
      "Ġbillion": 2356,
      "lam": 2357,
      "reg": 2358,
      "Ġcop": 2359,
      "Ġlat": 2360,
      "na": 2361,
      "ribut": 2362,
      "Ġcandid": 2363,
      "acebook": 2364,
      "Ġtyp": 2365,
      "Ġap": 2366,
      "Ġtrack": 2367,
      "Ġshoot": 2368,
      "Ġ:": 2369,
      "isc": 2370,
      "Ġlegal": 2371,
      "Ġinstead": 2372,
      "://": 2373,
      "ccording": 2374,
      "atur": 2375,
      "Ġeveryone": 2376,
      "epend": 2377,
      "Ġhigher": 2378,
      "iddle": 2379,
      "Ġcirc": 2380,
      "ĠWill": 2381,
      "Ġple": 2382,
      "ĠAfter": 2383,
      "oring": 2384,
      "angu": 2385,
      "Ġmot": 2386,
      "body": 2387,
      "ĠAb": 2388,
      "Ġlate": 2389,
      "Ġindustry": 2390,
      "omes": 2391,
      "Ġquite": 2392,
      "arter": 2393,
      "ĠMus": 2394,
      "Ġfriends": 2395,
      "Ġtit": 2396,
      "Ġrelig": 2397,
      "Ġelection": 2398,
      "Ġabs": 2399,
      "Ġmag": 2400,
      "ĠWest": 2401,
      "ournal": 2402,
      "Ġpretty": 2403,
      "ĠNot": 2404,
      "Ġsense": 2405,
      "Ġtotal": 2406,
      "Ġalleg": 2407,
      "Ġjud": 2408,
      "Ġplayed": 2409,
      "Ġweeks": 2410,
      "][": 2411,
      "ĠWhite": 2412,
      "Ġred": 2413,
      "Ġdecl": 2414,
      "ogle": 2415,
      "osing": 2416,
      "uary": 2417,
      "time": 2418,
      "Ġgoal": 2419,
      "Ġvote": 2420,
      "Ġvalue": 2421,
      "eed": 2422,
      "Ġlaws": 2423,
      "Ġce": 2424,
      "ĠSept": 2425,
      "lt": 2426,
      "Ġaccept": 2427,
      "Ġwords": 2428,
      "where": 2429,
      "Ġplaying": 2430,
      "Ġsite": 2431,
      "Ġperiod": 2432,
      "Ġlost": 2433,
      "Ġforward": 2434,
      "Ġworks": 2435,
      "Ġcomput": 2436,
      "Ġ50": 2437,
      "Ġlo": 2438,
      "ĠDepartment": 2439,
      "istic": 2440,
      "Ġrecently": 2441,
      "ival": 2442,
      "oke": 2443,
      "How": 2444,
      "Ġhost": 2445,
      "ky": 2446,
      "ager": 2447,
      "Ġgen": 2448,
      "60": 2449,
      "Ġblock": 2450,
      "Ġhope": 2451,
      "ĠCong": 2452,
      "che": 2453,
      "Ġinj": 2454,
      "hod": 2455,
      "Ġpred": 2456,
      "onse": 2457,
      "ĠAug": 2458,
      "Ġep": 2459,
      "ij": 2460,
      "ĠRepublican": 2461,
      "Ġmoment": 2462,
      "Ġpain": 2463,
      "Ġball": 2464,
      "Ġheld": 2465,
      "Ġpie": 2466,
      "ients": 2467,
      "Ġopportun": 2468,
      "oe": 2469,
      "ĠOct": 2470,
      "lev": 2471,
      "oph": 2472,
      "Ġshare": 2473,
      "ancial": 2474,
      "Ġfunction": 2475,
      "Ġwrong": 2476,
      "duct": 2477,
      "ularly": 2478,
      "irt": 2479,
      "ĠThese": 2480,
      "Ġconsider": 2481,
      "Ġdeter": 2482,
      "Ġwebs": 2483,
      "Ġwalk": 2484,
      "Ġparent": 2485,
      "ĠTwitter": 2486,
      "ech": 2487,
      "ĠMy": 2488,
      "cil": 2489,
      "Ġage": 2490,
      "Ġobject": 2491,
      "medi": 2492,
      "ateg": 2493,
      "Ġlonger": 2494,
      "ique": 2495,
      "Ġsoon": 2496,
      "ĠSm": 2497,
      "Ġcred": 2498,
      "ĠÐ": 2499,
      "Ġhy": 2500,
      "ole": 2501,
      "Ġ2011": 2502,
      "aut": 2503,
      "asons": 2504,
      "Ġsoft": 2505,
      "Ġreve": 2506,
      "ray": 2507,
      "Al": 2508,
      "Ġpopular": 2509,
      "Ġproblems": 2510,
      "Ġ197": 2511,
      "ends": 2512,
      "omm": 2513,
      "ĠMarch": 2514,
      "cle": 2515,
      "ham": 2516,
      "Ġstay": 2517,
      "Ġsold": 2518,
      "Ġled": 2519,
      "Ġ24": 2520,
      "fer": 2521,
      "val": 2522,
      "oid": 2523,
      "ĠCour": 2524,
      "Ġstru": 2525,
      "Ġpotential": 2526,
      "itution": 2527,
      "Ġport": 2528,
      "haps": 2529,
      "Ġdiv": 2530,
      "Ġminutes": 2531,
      "Ġprice": 2532,
      "ĠMich": 2533,
      "ĠNews": 2534,
      "Ġprim": 2535,
      "Ġreceived": 2536,
      "Ġrate": 2537,
      "ĠDr": 2538,
      "anger": 2539,
      "Ġcheck": 2540,
      "Ġapplic": 2541,
      "Ġexpress": 2542,
      "irm": 2543,
      "Ġresults": 2544,
      "ĠEn": 2545,
      "They": 2546,
      "Ġpersonal": 2547,
      "Ġreview": 2548,
      "Ġquestions": 2549,
      "Ġarticle": 2550,
      "ĠJune": 2551,
      "Ġstaff": 2552,
      "ĠPe": 2553,
      "Ġcode": 2554,
      "lege": 2555,
      "ĠGod": 2556,
      "bo": 2557,
      "Ġcases": 2558,
      "apan": 2559,
      "cial": 2560,
      "Ġearlier": 2561,
      "Ġur": 2562,
      "rel": 2563,
      "Ġrespect": 2564,
      "Ġanyone": 2565,
      "Ġshot": 2566,
      "Ġfocus": 2567,
      "Ġaud": 2568,
      "Ġcontract": 2569,
      "Ġonline": 2570,
      "Ġupd": 2571,
      "Ġtechnology": 2572,
      "25": 2573,
      "fect": 2574,
      "Ġexpected": 2575,
      "Ġspeak": 2576,
      "Ġcomment": 2577,
      "Ġwind": 2578,
      "hood": 2579,
      "pril": 2580,
      "Ġconsum": 2581,
      "ĠPar": 2582,
      "ners": 2583,
      "Ġdead": 2584,
      "Ġvol": 2585,
      "key": 2586,
      "Ġservices": 2587,
      "mp": 2588,
      "Ġeduc": 2589,
      "Ġways": 2590,
      "ĠMond": 2591,
      "Ġcreated": 2592,
      "Ġden": 2593,
      "ctor": 2594,
      "Ġannounced": 2595,
      "Ġexecut": 2596,
      "Ġincrease": 2597,
      "Ph": 2598,
      "ule": 2599,
      "Ġexact": 2600,
      "ĠSte": 2601,
      "ript": 2602,
      "aving": 2603,
      "Ġinvolved": 2604,
      "aging": 2605,
      "ĠJuly": 2606,
      "Ġaverage": 2607,
      "hern": 2608,
      "Ġusers": 2609,
      "aterial": 2610,
      "ĠCongress": 2611,
      "Ġinternational": 2612,
      "Ġglobal": 2613,
      "Ġcivil": 2614,
      "mon": 2615,
      "Ġimpact": 2616,
      "Ġsurpr": 2617,
      "Ġanti": 2618,
      "ĠRed": 2619,
      "Ġansw": 2620,
      "atives": 2621,
      "Ġreports": 2622,
      "Ġscient": 2623,
      "Ġcoll": 2624,
      "Ġtarget": 2625,
      "Ġprivate": 2626,
      "Ġ{": 2627,
      "okes": 2628,
      "ilities": 2629,
      "Ġoriginal": 2630,
      "Ġrequest": 2631,
      "Ġenvironment": 2632,
      "AR": 2633,
      "Ġsen": 2634,
      "ude": 2635,
      "Ġcit": 2636,
      "urd": 2637,
      "Ġsubject": 2638,
      "put": 2639,
      "Ġobs": 2640,
      "ĠHill": 2641,
      "ĠDo": 2642,
      "ples": 2643,
      "Ġpur": 2644,
      "Ġnecess": 2645,
      "Ġbase": 2646,
      "Ġnearly": 2647,
      "Ġheart": 2648,
      "ĠAmericans": 2649,
      "Ġeasy": 2650,
      "iple": 2651,
      "Ġrisk": 2652,
      "ES": 2653,
      "eg": 2654,
      "\".": 2655,
      "ises": 2656,
      "ĠAustral": 2657,
      "omb": 2658,
      "icro": 2659,
      "Ġrev": 2660,
      "eter": 2661,
      "Ġdel": 2662,
      "Ġarrest": 2663,
      "Ġliving": 2664,
      "tee": 2665,
      "hel": 2666,
      "ires": 2667,
      "ĠFacebook": 2668,
      "Ġleave": 2669,
      "isl": 2670,
      "bit": 2671,
      "Ġnation": 2672,
      "action": 2673,
      "Ġhappened": 2674,
      "Ġcannot": 2675,
      "ological": 2676,
      "Ġclub": 2677,
      "rem": 2678,
      "Ġet": 2679,
      "Ġresponse": 2680,
      "uesday": 2681,
      "ael": 2682,
      "ĠJanuary": 2683,
      "uel": 2684,
      "ĠAg": 2685,
      "Ad": 2686,
      "Ġphone": 2687,
      "bor": 2688,
      "Ġ2010": 2689,
      "Ġpack": 2690,
      "ĠFriday": 2691,
      "Ġcapt": 2692,
      "joy": 2693,
      "ĠCalif": 2694,
      "ought": 2695,
      "At": 2696,
      "izing": 2697,
      "Ġrace": 2698,
      "ĠNow": 2699,
      "ĠApril": 2700,
      "ĠMonday": 2701,
      "Ġforce": 2702,
      "Ġpublished": 2703,
      "Ġforeign": 2704,
      "Ġmodel": 2705,
      "Ġkilled": 2706,
      "Ġmid": 2707,
      "Ġinflu": 2708,
      "Ġestab": 2709,
      "Ġworked": 2710,
      "Ġdecided": 2711,
      "Ġrespond": 2712,
      "unt": 2713,
      "rain": 2714,
      "ruction": 2715,
      "Ġbuy": 2716,
      "Ġlangu": 2717,
      "Ġworth": 2718,
      "ino": 2719,
      "Ġdirector": 2720,
      "Ġgave": 2721,
      "rought": 2722,
      "Ġplans": 2723,
      "Ġfavor": 2724,
      "lled": 2725,
      "ĠOff": 2726,
      "Ġbroad": 2727,
      "Ġinside": 2728,
      "Ġweap": 2729,
      "Ġord": 2730,
      "Ġcollect": 2731,
      "Ġterms": 2732,
      "Ġability": 2733,
      "reet": 2734,
      "onst": 2735,
      "Ġrecogn": 2736,
      "Ġterror": 2737,
      "ĠWed": 2738,
      "ias": 2739,
      "Ġmother": 2740,
      "Ġtype": 2741,
      "Ġassoci": 2742,
      "Ġcapital": 2743,
      "ĠTuesday": 2744,
      "ĠSeptember": 2745,
      "ĠAct": 2746,
      "istan": 2747,
      "Ġchance": 2748,
      "cast": 2749,
      "Ġdefin": 2750,
      "Ġroad": 2751,
      "OR": 2752,
      "ĠCount": 2753,
      "Ġfinancial": 2754,
      "ructure": 2755,
      "ĠGoogle": 2756,
      "ĠJapan": 2757,
      "force": 2758,
      "ops": 2759,
      "ging": 2760,
      "Ġtal": 2761,
      "Ġarri": 2762,
      "ĠBritish": 2763,
      "ĠSome": 2764,
      "Ġlack": 2765,
      "atural": 2766,
      "Ġsituation": 2767,
      "rect": 2768,
      "Ġsecret": 2769,
      "Ġtakes": 2770,
      "Ġareas": 2771,
      "Ġadministration": 2772,
      "ĠPer": 2773,
      "Ġimmedi": 2774,
      "Ġsqu": 2775,
      "ĠWhile": 2776,
      "Ġ@": 2777,
      "ellig": 2778,
      "oor": 2779,
      "Ġteams": 2780,
      "ese": 2781,
      "Ġcurrently": 2782,
      "ips": 2783,
      "oved": 2784,
      "99": 2785,
      "oud": 2786,
      "Ġfans": 2787,
      "lex": 2788,
      "Ġ)": 2789,
      "Ġoil": 2790,
      "osition": 2791,
      "Ġ40": 2792,
      "ext": 2793,
      "Ġgirl": 2794,
      "Ġcal": 2795,
      "ĠGeor": 2796,
      "Ġfelt": 2797,
      "Ġrelationship": 2798,
      "Ġturned": 2799,
      "ĠPal": 2800,
      "Ġevents": 2801,
      "fully": 2802,
      "ĠBy": 2803,
      "ursday": 2804,
      "Ġstore": 2805,
      "rown": 2806,
      "Ġnorm": 2807,
      "Ġapproach": 2808,
      "Ġindic": 2809,
      "Ġbank": 2810,
      "Ġhuge": 2811,
      "Ġmethod": 2812,
      "ornia": 2813,
      "ĠSyri": 2814,
      "Ġcouple": 2815,
      "Ġwhose": 2816,
      "Ġlog": 2817,
      "Ġsource": 2818,
      "To": 2819,
      "Ġfre": 2820,
      "nesday": 2821,
      "Ġmember": 2822,
      "ma": 2823,
      "Ġaffect": 2824,
      "Ġmaterial": 2825,
      "Ġfather": 2826,
      "Ġregard": 2827,
      "One": 2828,
      "based": 2829,
      "ĠCourt": 2830,
      "Ġgoes": 2831,
      "\",": 2832,
      "40": 2833,
      "ovember": 2834,
      "ĠSund": 2835,
      "ety": 2836,
      "ees": 2837,
      "Ġrequire": 2838,
      "200": 2839,
      "Ġcell": 2840,
      "Ġvia": 2841,
      "Ġsong": 2842,
      "ĠAugust": 2843,
      "Ġphot": 2844,
      "Ġworkers": 2845,
      "ession": 2846,
      "Ġmis": 2847,
      "Ġeconomy": 2848,
      "Ġmeeting": 2849,
      "Ġste": 2850,
      "Ġquickly": 2851,
      "Ġcontent": 2852,
      "Ġsimple": 2853,
      "Ġemer": 2854,
      "Ġ21": 2855,
      "iment": 2856,
      "Ġhon": 2857,
      "ites": 2858,
      "Ġneigh": 2859,
      "Ġloss": 2860,
      "Ġknew": 2861,
      "ĠEuropean": 2862,
      "Ġnetwork": 2863,
      "Ġwide": 2864,
      "usion": 2865,
      "Ġlives": 2866,
      "raz": 2867,
      "Ġspent": 2868,
      "==": 2869,
      "ĠIslam": 2870,
      "Ġill": 2871,
      "Ġmatch": 2872,
      "âĢĿ.": 2873,
      "Ð¾": 2874,
      "ĠThursday": 2875,
      "ĠGl": 2876,
      "Ġparticip": 2877,
      "ĠWednesday": 2878,
      "bl": 2879,
      "Ġperformance": 2880,
      "avy": 2881,
      "Ġtou": 2882,
      "estern": 2883,
      "Ġbuilt": 2884,
      "Ġheard": 2885,
      "Ġincluded": 2886,
      "Ġrepe": 2887,
      "Ġpull": 2888,
      "arth": 2889,
      "ĠMe": 2890,
      "apt": 2891,
      "Ġemail": 2892,
      "ĠPaul": 2893,
      "Ġtravel": 2894,
      "Ġdemand": 2895,
      "Ġfem": 2896,
      "ume": 2897,
      "Ġpict": 2898,
      "Ġboy": 2899,
      "?âĢĿ": 2900,
      "Ġthous": 2901,
      "ills": 2902,
      "Ġcover": 2903,
      "Ġoffer": 2904,
      "Ġenjoy": 2905,
      "iam": 2906,
      "Ġdeli": 2907,
      "Ġwebsite": 2908,
      "'d": 2909,
      "ĠEl": 2910,
      "ĠDavid": 2911,
      "Ġhands": 2912,
      "ĠCalifornia": 2913,
      "ĠCor": 2914,
      "ĠCanada": 2915,
      "EN": 2916,
      "Ġproduction": 2917,
      "Sh": 2918,
      "atory": 2919,
      "ĠPark": 2920,
      "ened": 2921,
      "Ġgrowth": 2922,
      "ĠFeb": 2923,
      "Ġtrade": 2924,
      "Ġpers": 2925,
      "Ġpage": 2926,
      "Ġpopulation": 2927,
      "Ġcy": 2928,
      "aur": 2929,
      "ĠNovember": 2930,
      "vertise": 2931,
      "chie": 2932,
      "Ġboard": 2933,
      "Ġvisit": 2934,
      "aled": 2935,
      "Ġsepar": 2936,
      "Ġvo": 2937,
      "Ġpoll": 2938,
      "Ġgets": 2939,
      "cember": 2940,
      "aily": 2941,
      "ĠSan": 2942,
      "ĠTV": 2943,
      "Ġlower": 2944,
      "ĠSch": 2945,
      "Ġcause": 2946,
      "Ġintrodu": 2947,
      "ceed": 2948,
      "uk": 2949,
      "orters": 2950,
      "idered": 2951,
      "ctions": 2952,
      "Ġ22": 2953,
      "ĠAfric": 2954,
      "face": 2955,
      "Ġfair": 2956,
      "ĠQu": 2957,
      "Ġreach": 2958,
      "cies": 2959,
      "Ġfear": 2960,
      "ĠUK": 2961,
      "Ġround": 2962,
      "Ġprogress": 2963,
      "Ġhot": 2964,
      "ĠOctober": 2965,
      "ĠSunday": 2966,
      "Ġtried": 2967,
      "Ġengine": 2968,
      "alled": 2969,
      "ences": 2970,
      "Ġcareer": 2971,
      "gest": 2972,
      "Ġtown": 2973,
      "unk": 2974,
      "uses": 2975,
      "ze": 2976,
      "Ġimprove": 2977,
      "After": 2978,
      "Ġbrought": 2979,
      "Ġnumbers": 2980,
      "Ġperfect": 2981,
      "Ġlink": 2982,
      "ĠAng": 2983,
      "iction": 2984,
      "ĠPost": 2985,
      "ights": 2986,
      "ining": 2987,
      "Ġvictim": 2988,
      "ĠStar": 2989,
      "Ġvarious": 2990,
      "arily": 2991,
      "Ġparticular": 2992,
      "Ġcontact": 2993,
      "undred": 2994,
      "Ġcitiz": 2995,
      "Ġrac": 2996,
      "ĠKore": 2997,
      "Ġprevious": 2998,
      "order": 2999,
      "yond": 3000,
      "Ġsize": 3001,
      "With": 3002,
      "?\"": 3003,
      "Ġspeed": 3004,
      "Ġallowed": 3005,
      "Ġfell": 3006,
      "Ġmorning": 3007,
      "Ġtool": 3008,
      "ĠRussia": 3009,
      "ett": 3010,
      "Ġlegisl": 3011,
      "Ġconsidered": 3012,
      "Ġindepend": 3013,
      "Ġwants": 3014,
      "aker": 3015,
      "idents": 3016,
      "bed": 3017,
      "Ġdoll": 3018,
      "chers": 3019,
      "sych": 3020,
      "Ġleader": 3021,
      "load": 3022,
      "down": 3023,
      "agement": 3024,
      "Ġprep": 3025,
      "Ġbehav": 3026,
      "ani": 3027,
      "urning": 3028,
      "ĠCenter": 3029,
      "ecause": 3030,
      "ĠParty": 3031,
      "oming": 3032,
      "Ġforces": 3033,
      "raq": 3034,
      "omp": 3035,
      "Ġ+": 3036,
      "ĠDecember": 3037,
      "Ġrules": 3038,
      "22": 3039,
      "AL": 3040,
      "Ġcoach": 3041,
      "ification": 3042,
      "ibly": 3043,
      "Ġextreme": 3044,
      "inks": 3045,
      "oo": 3046,
      "Ġtalking": 3047,
      "lear": 3048,
      "Ġess": 3049,
      "Ġstar": 3050,
      "ope": 3051,
      "sequ": 3052,
      "Ġexam": 3053,
      "Ġslow": 3054,
      "Ġliber": 3055,
      "Ġmention": 3056,
      "ĠPat": 3057,
      "imately": 3058,
      "field": 3059,
      "Ġmovement": 3060,
      "uments": 3061,
      "aries": 3062,
      "rim": 3063,
      "Ġcritic": 3064,
      "Ġsurve": 3065,
      "ĠHer": 3066,
      "Ġbud": 3067,
      "ĠSoc": 3068,
      "ysis": 3069,
      "hold": 3070,
      "Ġ23": 3071,
      "ening": 3072,
      "illed": 3073,
      "uf": 3074,
      "ha": 3075,
      "Ġsystems": 3076,
      "aturday": 3077,
      "Ġtraining": 3078,
      "Ġdig": 3079,
      "Ġhear": 3080,
      "uit": 3081,
      "ĠSw": 3082,
      "Ġimmig": 3083,
      "fl": 3084,
      "Ġens": 3085,
      "Ġsearch": 3086,
      "Ġattention": 3087,
      "Ġ*": 3088,
      "ban": 3089,
      "Ġrange": 3090,
      "Ġcrim": 3091,
      "alt": 3092,
      "ĠTimes": 3093,
      "ĠSenate": 3094,
      "Ġconserv": 3095,
      "While": 3096,
      "Ġstrugg": 3097,
      "Ġconduct": 3098,
      "Ġlatest": 3099,
      "come": 3100,
      "het": 3101,
      "Ġsens": 3102,
      "Ġson": 3103,
      "vent": 3104,
      "Ġbox": 3105,
      "nces": 3106,
      "ĠIS": 3107,
      "ĠIraq": 3108,
      "Ġpaper": 3109,
      "Ġlooks": 3110,
      "Ġoccur": 3111,
      "ledge": 3112,
      "Ġinvestigation": 3113,
      "Ġexcept": 3114,
      "iant": 3115,
      "Ġeffort": 3116,
      "ĠBlack": 3117,
      "ĠSand": 3118,
      "Ġblood": 3119,
      "Ġnamed": 3120,
      "ondon": 3121,
      ");": 3122,
      "Ġtext": 3123,
      "Ġdocument": 3124,
      "Ġhtt": 3125,
      "--------": 3126,
      "Ġreb": 3127,
      "Ġsort": 3128,
      "Ġmedical": 3129,
      "icles": 3130,
      "Ġlevels": 3131,
      "Ġserious": 3132,
      "Ġseven": 3133,
      "Ġofficers": 3134,
      "Ġseek": 3135,
      "Ġparents": 3136,
      "aly": 3137,
      "eff": 3138,
      "Ġspokes": 3139,
      "fort": 3140,
      "Ġupon": 3141,
      "Ġveh": 3142,
      "Ġfeatures": 3143,
      "eared": 3144,
      "aves": 3145,
      "sp": 3146,
      "Ġsociety": 3147,
      "ground": 3148,
      "Ġimage": 3149,
      "Ġwritten": 3150,
      "ED": 3151,
      "Ġdro": 3152,
      "wo": 3153,
      "elligence": 3154,
      "Ġrequired": 3155,
      "AC": 3156,
      "Ġund": 3157,
      "Ġgas": 3158,
      "ibr": 3159,
      "inese": 3160,
      "Ġconvers": 3161,
      "Ġdoub": 3162,
      "Ðµ": 3163,
      "Ġwond": 3164,
      "ĠCounty": 3165,
      "Ġmajority": 3166,
      "ĠStreet": 3167,
      "Ġ2009": 3168,
      "ãĤ": 3169,
      "Ġfix": 3170,
      "Ġexactly": 3171,
      "ales": 3172,
      "Ġaddition": 3173,
      "ĠDemocratic": 3174,
      "ges": 3175,
      "Ġlay": 3176,
      "OS": 3177,
      "aming": 3178,
      "Ġexperien": 3179,
      "Ġlanguage": 3180,
      "Ġdespite": 3181,
      "US": 3182,
      "ico": 3183,
      "Ġult": 3184,
      "ĠIndia": 3185,
      "Ġfast": 3186,
      "Ġbiggest": 3187,
      "Ġstuff": 3188,
      "ĠMuslim": 3189,
      "ĠKing": 3190,
      "Ġeight": 3191,
      "ĠChe": 3192,
      "inally": 3193,
      "Ġparticularly": 3194,
      "Ġdescribed": 3195,
      "Ġextra": 3196,
      "Ġâ": 3197,
      "erve": 3198,
      "No": 3199,
      "Ġdraw": 3200,
      "AM": 3201,
      "Tr": 3202,
      "ĠCont": 3203,
      "set": 3204,
      "Ġhor": 3205,
      "idge": 3206,
      "ĠMor": 3207,
      "ĠDonald": 3208,
      "Ġ<": 3209,
      "Ġlooked": 3210,
      "ĠSaturday": 3211,
      "Ġ2008": 3212,
      "Ġpan": 3213,
      "Ġprotest": 3214,
      "Ġmach": 3215,
      "Ġsoftware": 3216,
      "Ġachie": 3217,
      "Ġincreasing": 3218,
      "Ġuser": 3219,
      "Ġprison": 3220,
      "zz": 3221,
      "pper": 3222,
      "Ġhundred": 3223,
      "Ġcompletely": 3224,
      "Ġmessage": 3225,
      "Ġattacks": 3226,
      "Ġmodern": 3227,
      "Ġleading": 3228,
      "ĠTex": 3229,
      "ny": 3230,
      "Ġopportunity": 3231,
      "ĠRepublicans": 3232,
      "rast": 3233,
      "ĠEm": 3234,
      "Ġitem": 3235,
      "coin": 3236,
      "ĠJew": 3237,
      "ruary": 3238,
      "Ġdefense": 3239,
      "ux": 3240,
      "Ġpractice": 3241,
      "She": 3242,
      "Ġprior": 3243,
      "Ġprevent": 3244,
      "Ġwriting": 3245,
      "Ġfinally": 3246,
      "Ġcard": 3247,
      "isions": 3248,
      "Ġ27": 3249,
      "BI": 3250,
      "iers": 3251,
      "Ġobv": 3252,
      "Ġcosts": 3253,
      "ishing": 3254,
      "uing": 3255,
      "ara": 3256,
      "ĠIran": 3257,
      "Ġil": 3258,
      "ĠMark": 3259,
      "Ġcalls": 3260,
      "Ġsometimes": 3261,
      "Ġpoor": 3262,
      "eth": 3263,
      "Ġpurch": 3264,
      "tr": 3265,
      "Ġpen": 3266,
      "Ġclaims": 3267,
      "FL": 3268,
      "Ġjobs": 3269,
      "Ġones": 3270,
      "Ġquality": 3271,
      "Ġjournal": 3272,
      "80": 3273,
      "Ġstories": 3274,
      "entially": 3275,
      "ĠLondon": 3276,
      "24": 3277,
      "lin": 3278,
      "Ġpath": 3279,
      "lying": 3280,
      "iring": 3281,
      "anced": 3282,
      "Ġassist": 3283,
      "Ġchanged": 3284,
      "Ġsn": 3285,
      "Ġchief": 3286,
      "uclear": 3287,
      "Ġdanger": 3288,
      "Ġnatural": 3289,
      "Ġparts": 3290,
      "Ġcarry": 3291,
      "Ð°": 3292,
      "Ġtable": 3293,
      "ources": 3294,
      "Ġcommunic": 3295,
      "Ġhistor": 3296,
      "oses": 3297,
      "IC": 3298,
      "Ġfootball": 3299,
      "Ġcertainly": 3300,
      "asc": 3301,
      "Ġstandard": 3302,
      "Ġremains": 3303,
      "Ġclimate": 3304,
      "Ġvoters": 3305,
      "ida": 3306,
      "Ġhous": 3307,
      "room": 3308,
      "ĠRussian": 3309,
      "reedom": 3310,
      "Ġpaid": 3311,
      "Ġment": 3312,
      "Ġproducts": 3313,
      "Ġreality": 3314,
      "inated": 3315,
      "ĠLeague": 3316,
      "Ġinn": 3317,
      "Ġthinking": 3318,
      "Ġplat": 3319,
      "Ġdied": 3320,
      "OP": 3321,
      "Ġstarting": 3322,
      "Ġincome": 3323,
      "abor": 3324,
      "ĠCons": 3325,
      "Ġregul": 3326,
      "Ġguy": 3327,
      "ously": 3328,
      "Ġimag": 3329,
      "ĠRom": 3330,
      "Ġprovided": 3331,
      "Ġaren": 3332,
      "Ġinteresting": 3333,
      "arr": 3334,
      "rench": 3335,
      "Ġmill": 3336,
      "ĠSpe": 3337,
      "Ġimplement": 3338,
      "Ġshowed": 3339,
      "Ġcentury": 3340,
      "erc": 3341,
      "ĠKe": 3342,
      "Ġmiddle": 3343,
      "Ġscreen": 3344,
      "Ġremain": 3345,
      "23": 3346,
      "Ġincreased": 3347,
      "Ġcele": 3348,
      "ari": 3349,
      "Ġregion": 3350,
      "Ġdirectly": 3351,
      "Ġdog": 3352,
      "Ġgiving": 3353,
      "ĠTor": 3354,
      "ĠBill": 3355,
      "ĠNet": 3356,
      "Ġspot": 3357,
      "Ġspeech": 3358,
      "aught": 3359,
      "ĠMcC": 3360,
      "Ġperhaps": 3361,
      "ospital": 3362,
      "Ġsummer": 3363,
      "Ġcontinued": 3364,
      "Ġusually": 3365,
      "Ġunf": 3366,
      "Ġofficer": 3367,
      "ension": 3368,
      "Ġgrowing": 3369,
      "Ġalthough": 3370,
      "cient": 3371,
      "ĠEast": 3372,
      "Ġcomplex": 3373,
      "Ġanswer": 3374,
      "ĠChinese": 3375,
      "Ġterm": 3376,
      "Ġmaintain": 3377,
      "Ġadditional": 3378,
      "Ġ28": 3379,
      "Ġcomments": 3380,
      "Ġfit": 3381,
      "oul": 3382,
      "Ġbeyond": 3383,
      "aph": 3384,
      "Ġviolence": 3385,
      "ĠFebruary": 3386,
      "Ġsurv": 3387,
      "ĠCoun": 3388,
      "vertisement": 3389,
      "ression": 3390,
      "29": 3391,
      "overed": 3392,
      "ĠMichael": 3393,
      "Ġready": 3394,
      "Ġkids": 3395,
      "Ġmultiple": 3396,
      "Ġnom": 3397,
      "utions": 3398,
      "Ġ(@": 3399,
      "Ġscience": 3400,
      "Ġculture": 3401,
      "Ġresear": 3402,
      "inary": 3403,
      "Ġcounter": 3404,
      "Ġcomputer": 3405,
      "Ġaw": 3406,
      "ivity": 3407,
      "ĠChar": 3408,
      "Ġmovie": 3409,
      "amb": 3410,
      "ables": 3411,
      "Ġdetails": 3412,
      "Ġproperty": 3413,
      "Ġcris": 3414,
      "Ġsafe": 3415,
      "aches": 3416,
      "Ġwouldn": 3417,
      "Ġsat": 3418,
      "ĠThen": 3419,
      "Ġselect": 3420,
      "Ġsafety": 3421,
      "acher": 3422,
      "adem": 3423,
      "ille": 3424,
      "ĠMore": 3425,
      "atever": 3426,
      "ĠEven": 3427,
      "Now": 3428,
      "Ġ26": 3429,
      "Ġquarter": 3430,
      "Ġfigure": 3431,
      "Ġefforts": 3432,
      "Ġwife": 3433,
      "Ġrout": 3434,
      "Ġpressure": 3435,
      "Ġut": 3436,
      "Ġgone": 3437,
      "astic": 3438,
      "itch": 3439,
      "Ġtour": 3440,
      "mitted": 3441,
      "urg": 3442,
      "ford": 3443,
      "icks": 3444,
      "ĠInt": 3445,
      "ĠDes": 3446,
      "Ġoption": 3447,
      "add": 3448,
      "using": 3449,
      "Ġtro": 3450,
      "Ġpark": 3451,
      "ĠMinister": 3452,
      "Ġpurp": 3453,
      "itor": 3454,
      "ĠJames": 3455,
      "Ġcommand": 3456,
      "Ġ...": 3457,
      "Ġband": 3458,
      "imum": 3459,
      "aughter": 3460,
      "Ġchoice": 3461,
      "oper": 3462,
      "akers": 3463,
      "Ġcouldn": 3464,
      "Ġdemonst": 3465,
      "bum": 3466,
      "Ġbi": 3467,
      "Ġcamer": 3468,
      "enge": 3469,
      "rowd": 3470,
      "egr": 3471,
      "Ġpresidential": 3472,
      "wise": 3473,
      "ĠGener": 3474,
      "Ġeducation": 3475,
      "Ġtowards": 3476,
      "irth": 3477,
      "ĠII": 3478,
      "Ġalone": 3479,
      "Ġwrite": 3480,
      "Ġconcept": 3481,
      "Ġconference": 3482,
      "hib": 3483,
      "ĠFirst": 3484,
      "Ġrelative": 3485,
      "Ġincludes": 3486,
      "Ġdifference": 3487,
      "Ġdesigned": 3488,
      "airs": 3489,
      "itute": 3490,
      "Ġconsist": 3491,
      "Ġtitle": 3492,
      "icated": 3493,
      "Ġreasons": 3494,
      "Ġ196": 3495,
      "Ġver": 3496,
      "ĠSer": 3497,
      "ĠApple": 3498,
      "Ġscene": 3499,
      "Ġreceive": 3500,
      "Ġdebate": 3501,
      "Ġguys": 3502,
      "Ġten": 3503,
      "Ġcross": 3504,
      "Ġrock": 3505,
      "etro": 3506,
      "ĠÂ£": 3507,
      "Ġthousands": 3508,
      "Ġestim": 3509,
      "Ġsexual": 3510,
      "pre": 3511,
      "Ġclean": 3512,
      "ĠServ": 3513,
      "ago": 3514,
      "Ġreading": 3515,
      "Ġthroughout": 3516,
      "Ġdeg": 3517,
      "Ġsubst": 3518,
      "27": 3519,
      "hest": 3520,
      "attle": 3521,
      "Ġbott": 3522,
      "ĠSim": 3523,
      "Ġpassed": 3524,
      "Ġepis": 3525,
      "ĠRich": 3526,
      "de": 3527,
      "ĠâĢ¦": 3528,
      "Ġscore": 3529,
      "Ġagency": 3530,
      "Ġsuspect": 3531,
      "ero": 3532,
      "Ġcorpor": 3533,
      "aint": 3534,
      "Ġrecomm": 3535,
      "Im": 3536,
      "omen": 3537,
      "Ġtoward": 3538,
      "ston": 3539,
      "ĠTexas": 3540,
      "Ġschools": 3541,
      "ĠEnglish": 3542,
      "anch": 3543,
      "Ġmoved": 3544,
      "Ġopin": 3545,
      "ilies": 3546,
      "sey": 3547,
      "Ġcontribut": 3548,
      "ĠDemocrats": 3549,
      "Ġconditions": 3550,
      "Ġeffects": 3551,
      "Ġlargest": 3552,
      "Ġpiece": 3553,
      "iles": 3554,
      "ocked": 3555,
      "Ġplatform": 3556,
      "iny": 3557,
      "Ġshown": 3558,
      "Ġletter": 3559,
      "Ġstage": 3560,
      "Ġfrequ": 3561,
      "rupt": 3562,
      "ĠIndian": 3563,
      "Ġimmediately": 3564,
      "Ġign": 3565,
      "obile": 3566,
      "Ġearn": 3567,
      "ĠGermany": 3568,
      "icient": 3569,
      "new": 3570,
      "Ġdisapp": 3571,
      "Ġbattle": 3572,
      "Ġcast": 3573,
      "rief": 3574,
      "Ġclos": 3575,
      "IT": 3576,
      "ampions": 3577,
      "venue": 3578,
      "Ġalleged": 3579,
      "ĠNe": 3580,
      "Ġcenter": 3581,
      "ĠAssoci": 3582,
      "rated": 3583,
      "orney": 3584,
      "Ġappears": 3585,
      "Ġhom": 3586,
      "Ġhelped": 3587,
      "just": 3588,
      "urt": 3589,
      "Ġprec": 3590,
      "ĠMon": 3591,
      "Ġspending": 3592,
      "ĠBo": 3593,
      "Ġdamage": 3594,
      "Ġchalleng": 3595,
      "Ġfailed": 3596,
      "ĠTH": 3597,
      "Ġtrust": 3598,
      "ufact": 3599,
      "Ġlaunch": 3600,
      "Ġahead": 3601,
      "Äĥ": 3602,
      "roy": 3603,
      "olute": 3604,
      "Ġsell": 3605,
      "Ġblog": 3606,
      "Ġsle": 3607,
      "ĠEarth": 3608,
      "Ġanalysis": 3609,
      "inn": 3610,
      "Ġorganization": 3611,
      "Ġang": 3612,
      "Ġdate": 3613,
      "Ġnuclear": 3614,
      "New": 3615,
      "Ġplant": 3616,
      "Ġhappy": 3617,
      "Ġcrisis": 3618,
      "Ġsil": 3619,
      "la": 3620,
      "ĠÃ": 3621,
      "Ġrob": 3622,
      "Ġilleg": 3623,
      "All": 3624,
      "ken": 3625,
      "Ġdisp": 3626,
      "Ġyourself": 3627,
      "Ġfeature": 3628,
      "28": 3629,
      "ester": 3630,
      "Ġremember": 3631,
      "Ġban": 3632,
      "ĠMart": 3633,
      "ĠGreen": 3634,
      "Ġeventually": 3635,
      "Ġswe": 3636,
      "Ġstudent": 3637,
      "Ġmeant": 3638,
      "Ġdrive": 3639,
      "encies": 3640,
      "Ġreligious": 3641,
      "Ġcriminal": 3642,
      "agon": 3643,
      "ĠOf": 3644,
      "Ġbeginning": 3645,
      "Ġpsych": 3646,
      "yan": 3647,
      "Ġfile": 3648,
      "ĠJack": 3649,
      "Ġbudget": 3650,
      "AD": 3651,
      "Ġmyself": 3652,
      "Ġesc": 3653,
      "Ġconfir": 3654,
      "Don": 3655,
      "Ġeyes": 3656,
      "Ð¸": 3657,
      "Ġ}": 3658,
      "Ġautom": 3659,
      "ares": 3660,
      "Ġnature": 3661,
      "Ġforced": 3662,
      "Ġnote": 3663,
      "Ġencour": 3664,
      "Ġcitizens": 3665,
      "Ġarch": 3666,
      "ĠHere": 3667,
      "Ġdecades": 3668,
      "OT": 3669,
      "Ġlimited": 3670,
      "Ġ>": 3671,
      "Ġpolitics": 3672,
      "45": 3673,
      "Ġaware": 3674,
      "ĠAir": 3675,
      "Ġcompared": 3676,
      "Ġexecutive": 3677,
      "Ġprojects": 3678,
      "Ġbrain": 3679,
      "26": 3680,
      "____": 3681,
      "Ġphysical": 3682,
      "21": 3683,
      "Ġcandidate": 3684,
      "Ġdark": 3685,
      "Ġcrowd": 3686,
      "Ġgrad": 3687,
      "Ġcorrect": 3688,
      "Ġmeaning": 3689,
      "oes": 3690,
      "urance": 3691,
      "Ġmoving": 3692,
      "Ġstudies": 3693,
      "Ġfan": 3694,
      "orks": 3695,
      "Ġpowerful": 3696,
      "Ġ60": 3697,
      "iced": 3698,
      "Ġcharge": 3699,
      "Ġcool": 3700,
      "Ġrefer": 3701,
      "Ġaim": 3702,
      "ĠJer": 3703,
      "Ġfeed": 3704,
      "Ġactions": 3705,
      "Ġx": 3706,
      "Re": 3707,
      "men": 3708,
      "ĠSuper": 3709,
      "ĠEU": 3710,
      "craft": 3711,
      "âĢĶâĢĶ": 3712,
      "Ġcrime": 3713,
      "Ġcopy": 3714,
      "more": 3715,
      "Ġreached": 3716,
      "riage": 3717,
      "Ġnoted": 3718,
      "Ġsenior": 3719,
      "uty": 3720,
      "Ġbooks": 3721,
      "Ġindividuals": 3722,
      "itation": 3723,
      "enty": 3724,
      "Ġfollowed": 3725,
      "100": 3726,
      "Ġobserv": 3727,
      "Ġsche": 3728,
      "Ġsto": 3729,
      "Ġpredict": 3730,
      "Ġgives": 3731,
      "35": 3732,
      "Ġdeveloped": 3733,
      "IA": 3734,
      "):": 3735,
      "ĠPolice": 3736,
      "berg": 3737,
      "ĠInternational": 3738,
      "Ġnecessary": 3739,
      "Ġtraff": 3740,
      "Ġcontinues": 3741,
      "Ġvari": 3742,
      "orter": 3743,
      "Ġsigned": 3744,
      "Ġ29": 3745,
      "Ġeasily": 3746,
      "nown": 3747,
      "Ġrap": 3748,
      "Ġleague": 3749,
      "Ġavoid": 3750,
      "My": 3751,
      "Ġaltern": 3752,
      "Ġpromot": 3753,
      "Ġalbum": 3754,
      "Ġdevice": 3755,
      "ãĥ": 3756,
      "ĠRober": 3757,
      "Ġfamilies": 3758,
      "Ġallows": 3759,
      "Ġdetail": 3760,
      "ĠGeorge": 3761,
      "arian": 3762,
      "Ġmaybe": 3763,
      "ource": 3764,
      "ean": 3765,
      "ĠSchool": 3766,
      "Ġoverall": 3767,
      "Ġpolicies": 3768,
      "ĠSmith": 3769,
      "Ġwall": 3770,
      "Ġuses": 3771,
      "Un": 3772,
      "board": 3773,
      "owers": 3774,
      "Pro": 3775,
      "ĠMex": 3776,
      "Ġenforce": 3777,
      "Ġlines": 3778,
      "According": 3779,
      "Ġstra": 3780,
      "Ġconflic": 3781,
      "ĠTur": 3782,
      "Ġstreng": 3783,
      "ĠGovern": 3784,
      "Ġweapons": 3785,
      "By": 3786,
      "Ġunique": 3787,
      "Ġtruth": 3788,
      "Ġappeared": 3789,
      "Be": 3790,
      "part": 3791,
      "Ġspread": 3792,
      "Ġactivity": 3793,
      "cul": 3794,
      "Ġsusp": 3795,
      "band": 3796,
      "Ġideas": 3797,
      "Ġbal": 3798,
      "Ġmix": 3799,
      "Ġtemper": 3800,
      "ĠDis": 3801,
      "Ġcharacters": 3802,
      "Ġpositive": 3803,
      "bon": 3804,
      "Ġstyle": 3805,
      "lease": 3806,
      "ĠFrench": 3807,
      "Is": 3808,
      "Ġrelated": 3809,
      "Ġnice": 3810,
      "Ġprem": 3811,
      "Ġbrother": 3812,
      "ĠBen": 3813,
      "Ġprint": 3814,
      "Ġpus": 3815,
      "ports": 3816,
      "Ġreform": 3817,
      "Ġcaused": 3818,
      "Ġgold": 3819,
      "rs": 3820,
      "Ġlif": 3821,
      "Ġadvant": 3822,
      "Ġkept": 3823,
      "ĠBel": 3824,
      "itely": 3825,
      "Ġmeasure": 3826,
      "Some": 3827,
      "Ġtouch": 3828,
      "Ġgreater": 3829,
      "onents": 3830,
      "ĠVal": 3831,
      "ĠCap": 3832,
      "Ġgrand": 3833,
      "Ġspir": 3834,
      "Ġpreviously": 3835,
      "Ġadop": 3836,
      "Ġcentral": 3837,
      "oti": 3838,
      "ĠDay": 3839,
      "Ġplaces": 3840,
      "Ġcredit": 3841,
      "chan": 3842,
      "Ġtwe": 3843,
      "Ġpatients": 3844,
      "Ġdraft": 3845,
      "Ġvoice": 3846,
      "secut": 3847,
      "Ġ2007": 3848,
      "Ġshooting": 3849,
      "33": 3850,
      "see": 3851,
      "Ġthrow": 3852,
      "Ġexpand": 3853,
      "Ġminor": 3854,
      "Ġagreement": 3855,
      "Ġminister": 3856,
      "Ġclaimed": 3857,
      "ĠCouncil": 3858,
      "Ġmist": 3859,
      "Ġmanufact": 3860,
      "ĠTom": 3861,
      "Ġgoals": 3862,
      "Ġcustomers": 3863,
      "dom": 3864,
      "Ġcharges": 3865,
      "ĠAustralia": 3866,
      "ĠAnt": 3867,
      "Ġbenefits": 3868,
      "Ġcat": 3869,
      "Ġdoor": 3870,
      "Ġapparent": 3871,
      "Ġhighly": 3872,
      "ĠBrown": 3873,
      "Ġemb": 3874,
      "Ġfully": 3875,
      "pir": 3876,
      "wood": 3877,
      "Ġdisplay": 3878,
      "Ġexch": 3879,
      "iverse": 3880,
      "while": 3881,
      "Ġfirm": 3882,
      "Ġrare": 3883,
      "Ġunc": 3884,
      "Ġknows": 3885,
      "Ġsmart": 3886,
      "ressed": 3887,
      "Ġintelligence": 3888,
      "Ġcollege": 3889,
      "ĠUnion": 3890,
      "Ġstatus": 3891,
      "iven": 3892,
      "ĠHigh": 3893,
      "Ġsave": 3894,
      "ĠChristian": 3895,
      "Ġspend": 3896,
      "Ġsuccessful": 3897,
      "Ġnormal": 3898,
      "Ġweb": 3899,
      ".âĢĻ": 3900,
      "ategy": 3901,
      "oday": 3902,
      "Ġfeet": 3903,
      "Ġtreatment": 3904,
      "rial": 3905,
      "que": 3906,
      "Ġclearly": 3907,
      "ube": 3908,
      "mar": 3909,
      "Ġchallenge": 3910,
      "Ġanaly": 3911,
      "EC": 3912,
      "ĠFlor": 3913,
      "earch": 3914,
      "Ġended": 3915,
      "ĠAngel": 3916,
      "Ġrise": 3917,
      "resh": 3918,
      "box": 3919,
      "Ġstation": 3920,
      "ĠArab": 3921,
      "Ġprimary": 3922,
      "70": 3923,
      "Ġcities": 3924,
      "Ġbirth": 3925,
      "Ġincident": 3926,
      "Ġslight": 3927,
      "Ġfine": 3928,
      "Ġpeace": 3929,
      "Ġlic": 3930,
      "iders": 3931,
      "Ġrates": 3932,
      "Ġimpl": 3933,
      "Ġdrop": 3934,
      "mark": 3935,
      "ĠPlay": 3936,
      "Ġsupposed": 3937,
      "Ġlaun": 3938,
      "Advertisement": 3939,
      "Ġmostly": 3940,
      "Ġfa": 3941,
      "ĠFrom": 3942,
      "ĠComp": 3943,
      "term": 3944,
      "Ġlarger": 3945,
      "aud": 3946,
      "iled": 3947,
      "antly": 3948,
      "ĠSyria": 3949,
      "itness": 3950,
      "ĠBush": 3951,
      "Ġprograms": 3952,
      "âĢ¢": 3953,
      "Ġfat": 3954,
      "Ġbeaut": 3955,
      "miss": 3956,
      "ingly": 3957,
      "Ġknowledge": 3958,
      "Ġhar": 3959,
      "ĠBer": 3960,
      "ounds": 3961,
      "Ġdise": 3962,
      "icit": 3963,
      "Ġregular": 3964,
      "ram": 3965,
      "AP": 3966,
      "Ġleaving": 3967,
      "iance": 3968,
      "olic": 3969,
      "ĠMost": 3970,
      "Ġseemed": 3971,
      "Ġwhom": 3972,
      "ĠEvery": 3973,
      "aby": 3974,
      "Ġmanager": 3975,
      "Ġcalling": 3976,
      "Ġmassive": 3977,
      "Ġorganiz": 3978,
      "Ġresearchers": 3979,
      "icago": 3980,
      "ado": 3981,
      "ĠAccording": 3982,
      "ĠRob": 3983,
      "Ġbeat": 3984,
      "Ġattract": 3985,
      "ĠReg": 3986,
      "ĠInternet": 3987,
      "Ġmur": 3988,
      "roll": 3989,
      "Ġresources": 3990,
      "Ġacqu": 3991,
      "64": 3992,
      "ĠUp": 3993,
      "Ġstraight": 3994,
      "lick": 3995,
      "EO": 3996,
      "ĠBre": 3997,
      "Ġoptions": 3998,
      "ona": 3999,
      "Ġdebt": 4000,
      "spect": 4001,
      "Ġhospital": 4002,
      "ĠHam": 4003,
      "ength": 4004,
      "wide": 4005,
      "Ġliter": 4006,
      "Ġrule": 4007,
      "Ġpun": 4008,
      "Ġmount": 4009,
      "roid": 4010,
      "Ġvac": 4011,
      "Ġjump": 4012,
      "Ġsales": 4013,
      "ÑĤ": 4014,
      "Ġowners": 4015,
      "Ġraised": 4016,
      "Ġbelieved": 4017,
      "ĠFranc": 4018,
      "Ġir": 4019,
      "Ġintegr": 4020,
      "Ġtend": 4021,
      "Ġcars": 4022,
      "ET": 4023,
      "oles": 4024,
      "Ġqual": 4025,
      "Ġele": 4026,
      "osh": 4027,
      "Ġadding": 4028,
      "Ġtheory": 4029,
      "ocks": 4030,
      "Ġreflect": 4031,
      "Ġhappens": 4032,
      "Ġnames": 4033,
      "Ġcreating": 4034,
      "ifying": 4035,
      "Ġfeeling": 4036,
      "Ġshut": 4037,
      "rants": 4038,
      "ĠStud": 4039,
      "org": 4040,
      "Ġbeg": 4041,
      "ĠChurch": 4042,
      "Ġabsolute": 4043,
      "alse": 4044,
      "Ġwhatever": 4045,
      "Ġproduce": 4046,
      "etic": 4047,
      "Ġsources": 4048,
      "Ġsend": 4049,
      "ĠTrans": 4050,
      "Ġpush": 4051,
      "vere": 4052,
      "ĠLou": 4053,
      "udd": 4054,
      "Ġdetermin": 4055,
      "Ġfunding": 4056,
      "Ġjudge": 4057,
      "levision": 4058,
      "Ar": 4059,
      "Ġship": 4060,
      "Not": 4061,
      "etty": 4062,
      "ĠBay": 4063,
      "Ġfighting": 4064,
      "Ġwait": 4065,
      "Ġlear": 4066,
      "Ġparties": 4067,
      "ĠGold": 4068,
      "Ġoffered": 4069,
      "Ġprices": 4070,
      "ĠFrance": 4071,
      "ID": 4072,
      "ribution": 4073,
      "OM": 4074,
      "mission": 4075,
      "ĠRec": 4076,
      "ki": 4077,
      "rant": 4078,
      "Ġemot": 4079,
      "ica": 4080,
      "Ġgreen": 4081,
      "Ġweight": 4082,
      "Ġhaven": 4083,
      "Ġmemory": 4084,
      "ĠFlorida": 4085,
      "icial": 4086,
      "Ġwilling": 4087,
      "ĠScott": 4088,
      "Ġbasic": 4089,
      "Ġinfluence": 4090,
      "Ġbehavior": 4091,
      "Ġuns": 4092,
      "Ġrank": 4093,
      "ĠLet": 4094,
      "Ġcolor": 4095,
      "Ġdistrict": 4096,
      "ae": 4097,
      "Ġauthorities": 4098,
      "Ġlik": 4099,
      "Ġweekend": 4100,
      "Ġtrou": 4101,
      "âĢĿ,": 4102,
      ".'": 4103,
      "ĠWell": 4104,
      "ĠGeneral": 4105,
      "Ġdollars": 4106,
      "ste": 4107,
      "ĠDel": 4108,
      "Here": 4109,
      "ĠBit": 4110,
      "Ġproduced": 4111,
      "Ġinvestment": 4112,
      "ĠAM": 4113,
      "ĠSanders": 4114,
      "fe": 4115,
      "Ġrevealed": 4116,
      "Ġcook": 4117,
      "Ġseeing": 4118,
      "Ġbenefit": 4119,
      "Ġconfirmed": 4120,
      "Ġwild": 4121,
      "Ġchair": 4122,
      "Ġmechan": 4123,
      "Ġrecords": 4124,
      "Ġscen": 4125,
      "yl": 4126,
      "ĠEngland": 4127,
      "Ġtraditional": 4128,
      "Ġcommer": 4129,
      "pri": 4130,
      "ser": 4131,
      "Ġdefe": 4132,
      "ota": 4133,
      "44": 4134,
      "igned": 4135,
      "Ġconcerns": 4136,
      "rog": 4137,
      "Ġstrategy": 4138,
      "Ġfreedom": 4139,
      "lands": 4140,
      "mittee": 4141,
      "uana": 4142,
      "Ġpropos": 4143,
      "rate": 4144,
      "ĠWind": 4145,
      "ĠMag": 4146,
      "estic": 4147,
      "ĠLaw": 4148,
      "Ġregist": 4149,
      "Ġcry": 4150,
      "ĠMod": 4151,
      "Ġlawy": 4152,
      "Ġdefend": 4153,
      "Ġchoose": 4154,
      "ĠHillary": 4155,
      "Ġindependent": 4156,
      "Ġensure": 4157,
      "Ex": 4158,
      "Ġemployees": 4159,
      "Ġbur": 4160,
      "Ġbrief": 4161,
      "Ġspecies": 4162,
      "www": 4163,
      "Ġasking": 4164,
      "Ġstreet": 4165,
      "37": 4166,
      "well": 4167,
      "Ġactual": 4168,
      "Ġenem": 4169,
      "Ġmarriage": 4170,
      "ĠMac": 4171,
      "ĠDef": 4172,
      "Ġcritical": 4173,
      "mat": 4174,
      "ĠLiber": 4175,
      "Ġagreed": 4176,
      "Ġtrial": 4177,
      "Ġcelebr": 4178,
      "Ġapplication": 4179,
      "Ġsurround": 4180,
      "Ġadvoc": 4181,
      "Ġarrested": 4182,
      "Ġdire": 4183,
      "aked": 4184,
      "Ġadult": 4185,
      "Ġlearned": 4186,
      "ING": 4187,
      "Ġvirt": 4188,
      "SA": 4189,
      "vest": 4190,
      "Ġeye": 4191,
      "Ġfemale": 4192,
      "no": 4193,
      "Ġlose": 4194,
      "acing": 4195,
      "ĠHall": 4196,
      "36": 4197,
      "ĠBritain": 4198,
      "inger": 4199,
      "Ġmission": 4200,
      "90": 4201,
      "Ġworse": 4202,
      "Ġpicture": 4203,
      "itude": 4204,
      "oly": 4205,
      "ront": 4206,
      "500": 4207,
      "ghan": 4208,
      "Ġchem": 4209,
      "ĠCup": 4210,
      "ĠGreat": 4211,
      "Ġresponsible": 4212,
      "Ġwonder": 4213,
      "Ġposted": 4214,
      "Ġetc": 4215,
      "rey": 4216,
      "ented": 4217,
      "Ġpolitic": 4218,
      "ijuana": 4219,
      "Ġenter": 4220,
      "ĠPress": 4221,
      "uman": 4222,
      "ĠLa": 4223,
      "bert": 4224,
      "These": 4225,
      "Ġcoverage": 4226,
      "Ġinterested": 4227,
      "Ġarm": 4228,
      "ĠJustice": 4229,
      "ada": 4230,
      "pen": 4231,
      "ĠOther": 4232,
      "32": 4233,
      "upp": 4234,
      "Ġmer": 4235,
      "Ġillegal": 4236,
      "irgin": 4237,
      "Ġteacher": 4238,
      "ties": 4239,
      "ĠWestern": 4240,
      "Ġassault": 4241,
      "rav": 4242,
      "Ġvalues": 4243,
      "Ġnotice": 4244,
      "Ġstructure": 4245,
      "Ġshowing": 4246,
      "ĠAlex": 4247,
      "Ġvill": 4248,
      "Ġvs": 4249,
      "Ġneighbor": 4250,
      "ĠChicago": 4251,
      "Ġoperations": 4252,
      "Ġbrand": 4253,
      "Ġprovides": 4254,
      "iller": 4255,
      "do": 4256,
      "ya": 4257,
      "cience": 4258,
      "Ġnegoti": 4259,
      "ĠPeople": 4260,
      "Ġenforcement": 4261,
      "Ġlearning": 4262,
      "ĠWhy": 4263,
      "Ġkick": 4264,
      "ags": 4265,
      "ĠPhil": 4266,
      "uild": 4267,
      "Ġheavy": 4268,
      "lo": 4269,
      "onent": 4270,
      "Ġsection": 4271,
      "Ġcoal": 4272,
      "Ġassum": 4273,
      "Ġtick": 4274,
      "Ġwat": 4275,
      "Ġchurch": 4276,
      "Ġcore": 4277,
      "Ġhighest": 4278,
      "Ġjoin": 4279,
      "asion": 4280,
      "Ġstated": 4281,
      "ĠSecret": 4282,
      "Ġthus": 4283,
      "Sc": 4284,
      "Ġeth": 4285,
      "ading": 4286,
      "Ġhearing": 4287,
      "Ġfavorite": 4288,
      "Ġadvantage": 4289,
      "Ġbecoming": 4290,
      "Ġopposition": 4291,
      "rol": 4292,
      "ĠBecause": 4293,
      "Ġdrink": 4294,
      "Ġelectric": 4295,
      "Ġextremely": 4296,
      "Ġmillions": 4297,
      "Ġruns": 4298,
      "Ġhttp": 4299,
      "Ġtrain": 4300,
      "Ġbottom": 4301,
      "Ġinitial": 4302,
      "Ġcontrovers": 4303,
      "Ġestablish": 4304,
      "Ġobtain": 4305,
      "38": 4306,
      "ĠSun": 4307,
      "Ġgenerally": 4308,
      "Ġtraffic": 4309,
      "ĠFBI": 4310,
      "illing": 4311,
      "umn": 4312,
      "Ġhair": 4313,
      "Ġcateg": 4314,
      "ĠCanadian": 4315,
      "za": 4316,
      "ĠPalest": 4317,
      "Ġran": 4318,
      "Ġseparate": 4319,
      "cell": 4320,
      "lished": 4321,
      "Ġreplace": 4322,
      "lor": 4323,
      "coming": 4324,
      "ĠOver": 4325,
      "acity": 4326,
      "orthern": 4327,
      "Ġshared": 4328,
      "Ġinstall": 4329,
      "Ġdocuments": 4330,
      "Ġopinion": 4331,
      "ĠOur": 4332,
      "Ġsolution": 4333,
      "uries": 4334,
      "Ġserved": 4335,
      "Ġnorth": 4336,
      "outhern": 4337,
      "Ġunderstanding": 4338,
      "rick": 4339,
      "Ġdaughter": 4340,
      "Ġrestrict": 4341,
      "However": 4342,
      "Ġonto": 4343,
      "Ġteach": 4344,
      "orrow": 4345,
      "Ġborder": 4346,
      "Ġ80": 4347,
      "Ġcru": 4348,
      "omas": 4349,
      "Ġexplained": 4350,
      "Ġder": 4351,
      "liament": 4352,
      "ville": 4353,
      "ocr": 4354,
      "ĠOffice": 4355,
      "Ġmurder": 4356,
      "SP": 4357,
      "Ġreject": 4358,
      "ĠPort": 4359,
      "Ġhundreds": 4360,
      "ĠMo": 4361,
      "ĠNFL": 4362,
      "ĠCommittee": 4363,
      "Ġopened": 4364,
      "ĠCommission": 4365,
      "onto": 4366,
      "Ġreturned": 4367,
      "Ġmale": 4368,
      "iling": 4369,
      "krain": 4370,
      "Ð½": 4371,
      "inate": 4372,
      "ĠInstitute": 4373,
      "usive": 4374,
      "Ġbecomes": 4375,
      "Ġepisode": 4376,
      "Ġamaz": 4377,
      "level": 4378,
      "ipe": 4379,
      "orial": 4380,
      "Ġtypes": 4381,
      "Ġspl": 4382,
      "Ġresidents": 4383,
      "ords": 4384,
      "gypt": 4385,
      "Ġmiles": 4386,
      "ĠFound": 4387,
      "Ġserve": 4388,
      "Ġdoubt": 4389,
      "ey": 4390,
      "Ġ2006": 4391,
      "ĠAP": 4392,
      "Ġincred": 4393,
      "ĠMal": 4394,
      "Ġeasier": 4395,
      "Ġcondition": 4396,
      "ĠAfghan": 4397,
      "Ġmap": 4398,
      "ĠOh": 4399,
      "Ġissued": 4400,
      "Ġgeneration": 4401,
      "Ġwinning": 4402,
      "Ġdestroy": 4403,
      "edy": 4404,
      "Ġpartners": 4405,
      "BA": 4406,
      "39": 4407,
      "nel": 4408,
      "olf": 4409,
      "Ġdetect": 4410,
      "Ġlimit": 4411,
      "Ġvictory": 4412,
      "Ġannounce": 4413,
      "Ġputting": 4414,
      "OU": 4415,
      "Ġabort": 4416,
      "Ġpattern": 4417,
      "ĠMat": 4418,
      "Ġeffective": 4419,
      "ĠFrancis": 4420,
      "ugg": 4421,
      "ĠMiss": 4422,
      "Ġtelevision": 4423,
      "ĠHealth": 4424,
      "Ġimages": 4425,
      "Ġresist": 4426,
      "ortunately": 4427,
      "Ġrat": 4428,
      "Ġhero": 4429,
      "EL": 4430,
      "ĠMany": 4431,
      "ĠKorea": 4432,
      "night": 4433,
      "Ġ31": 4434,
      "known": 4435,
      "win": 4436,
      "Ġcompetition": 4437,
      "ibrary": 4438,
      "Ġbasis": 4439,
      "34": 4440,
      "Ġice": 4441,
      "ĠSecurity": 4442,
      "Ġdangerous": 4443,
      "Ġexplain": 4444,
      "ario": 4445,
      "Ġradio": 4446,
      "Ñģ": 4447,
      "ĠCarol": 4448,
      "Ġcards": 4449,
      "Ġtransfer": 4450,
      "tery": 4451,
      "ĠWall": 4452,
      "Ġassociated": 4453,
      "Ġproposed": 4454,
      "ipped": 4455,
      "Ġ35": 4456,
      "Ġopening": 4457,
      "Ġdaily": 4458,
      "ĠRo": 4459,
      "Ġlegislation": 4460,
      "Ġhack": 4461,
      "cont": 4462,
      "Ġ90": 4463,
      "Ġinternet": 4464,
      "ference": 4465,
      "Ġfalse": 4466,
      "ĠTer": 4467,
      "Ġdrugs": 4468,
      "Ġaudience": 4469,
      "Ġcamera": 4470,
      "Ġsun": 4471,
      "isher": 4472,
      "ĠTy": 4473,
      "Ġdevices": 4474,
      "ĠBig": 4475,
      "ription": 4476,
      "Ġunlike": 4477,
      "Ġaccused": 4478,
      "Ġcommunities": 4479,
      "mine": 4480,
      "Ġbomb": 4481,
      "icip": 4482,
      "ĠDist": 4483,
      "Ġfloor": 4484,
      "Ġscientists": 4485,
      "Ġcomfort": 4486,
      "Ġsites": 4487,
      "ĠTim": 4488,
      "Ġachieve": 4489,
      "ĠMont": 4490,
      "Ġmanagement": 4491,
      "equ": 4492,
      "Ġharm": 4493,
      "Ġdriver": 4494,
      "iliar": 4495,
      "OL": 4496,
      "Ġtim": 4497,
      "ĠSam": 4498,
      "ĠAtt": 4499,
      "ĠBank": 4500,
      "ĠLab": 4501,
      "ĠYour": 4502,
      "cious": 4503,
      "Ġ\\": 4504,
      "ĠSince": 4505,
      "Ġsupported": 4506,
      "Ġexperiment": 4507,
      "ĠCommun": 4508,
      "ipp": 4509,
      "!\"": 4510,
      "Ġspoke": 4511,
      "Ġappeal": 4512,
      "Ġnegative": 4513,
      "Ġitems": 4514,
      "ĠMike": 4515,
      "Ġanimals": 4516,
      "Con": 4517,
      "Ġmicro": 4518,
      "rian": 4519,
      "istry": 4520,
      "Ġclosed": 4521,
      "Ġamb": 4522,
      "Ġpurs": 4523,
      "Ġaspect": 4524,
      "Ġactive": 4525,
      "Ġ2000": 4526,
      "Ġexisting": 4527,
      "FC": 4528,
      "ĠUN": 4529,
      "ampionship": 4530,
      "Ġrefere": 4531,
      "Ġdriving": 4532,
      "Ġnine": 4533,
      "ĠChris": 4534,
      "Ġplanning": 4535,
      "Ġargument": 4536,
      "Ġdepartment": 4537,
      "ĠTeam": 4538,
      "Ġcharged": 4539,
      "ST": 4540,
      "Ġoffers": 4541,
      "Ġtransport": 4542,
      "Ġsleep": 4543,
      "Ġtrend": 4544,
      "ĠMil": 4545,
      "Ġcompar": 4546,
      "Ġmachine": 4547,
      "Mr": 4548,
      "ĠSup": 4549,
      "55": 4550,
      "Ġhomes": 4551,
      "Ġheat": 4552,
      "Ġsett": 4553,
      "Ġsupporters": 4554,
      "Ġphoto": 4555,
      "Ġinsurance": 4556,
      "Ġprofessional": 4557,
      "rig": 4558,
      "Ġbed": 4559,
      "Ġeat": 4560,
      "Ġentirely": 4561,
      "going": 4562,
      "ios": 4563,
      "Ġdouble": 4564,
      "Ġrepeated": 4565,
      "tered": 4566,
      "Ġinstance": 4567,
      "ĠSur": 4568,
      "ih": 4569,
      "Ġbul": 4570,
      "Ġborn": 4571,
      "Ġvictims": 4572,
      "istics": 4573,
      "Ġnotes": 4574,
      "ĠInc": 4575,
      "Ġfaith": 4576,
      "Ġaward": 4577,
      "Ġoccup": 4578,
      "Ġcandidates": 4579,
      "Ġleadership": 4580,
      "Ġstock": 4581,
      "Ġlargely": 4582,
      "iful": 4583,
      "soft": 4584,
      "Ġstopped": 4585,
      "Ġcontain": 4586,
      "ĠWil": 4587,
      "akistan": 4588,
      "ĠUkrain": 4589,
      "Ġsurface": 4590,
      "Ġswit": 4591,
      "Ġwealth": 4592,
      "ĠPC": 4593,
      "ulf": 4594,
      "Ġappl": 4595,
      "GB": 4596,
      "ĠGree": 4597,
      "Ġpurpose": 4598,
      "Ġholding": 4599,
      "Ġdigital": 4600,
      "annel": 4601,
      "ĠMedic": 4602,
      "real": 4603,
      "Ġstrik": 4604,
      "house": 4605,
      "Ġbelief": 4606,
      "Ġafford": 4607,
      "which": 4608,
      "tc": 4609,
      "ĠPri": 4610,
      "Ġannual": 4611,
      "Ġlabor": 4612,
      "Ġconservative": 4613,
      "Ġcommittee": 4614,
      "Americ": 4615,
      "Ġconstruction": 4616,
      "Ġlaunched": 4617,
      "inct": 4618,
      "andon": 4619,
      "Ġfinding": 4620,
      "Ġdirection": 4621,
      "Ġge": 4622,
      "Ġcash": 4623,
      "iter": 4624,
      "aks": 4625,
      "Ġestablished": 4626,
      "point": 4627,
      "Ġsan": 4628,
      "Ġhus": 4629,
      "ĠEv": 4630,
      "ĠMP": 4631,
      "Ġreduce": 4632,
      "Ġhousing": 4633,
      "resp": 4634,
      "Ġlocation": 4635,
      "mas": 4636,
      "Ġfresh": 4637,
      "ulated": 4638,
      "Ġplays": 4639,
      "ĠRobert": 4640,
      "Ġattend": 4641,
      "Ġexerc": 4642,
      "Ġbelieves": 4643,
      "ĠQue": 4644,
      "Ġplease": 4645,
      "Ġallowing": 4646,
      "Ġdiscovered": 4647,
      "bing": 4648,
      "overy": 4649,
      "ĠEgypt": 4650,
      "Ġworst": 4651,
      "Ġstrateg": 4652,
      "Ġrestaur": 4653,
      "Ġsmaller": 4654,
      "atically": 4655,
      "Ġrough": 4656,
      "Ġconcerned": 4657,
      "Ġmarijuana": 4658,
      "Ġunit": 4659,
      "ĠVirgin": 4660,
      "Ġdecade": 4661,
      "Ġlength": 4662,
      "izes": 4663,
      "ĠJohnson": 4664,
      "ansion": 4665,
      "Ġcrew": 4666,
      "zen": 4667,
      "Ġdefinitely": 4668,
      "lant": 4669,
      "aren": 4670,
      "ĠFin": 4671,
      "ĠLos": 4672,
      "ribe": 4673,
      "what": 4674,
      "Ġwaiting": 4675,
      "itutional": 4676,
      "Ġcommercial": 4677,
      "ancy": 4678,
      "ography": 4679,
      "oted": 4680,
      "Ġguard": 4681,
      "Ġwatching": 4682,
      "Ġtruly": 4683,
      "Ġjustice": 4684,
      "Ġearth": 4685,
      "Ġconversation": 4686,
      "ĠProf": 4687,
      "Ġrelatively": 4688,
      "Ġkid": 4689,
      "!!": 4690,
      "Ġsolid": 4691,
      "owl": 4692,
      "ĠKh": 4693,
      "Ġ70": 4694,
      "Ġtelling": 4695,
      "Ġupdate": 4696,
      "azine": 4697,
      "Ġspokesman": 4698,
      "Ġplaced": 4699,
      "works": 4700,
      "ears": 4701,
      "ano": 4702,
      "ossible": 4703,
      "Ġsuggested": 4704,
      "arant": 4705,
      "Ġsolar": 4706,
      "Ġwitness": 4707,
      "isation": 4708,
      "95": 4709,
      "Ġframe": 4710,
      "ĠSal": 4711,
      "Ġviews": 4712,
      "ĠSupreme": 4713,
      "47": 4714,
      "Ġmax": 4715,
      "Ġded": 4716,
      "Ġdat": 4717,
      "Ġraise": 4718,
      "Ġmissing": 4719,
      "Ġscale": 4720,
      "Ġreact": 4721,
      "col": 4722,
      "ulate": 4723,
      "ĠJose": 4724,
      "Ġolder": 4725,
      "ĠAdd": 4726,
      "eline": 4727,
      "ĠLike": 4728,
      "Ġstrength": 4729,
      "IL": 4730,
      "Image": 4731,
      "Ġoffensive": 4732,
      "phone": 4733,
      "ĠAssociation": 4734,
      "rad": 4735,
      "Ġdin": 4736,
      "Ġload": 4737,
      "Ġgrant": 4738,
      "Ġslightly": 4739,
      "Ġcaught": 4740,
      "how": 4741,
      "iation": 4742,
      "vant": 4743,
      "Ġcatch": 4744,
      "ĠTre": 4745,
      "ests": 4746,
      "Ġconnection": 4747,
      "48": 4748,
      "].": 4749,
      "iser": 4750,
      "ĠMer": 4751,
      "Ġcontext": 4752,
      "Ġproviding": 4753,
      "but": 4754,
      "Ġnovel": 4755,
      "ĠArmy": 4756,
      "Ġrequires": 4757,
      "Ġalias": 4758,
      "Ġarrived": 4759,
      "ĠIslamic": 4760,
      "Ġvehicle": 4761,
      "Ġcove": 4762,
      "Ġwel": 4763,
      "Ġtools": 4764,
      "itable": 4765,
      "icy": 4766,
      "ĠAre": 4767,
      "ĠResearch": 4768,
      "ĠAfrica": 4769,
      "isf": 4770,
      "oman": 4771,
      "Ġactivities": 4772,
      "Ġconflict": 4773,
      "ĠLouis": 4774,
      "iable": 4775,
      "ÑĢ": 4776,
      "Ġnar": 4777,
      "Ġexcl": 4778,
      "ici": 4779,
      "adium": 4780,
      "ribute": 4781,
      "ĠGame": 4782,
      "Ġdeliver": 4783,
      "Ã¡": 4784,
      "ĠIr": 4785,
      "Ġfailure": 4786,
      "acks": 4787,
      "Ð¾Ð": 4788,
      "Ġroll": 4789,
      "Ġplanned": 4790,
      "Ġrecommend": 4791,
      "CC": 4792,
      "ula": 4793,
      "Ġspect": 4794,
      "Ġdecisions": 4795,
      "ception": 4796,
      "itz": 4797,
      "Photo": 4798,
      "Ġtells": 4799,
      "Ġnor": 4800,
      "ctors": 4801,
      "Ġuseful": 4802,
      "ĠMad": 4803,
      "Ġpresence": 4804,
      "Ġbanks": 4805,
      "verse": 4806,
      "ĠRyan": 4807,
      "ĠVer": 4808,
      "!âĢĿ": 4809,
      "anging": 4810,
      "gency": 4811,
      "oyal": 4812,
      "Ġdownload": 4813,
      "Ġfuel": 4814,
      "Ġmig": 4815,
      "ym": 4816,
      "Ġguess": 4817,
      "Ġbusinesses": 4818,
      "ĠGroup": 4819,
      "Ġcancer": 4820,
      "Ġspirit": 4821,
      "cknow": 4822,
      "Ġsuggests": 4823,
      "Ġdefensive": 4824,
      "ĠCEO": 4825,
      "ĠJapanese": 4826,
      "itt": 4827,
      "ĠMicro": 4828,
      "agn": 4829,
      "ĠArt": 4830,
      "Ġintroduced": 4831,
      "aven": 4832,
      "ĠCr": 4833,
      "ĠStep": 4834,
      "ups": 4835,
      "Ġimmigration": 4836,
      "Ġbackground": 4837,
      "Ġjoined": 4838,
      "Ġfant": 4839,
      "Ġowner": 4840,
      "ĠLeg": 4841,
      "Ġconclud": 4842,
      "Ġmodels": 4843,
      "Ġsteps": 4844,
      "spe": 4845,
      "wing": 4846,
      "andom": 4847,
      "Cl": 4848,
      "More": 4849,
      "ĠDirect": 4850,
      "ander": 4851,
      "Ġfeels": 4852,
      "Ġidentified": 4853,
      "Ġsouth": 4854,
      "Ġdie": 4855,
      "Bl": 4856,
      "âĢĺ": 4857,
      "Ġmentioned": 4858,
      "uate": 4859,
      "ania": 4860,
      "Ġmere": 4861,
      "ronic": 4862,
      "Ġsetting": 4863,
      "Our": 4864,
      "rees": 4865,
      "icon": 4866,
      "ications": 4867,
      "Ġconsequ": 4868,
      "Ġacadem": 4869,
      "anned": 4870,
      "Ġcells": 4871,
      "ĠToronto": 4872,
      "ĠPakistan": 4873,
      "Ġsupply": 4874,
      "Ġdepend": 4875,
      "Ġfocused": 4876,
      "ĠJim": 4877,
      "ocracy": 4878,
      "Ġtesting": 4879,
      "ĠJewish": 4880,
      "uters": 4881,
      "ĠGOP": 4882,
      "Ġskills": 4883,
      "ĠAngeles": 4884,
      "hi": 4885,
      "Ġgirls": 4886,
      "Des": 4887,
      "Le": 4888,
      "igan": 4889,
      "49": 4890,
      "azon": 4891,
      "Ġreligion": 4892,
      "uct": 4893,
      "ĠMartin": 4894,
      "PA": 4895,
      "oms": 4896,
      "ĠFrank": 4897,
      "gar": 4898,
      "ĠSil": 4899,
      "Ġsurvey": 4900,
      "Ġ2018": 4901,
      "Ġhighlight": 4902,
      "ĠBat": 4903,
      "aling": 4904,
      "Ġmobile": 4905,
      "Ġblue": 4906,
      "Ġaccur": 4907,
      "Ġì": 4908,
      "Ġtrip": 4909,
      "war": 4910,
      "Ġhasn": 4911,
      "Ġfunds": 4912,
      "ĠAlthough": 4913,
      "mers": 4914,
      "Ġsust": 4915,
      "Ġfle": 4916,
      "with": 4917,
      "ĠThomas": 4918,
      "Ġappoint": 4919,
      "ĠInstead": 4920,
      "Ġcommission": 4921,
      "Ġdropped": 4922,
      "mail": 4923,
      "ĠAc": 4924,
      "Ġoperation": 4925,
      "bour": 4926,
      "Ġtask": 4927,
      "Ġnone": 4928,
      "htt": 4929,
      "vention": 4930,
      "ĠPalestin": 4931,
      "DA": 4932,
      "ĠFore": 4933,
      "obby": 4934,
      "Ġaggress": 4935,
      "Ġappropri": 4936,
      "ĠInter": 4937,
      "Ġinterests": 4938,
      "ĠJeff": 4939,
      "Ġassess": 4940,
      "Ġgay": 4941,
      "Ġgain": 4942,
      "Ġremoved": 4943,
      "ucky": 4944,
      "Ġprotection": 4945,
      "Ġnewsp": 4946,
      "ĠIsraeli": 4947,
      "iams": 4948,
      "ĠSub": 4949,
      "Ġfourth": 4950,
      "Ġcommitted": 4951,
      "Ġmental": 4952,
      "ader": 4953,
      "Ġunits": 4954,
      "stein": 4955,
      "semb": 4956,
      "olly": 4957,
      "Ġ2005": 4958,
      "ait": 4959,
      "Ġkeeping": 4960,
      "Ġpartner": 4961,
      "rency": 4962,
      "Ġtests": 4963,
      "dden": 4964,
      "Ġbeer": 4965,
      "ils": 4966,
      "icted": 4967,
      "Ġstick": 4968,
      "ĠPM": 4969,
      "NA": 4970,
      "ĠJones": 4971,
      "ection": 4972,
      "Ġtherefore": 4973,
      "Ġcold": 4974,
      "Ġmanaged": 4975,
      "65": 4976,
      "eah": 4977,
      "Ġidentity": 4978,
      "Ġstrike": 4979,
      "Ġobvious": 4980,
      "ius": 4981,
      "odes": 4982,
      "ĠService": 4983,
      "Ġdisease": 4984,
      "erous": 4985,
      "Ġdomestic": 4986,
      "Ġhusband": 4987,
      "enced": 4988,
      "Ġvotes": 4989,
      "ĠCollege": 4990,
      "Ġacknow": 4991,
      "Ġdiscussion": 4992,
      "say": 4993,
      "place": 4994,
      "EM": 4995,
      "Ġotherwise": 4996,
      "Ġterrit": 4997,
      "Ġrich": 4998,
      "Ġflight": 4999,
      "ĠMexico": 5000,
      "Ġaccounts": 5001,
      "Ġtough": 5002,
      "Ġprefer": 5003,
      "Ġcapacity": 5004,
      "ĠBitcoin": 5005,
      "illa": 5006,
      "Ġneighborhood": 5007,
      "ĠMary": 5008,
      "ocal": 5009,
      "Ġsports": 5010,
      "aded": 5011,
      "ĠNor": 5012,
      "Ġquant": 5013,
      "Ġtaxes": 5014,
      "Ġveter": 5015,
      "onym": 5016,
      "Ġmeasures": 5017,
      "Ġcircum": 5018,
      "Ġfamiliar": 5019,
      "ĠRichard": 5020,
      "ĠImages": 5021,
      "ĠGovernment": 5022,
      "ĠCarolina": 5023,
      "odies": 5024,
      "PS": 5025,
      "Ġdecide": 5026,
      "Ùİ": 5027,
      "Ġexchange": 5028,
      "ĠAfrican": 5029,
      "asy": 5030,
      "ighter": 5031,
      "kin": 5032,
      "rie": 5033,
      "Ġtwice": 5034,
      "Ġprinc": 5035,
      "Ġfigures": 5036,
      "====": 5037,
      "Ġkilling": 5038,
      "Ġstanding": 5039,
      "Ġtack": 5040,
      "idering": 5041,
      "ĠSol": 5042,
      "ĠGood": 5043,
      "Ġattorney": 5044,
      "Ġwish": 5045,
      "ication": 5046,
      "enses": 5047,
      "ĠPrime": 5048,
      "Ġtransl": 5049,
      "Ġfiles": 5050,
      "ĠSpr": 5051,
      "Ġsudden": 5052,
      "range": 5053,
      "arsh": 5054,
      "inter": 5055,
      "Ġinsp": 5056,
      "RA": 5057,
      "ĠTheir": 5058,
      "Ġhelping": 5059,
      "Ġauthority": 5060,
      "Ġiniti": 5061,
      "Ġfellow": 5062,
      "Ġspeaking": 5063,
      "ĠRock": 5064,
      "ĠFox": 5065,
      "Ġplanet": 5066,
      "Ġexpert": 5067,
      "Ġalternative": 5068,
      "ĠLu": 5069,
      "Ġamazing": 5070,
      "eless": 5071,
      "Ġcollection": 5072,
      "Ġmarkets": 5073,
      "Ġskin": 5074,
      "Ġtast": 5075,
      "gn": 5076,
      "ĠWars": 5077,
      "Ġmulti": 5078,
      "Ġast": 5079,
      "icide": 5080,
      "Ġultimately": 5081,
      "Ġenvironmental": 5082,
      "Ġprofessor": 5083,
      "cks": 5084,
      "Ġequip": 5085,
      "Ġlosing": 5086,
      "ga": 5087,
      "Ġcovered": 5088,
      "ynam": 5089,
      "75": 5090,
      "osure": 5091,
      "atures": 5092,
      "ĠLat": 5093,
      "Ġappre": 5094,
      "Ġtransform": 5095,
      "Why": 5096,
      "Ġrapid": 5097,
      "Pl": 5098,
      "Ġagencies": 5099,
      "isted": 5100,
      "Ġ32": 5101,
      "Ġcorner": 5102,
      "Ġturns": 5103,
      "Ġpit": 5104,
      "ĠMet": 5105,
      "Ġthanks": 5106,
      "ĠBern": 5107,
      "BS": 5108,
      "NN": 5109,
      "Ġhappening": 5110,
      "outs": 5111,
      "Ġvast": 5112,
      "ĠConst": 5113,
      "Ġpresented": 5114,
      "Ġreserv": 5115,
      "Ġimpossible": 5116,
      "ĠUSA": 5117,
      "Ġapplications": 5118,
      "Ġphotos": 5119,
      "met": 5120,
      "Ġclick": 5121,
      "Ġsides": 5122,
      "Ġabuse": 5123,
      "hedul": 5124,
      "ancing": 5125,
      "Ġcas": 5126,
      "season": 5127,
      "CA": 5128,
      "DP": 5129,
      "Ġscr": 5130,
      "Ġphil": 5131,
      "Ġweak": 5132,
      "Ġpaying": 5133,
      "Ġscientific": 5134,
      "ĠMass": 5135,
      "Ġanimal": 5136,
      "Ġseeking": 5137,
      "TC": 5138,
      "Ġinteract": 5139,
      "ĠAlso": 5140,
      "Ġfactors": 5141,
      "Ġtalks": 5142,
      "Ġremind": 5143,
      "phas": 5144,
      "Ġoccurred": 5145,
      "bre": 5146,
      "yr": 5147,
      "Ġsounds": 5148,
      "ĠWindows": 5149,
      "ady": 5150,
      "ĠDec": 5151,
      "Ġunless": 5152,
      "Ġprospect": 5153,
      "makers": 5154,
      "Ġoptim": 5155,
      "Ġstruct": 5156,
      "ĠPre": 5157,
      "31": 5158,
      "Ġintended": 5159,
      "Ġpet": 5160,
      "Ġsport": 5161,
      "Ġarmy": 5162,
      "Ġruling": 5163,
      "Ġcarried": 5164,
      "rastructure": 5165,
      "ĠTal": 5166,
      "Ġ45": 5167,
      "Ġfiled": 5168,
      "Ġcuts": 5169,
      "itect": 5170,
      "Ġsch": 5171,
      "ĠCamp": 5172,
      "Ġexpensive": 5173,
      "prof": 5174,
      "ĠSecretary": 5175,
      "that": 5176,
      "Ġhonest": 5177,
      "ka": 5178,
      "related": 5179,
      "Ġelements": 5180,
      "Ġworry": 5181,
      "....": 5182,
      "Ġapparently": 5183,
      "Ġstars": 5184,
      "class": 5185,
      "gu": 5186,
      "ĠJud": 5187,
      "ĠHaw": 5188,
      "Ġfinished": 5189,
      "Ġimagine": 5190,
      "Go": 5191,
      "Ġsoldiers": 5192,
      "ĠPublic": 5193,
      "agues": 5194,
      "ĠDan": 5195,
      "inating": 5196,
      "Ġstarts": 5197,
      "Of": 5198,
      "Up": 5199,
      "pm": 5200,
      "aine": 5201,
      "Ġsubsc": 5202,
      "onna": 5203,
      "Ġpil": 5204,
      "standing": 5205,
      "Ġdegree": 5206,
      "hens": 5207,
      "Ġinjury": 5208,
      "osen": 5209,
      "Ab": 5210,
      "Ġlived": 5211,
      "ĠAri": 5212,
      "Ġ2004": 5213,
      "Ġvariety": 5214,
      "Ġerror": 5215,
      "Ġregarding": 5216,
      "stream": 5217,
      "olit": 5218,
      "Ġfired": 5219,
      "Ġscript": 5220,
      "ĠVirginia": 5221,
      "lig": 5222,
      "Ġfactor": 5223,
      "Ġabsolutely": 5224,
      "Ġsitting": 5225,
      "ĠConserv": 5226,
      "Ġorganizations": 5227,
      "ruption": 5228,
      "Ġprosecut": 5229,
      "look": 5230,
      "Ġminimum": 5231,
      "Ġsac": 5232,
      "Ġdevelopers": 5233,
      "Ġrid": 5234,
      "Ġapply": 5235,
      "msg": 5236,
      "Read": 5237,
      "Ġpages": 5238,
      "Ġsettle": 5239,
      "Ġ1990": 5240,
      "ini": 5241,
      "oty": 5242,
      "Ġdeveloping": 5243,
      "ĠBook": 5244,
      "Ġadjust": 5245,
      "Ġfamous": 5246,
      "Ġstreets": 5247,
      "ĠBBC": 5248,
      "Ġrefuge": 5249,
      "Ġincreasingly": 5250,
      "Ġestimated": 5251,
      "Ĥ¬": 5252,
      "Ġschedul": 5253,
      "ĠAndroid": 5254,
      "Ġbigger": 5255,
      "Ġpossibility": 5256,
      "Ġstandards": 5257,
      "Ġcouncil": 5258,
      "razil": 5259,
      "Even": 5260,
      "Last": 5261,
      "Ġmut": 5262,
      "Ġtweet": 5263,
      "rd": 5264,
      "ĠCur": 5265,
      "Trump": 5266,
      "lymp": 5267,
      "Ġsector": 5268,
      "ĠFire": 5269,
      "rible": 5270,
      "Ġbroke": 5271,
      "Ġcloser": 5272,
      "Ġplants": 5273,
      "Ġguarant": 5274,
      "ĠWilliams": 5275,
      "awn": 5276,
      "ashed": 5277,
      "uration": 5278,
      "Ġcorporate": 5279,
      "46": 5280,
      "Ġprepared": 5281,
      "ĠTwo": 5282,
      "Ġpossibly": 5283,
      "ĠCentral": 5284,
      "hand": 5285,
      "kins": 5286,
      "Ġthoughts": 5287,
      "ĠSocial": 5288,
      "person": 5289,
      "Ġbroken": 5290,
      "ressive": 5291,
      "Ġinnov": 5292,
      "Ġera": 5293,
      "vis": 5294,
      "Ġhate": 5295,
      "ĠSl": 5296,
      "Ġgraph": 5297,
      "Ġelim": 5298,
      "Ġodd": 5299,
      "Ġ195": 5300,
      "Ġbalance": 5301,
      "ĠUs": 5302,
      "Ġdifferences": 5303,
      "ĠAN": 5304,
      "apers": 5305,
      "Ġequipment": 5306,
      "reens": 5307,
      "lyn": 5308,
      "Ġforms": 5309,
      "apter": 5310,
      "esterday": 5311,
      "Ġheav": 5312,
      "roud": 5313,
      "Ġque": 5314,
      "Ġhelps": 5315,
      "Ġwriter": 5316,
      "Ġapart": 5317,
      "Ġpair": 5318,
      "Ġseconds": 5319,
      "Ġtroops": 5320,
      "ii": 5321,
      "Å£": 5322,
      "uster": 5323,
      "net": 5324,
      "Ġgar": 5325,
      "Ġunivers": 5326,
      "Ġarms": 5327,
      "Ġcolle": 5328,
      "anche": 5329,
      "Just": 5330,
      "RI": 5331,
      "Ġhealthy": 5332,
      "ĠLast": 5333,
      "pay": 5334,
      "Ġaircraft": 5335,
      "Ġoriginally": 5336,
      "auc": 5337,
      "ĠChief": 5338,
      "anda": 5339,
      "Ġconsult": 5340,
      "Ġrevolution": 5341,
      "Ġherself": 5342,
      "Ġspecifically": 5343,
      "endment": 5344,
      "oving": 5345,
      "Ġbeautiful": 5346,
      "Ġfol": 5347,
      "Ġrevenue": 5348,
      "ĠDuring": 5349,
      "Ġexpansion": 5350,
      "Ġexperts": 5351,
      "ĠMiddle": 5352,
      "Ġzone": 5353,
      "hy": 5354,
      "ĠOut": 5355,
      "Ġpercentage": 5356,
      "From": 5357,
      "can": 5358,
      "Ġbought": 5359,
      "olved": 5360,
      "Ġfundament": 5361,
      "Ġprivacy": 5362,
      "LE": 5363,
      "ola": 5364,
      "Ġtrail": 5365,
      "ĠDistrict": 5366,
      "odd": 5367,
      "ĠNAS": 5368,
      "ĠAfghanistan": 5369,
      "cean": 5370,
      "ipping": 5371,
      "Ġwidely": 5372,
      "ĠGal": 5373,
      "gers": 5374,
      "Ġproceed": 5375,
      "oston": 5376,
      "Ġinstit": 5377,
      "Ġchanging": 5378,
      "Ġfif": 5379,
      "ĠPeter": 5380,
      "Ġhumans": 5381,
      "Ġsequ": 5382,
      "ĠOlymp": 5383,
      "Ġbringing": 5384,
      "tion": 5385,
      "arks": 5386,
      "ours": 5387,
      "ruit": 5388,
      "Ġsymb": 5389,
      "Ġrefused": 5390,
      "Ġelected": 5391,
      "Ġinvolve": 5392,
      "Ġweapon": 5393,
      "Ġconducted": 5394,
      "LS": 5395,
      "Ġton": 5396,
      "Ġprime": 5397,
      "HL": 5398,
      "under": 5399,
      "alls": 5400,
      "Ġgreatest": 5401,
      "Ġwindow": 5402,
      "Ġinfrastructure": 5403,
      ",[": 5404,
      "ĠFree": 5405,
      "ĠAtlant": 5406,
      "ĠWilliam": 5407,
      "ĠFrancisco": 5408,
      "Ġtact": 5409,
      "Ġcart": 5410,
      "Ġshape": 5411,
      "inent": 5412,
      "Ġwood": 5413,
      "Ġmaster": 5414,
      "Ġgrew": 5415,
      "Ġgender": 5416,
      "ava": 5417,
      "Ġpositions": 5418,
      "ĠST": 5419,
      "ployment": 5420,
      "ĠThose": 5421,
      "Ġflow": 5422,
      "reland": 5423,
      "orage": 5424,
      "Ġsurprise": 5425,
      "ĠPet": 5426,
      "ores": 5427,
      "Ġequal": 5428,
      "Ġpurchase": 5429,
      "ĠTHE": 5430,
      "()": 5431,
      "ĠSher": 5432,
      "road": 5433,
      "amm": 5434,
      "Ġsea": 5435,
      "Ġremaining": 5436,
      "Ġconstruct": 5437,
      "Ġguns": 5438,
      "Ind": 5439,
      "run": 5440,
      "lets": 5441,
      "Ġlocated": 5442,
      "Ġvul": 5443,
      "ologies": 5444,
      "Ġoperating": 5445,
      "idden": 5446,
      "Ġconvention": 5447,
      "Ġresponsibility": 5448,
      "Ġhurt": 5449,
      "Ġvision": 5450,
      "Ġpieces": 5451,
      "Ġchemical": 5452,
      "den": 5453,
      "Ġelections": 5454,
      "ĠGuard": 5455,
      "Ġaffected": 5456,
      "Ġfish": 5457,
      "Ġselling": 5458,
      "Ġexperienced": 5459,
      "noon": 5460,
      "Ġshift": 5461,
      "Ġrecorded": 5462,
      "Ġfacing": 5463,
      "Ġargued": 5464,
      "Ġtemperature": 5465,
      "ĠJo": 5466,
      "isters": 5467,
      "Ġuniversity": 5468,
      "Ġgovernments": 5469,
      "Ġrenew": 5470,
      "Ġstret": 5471,
      "Ġfra": 5472,
      "Ġoffering": 5473,
      "Ġdepart": 5474,
      "Ġexpressed": 5475,
      "ĠMicrosoft": 5476,
      "ĠJoe": 5477,
      "ĠAustralian": 5478,
      "oral": 5479,
      "ros": 5480,
      "ĠSum": 5481,
      "ĠPac": 5482,
      "ĠRem": 5483,
      "Ġ2001": 5484,
      "aniel": 5485,
      "ĠJes": 5486,
      "state": 5487,
      "essions": 5488,
      "Ġunion": 5489,
      "Ġcarbon": 5490,
      "Ġinternal": 5491,
      "Every": 5492,
      "mosp": 5493,
      "vey": 5494,
      "Ġsubs": 5495,
      "Ġappearance": 5496,
      "Well": 5497,
      "ĠOnce": 5498,
      "Ġemp": 5499,
      "ĠSant": 5500,
      "ĠBoth": 5501,
      "ĠFederal": 5502,
      "Ġglass": 5503,
      "ĠChristmas": 5504,
      "ĠAmazon": 5505,
      "Ġthank": 5506,
      "Ġperspect": 5507,
      "CH": 5508,
      "cos": 5509,
      "ĠBrazil": 5510,
      "gl": 5511,
      "onom": 5512,
      "Ġconcent": 5513,
      "Ġremained": 5514,
      "Ġpoliticians": 5515,
      "Ġdream": 5516,
      "unction": 5517,
      "ansas": 5518,
      "Ġaccident": 5519,
      "Ġmort": 5520,
      "Ġseasons": 5521,
      "ĠFoundation": 5522,
      "style": 5523,
      "Ġindeed": 5524,
      "porary": 5525,
      "uzz": 5526,
      "ita": 5527,
      "Ġhun": 5528,
      "rier": 5529,
      "Ġremove": 5530,
      "Ġfaster": 5531,
      "ĠDen": 5532,
      "ĠWeb": 5533,
      "Ġpotentially": 5534,
      "Ġpointed": 5535,
      "arp": 5536,
      "Ġnut": 5537,
      "Ġ2003": 5538,
      "oken": 5539,
      "rawn": 5540,
      "Ġcrack": 5541,
      "ĠRiver": 5542,
      "Ġfrust": 5543,
      "Ġconcl": 5544,
      "Ġsignificantly": 5545,
      "Ġhyp": 5546,
      "useum": 5547,
      "gen": 5548,
      "Ġweren": 5549,
      "Ġbaby": 5550,
      "Ġserver": 5551,
      "Ġsatisf": 5552,
      "Ġath": 5553,
      "Ġevening": 5554,
      ",âĢĻ": 5555,
      "Pe": 5556,
      "mm": 5557,
      "Ġtight": 5558,
      "Ġtele": 5559,
      "eder": 5560,
      "ashion": 5561,
      "Ġappreci": 5562,
      "ĠBur": 5563,
      "Ġmethods": 5564,
      "43": 5565,
      "care": 5566,
      "och": 5567,
      "ĠShow": 5568,
      "Ġdistance": 5569,
      "ENT": 5570,
      "First": 5571,
      "ĠCath": 5572,
      "Ġteen": 5573,
      "ĠJon": 5574,
      "Ġreporters": 5575,
      "Ġcompleted": 5576,
      "Ġdram": 5577,
      "ĠColumb": 5578,
      "Ġsuffering": 5579,
      "otic": 5580,
      "Ġvehicles": 5581,
      "Ġid": 5582,
      "ĠFe": 5583,
      "ocol": 5584,
      "Ġvoted": 5585,
      "Ġvisual": 5586,
      "Ġcoff": 5587,
      "App": 5588,
      "Ġplenty": 5589,
      "Ġcultural": 5590,
      "Do": 5591,
      "idel": 5592,
      "Let": 5593,
      "ĠUnder": 5594,
      "Ġobviously": 5595,
      "Ġphilos": 5596,
      "Ġtur": 5597,
      "nell": 5598,
      "ãĢ": 5599,
      "Ġmal": 5600,
      "Ġthr": 5601,
      "Ġstress": 5602,
      "ulations": 5603,
      "Ġdiss": 5604,
      "Ġflat": 5605,
      "Ġafternoon": 5606,
      "Ġeval": 5607,
      "ĠAny": 5608,
      "Ġdetermine": 5609,
      "ĠParis": 5610,
      "Ġpulled": 5611,
      "Ġsale": 5612,
      "usiness": 5613,
      "ĠIsland": 5614,
      "68": 5615,
      "ĠMel": 5616,
      "ĠRub": 5617,
      "anged": 5618,
      "Ġvoting": 5619,
      "Ġexcited": 5620,
      "05": 5621,
      "Since": 5622,
      "ĠCru": 5623,
      "His": 5624,
      "erry": 5625,
      "ĠDaily": 5626,
      "Ġjail": 5627,
      "Ġboost": 5628,
      "Ġturning": 5629,
      "Ġtalked": 5630,
      "Ġsuffered": 5631,
      "Ġchallenges": 5632,
      "Ġbound": 5633,
      "Ġrandom": 5634,
      "Ġclot": 5635,
      "Ġproposal": 5636,
      "ompl": 5637,
      "ownt": 5638,
      "cel": 5639,
      "Ġindustrial": 5640,
      "Ġtypically": 5641,
      "Ġdatab": 5642,
      "Ġcloud": 5643,
      "anish": 5644,
      "ache": 5645,
      "illance": 5646,
      "Ġfinish": 5647,
      "Ġcolumn": 5648,
      "Ġhandle": 5649,
      "Ġcombined": 5650,
      "Ġbelong": 5651,
      "Ġsigns": 5652,
      "Ġforg": 5653,
      "Ġminute": 5654,
      "Ġconsidering": 5655,
      "01": 5656,
      "Ġdenied": 5657,
      "life": 5658,
      "Ġwearing": 5659,
      "Ġcoord": 5660,
      "lines": 5661,
      "ller": 5662,
      "Ġclim": 5663,
      "Ġsongs": 5664,
      "sen": 5665,
      "ĠIreland": 5666,
      "Ġproced": 5667,
      "Ġagent": 5668,
      "Ġcombat": 5669,
      "Ġdeclared": 5670,
      "Another": 5671,
      "Ġyards": 5672,
      "ĠRE": 5673,
      "Ġ500": 5674,
      "ĠWho": 5675,
      "Ġinstruct": 5676,
      "ĠSupp": 5677,
      "Ġsecretary": 5678,
      "ocking": 5679,
      "ĠSing": 5680,
      "Ġstatements": 5681,
      "Ġsem": 5682,
      "ĠJournal": 5683,
      "ÃŃ": 5684,
      "aped": 5685,
      "Ġdefault": 5686,
      "Ġreference": 5687,
      "Ġprove": 5688,
      "Ġreporting": 5689,
      "Ġ1980": 5690,
      "41": 5691,
      "Over": 5692,
      "ĠProt": 5693,
      "host": 5694,
      "edd": 5695,
      "ĠOpen": 5696,
      "Ġapprox": 5697,
      "Ġlisten": 5698,
      "Ġreduced": 5699,
      "Ġtourn": 5700,
      "ĠAI": 5701,
      "Ġsecure": 5702,
      "Ġdelay": 5703,
      "Ġpanel": 5704,
      "Ġbreat": 5705,
      "plom": 5706,
      "Ġpublicly": 5707,
      "ĠMur": 5708,
      "Ġmatters": 5709,
      "Ġburn": 5710,
      "Ġanx": 5711,
      "ĠIT": 5712,
      "ĠYes": 5713,
      "ensions": 5714,
      "Ġpassing": 5715,
      "Ġtreated": 5716,
      "Oh": 5717,
      "Ġdismiss": 5718,
      "Ġexplo": 5719,
      "Ġconnected": 5720,
      "Ġcrimes": 5721,
      "apping": 5722,
      "TH": 5723,
      "Ġsnow": 5724,
      "Ġyes": 5725,
      "ĠMa": 5726,
      "ampion": 5727,
      "uations": 5728,
      "rich": 5729,
      "Ġmarg": 5730,
      "Ġleads": 5731,
      "SS": 5732,
      "bur": 5733,
      "Ġdial": 5734,
      "ĠGar": 5735,
      "Ġtun": 5736,
      "Ġsurprising": 5737,
      "OD": 5738,
      "iat": 5739,
      "edia": 5740,
      "icer": 5741,
      "Ġchart": 5742,
      "Ġidentify": 5743,
      "gment": 5744,
      "Ġpowers": 5745,
      "Ġhopes": 5746,
      "Ġattempts": 5747,
      "ĠBoston": 5748,
      "free": 5749,
      "uous": 5750,
      "hered": 5751,
      "aza": 5752,
      "Ġcoast": 5753,
      "Ġapproved": 5754,
      "ĠPhoto": 5755,
      "Ġbasically": 5756,
      "Ġswitch": 5757,
      "Ġmotiv": 5758,
      "Res": 5759,
      "Ġsupporting": 5760,
      "Ġsubstant": 5761,
      "Ġopposed": 5762,
      "ĠForce": 5763,
      "xual": 5764,
      "ishes": 5765,
      "ĠSky": 5766,
      "ĠPut": 5767,
      "zer": 5768,
      "Ġloved": 5769,
      "Ġplus": 5770,
      "Ġaccompl": 5771,
      "sts": 5772,
      "Ġseriously": 5773,
      "Ġcraft": 5774,
      "ĠRon": 5775,
      "Ġtradition": 5776,
      "Ġbodies": 5777,
      "Ġgiant": 5778,
      "Ġabandon": 5779,
      "42": 5780,
      "ĠStan": 5781,
      "olt": 5782,
      "ĠIll": 5783,
      "ĠMem": 5784,
      "ributed": 5785,
      "audi": 5786,
      ",'": 5787,
      "pass": 5788,
      "ĠMos": 5789,
      "ĠRel": 5790,
      "ighters": 5791,
      "Ġspring": 5792,
      "ilit": 5793,
      "Ġabortion": 5794,
      "ĠGet": 5795,
      "ĠBack": 5796,
      "oking": 5797,
      "Ġunable": 5798,
      "ĠVict": 5799,
      "Ġends": 5800,
      "Ġdiscrim": 5801,
      "Ġpackage": 5802,
      "respond": 5803,
      "Ġauth": 5804,
      "elly": 5805,
      "abin": 5806,
      "Ġtree": 5807,
      "astern": 5808,
      "Ġupgr": 5809,
      "Ġcontrast": 5810,
      "Ġresponded": 5811,
      "ador": 5812,
      "Ġtrig": 5813,
      "ĠBarack": 5814,
      "etroit": 5815,
      "Ġfilled": 5816,
      "oves": 5817,
      "Ġnumerous": 5818,
      "----------------": 5819,
      "pet": 5820,
      "Sp": 5821,
      "Ġfilms": 5822,
      "Ġopportunities": 5823,
      "During": 5824,
      "mond": 5825,
      "obe": 5826,
      "Ġtechnical": 5827,
      "Ġbroadcast": 5828,
      "Ġstruggle": 5829,
      "writ": 5830,
      "eds": 5831,
      "ĠScience": 5832,
      "Ġweather": 5833,
      "Ġlots": 5834,
      "uls": 5835,
      "Ġmovies": 5836,
      "ĠSyrian": 5837,
      "ION": 5838,
      "hab": 5839,
      "ala": 5840,
      "Ġvulner": 5841,
      "oom": 5842,
      "ĠAT": 5843,
      "Ġseat": 5844,
      "Ġtrouble": 5845,
      "adow": 5846,
      "abilities": 5847,
      "Ġconfident": 5848,
      "Ġconsumers": 5849,
      "Ġongoing": 5850,
      "Ġatmosp": 5851,
      "Ġadvance": 5852,
      "Ġmarried": 5853,
      "Ġcollabor": 5854,
      "Ġcraz": 5855,
      "Ġpractices": 5856,
      "ĠSwed": 5857,
      "itors": 5858,
      "ĠToday": 5859,
      "Ġcolon": 5860,
      "ĠLee": 5861,
      "OW": 5862,
      "Rep": 5863,
      "law": 5864,
      "ĠLake": 5865,
      "Ġsubsequ": 5866,
      "Ġcircumst": 5867,
      "esters": 5868,
      "Ġconscious": 5869,
      "alker": 5870,
      "Ġordered": 5871,
      "dis": 5872,
      "Ġmetal": 5873,
      "IM": 5874,
      "Ġdiscl": 5875,
      "Ġexplan": 5876,
      "Ġinstitutions": 5877,
      "66": 5878,
      "CL": 5879,
      "Although": 5880,
      "Ġleaves": 5881,
      "Ġeditor": 5882,
      "ĠSociety": 5883,
      "Ġpled": 5884,
      "Ġsplit": 5885,
      "kay": 5886,
      "ivered": 5887,
      "Ġourselves": 5888,
      "Ġgovernor": 5889,
      "Ġlegit": 5890,
      "Ġproud": 5891,
      "arl": 5892,
      "ĠAndrew": 5893,
      "Ġstands": 5894,
      "Ġprompt": 5895,
      "ĠColor": 5896,
      "Ġhol": 5897,
      "Ġentertain": 5898,
      "evin": 5899,
      "Ġlinked": 5900,
      "Ġdisappoint": 5901,
      "ĠUkraine": 5902,
      "ket": 5903,
      "Ġshouldn": 5904,
      "ĠTime": 5905,
      "ĠSteve": 5906,
      "def": 5907,
      "coh": 5908,
      "Ġdrivers": 5909,
      "Ġliberal": 5910,
      "Ġnewspaper": 5911,
      "Am": 5912,
      "TA": 5913,
      "ĠPenn": 5914,
      "Ġconfidence": 5915,
      "Ġedge": 5916,
      "Ġpatient": 5917,
      "Ġexamples": 5918,
      "west": 5919,
      "Ġdim": 5920,
      "imal": 5921,
      "umber": 5922,
      "oma": 5923,
      "ĠMount": 5924,
      "ĠGen": 5925,
      "Ġadmitted": 5926,
      "Ġmode": 5927,
      "Ġcopyright": 5928,
      "Ġdetermined": 5929,
      "Ġagents": 5930,
      "Ġcauses": 5931,
      "Other": 5932,
      "enger": 5933,
      "Ġemphas": 5934,
      "ERS": 5935,
      "ĠJackson": 5936,
      "Ġcapable": 5937,
      "ĠDirector": 5938,
      "85": 5939,
      "Cont": 5940,
      "Ġgather": 5941,
      "Ġconfirm": 5942,
      "Ġexperiences": 5943,
      "Ġske": 5944,
      "Ġlie": 5945,
      "usal": 5946,
      "ĠYet": 5947,
      "Ġmagazine": 5948,
      "iro": 5949,
      "ĠLand": 5950,
      "Ġartist": 5951,
      "Man": 5952,
      "Ġresc": 5953,
      "ĠSpace": 5954,
      "ĠMuslims": 5955,
      "called": 5956,
      "Ġdoctor": 5957,
      "Ġstring": 5958,
      "Com": 5959,
      "orse": 5960,
      "ĠPlease": 5961,
      "osite": 5962,
      "Ġshots": 5963,
      "Ġmessages": 5964,
      "Ġlawyer": 5965,
      "PD": 5966,
      "Ġsought": 5967,
      "ĠRad": 5968,
      "Ġdecre": 5969,
      "Ġretail": 5970,
      "Ġreportedly": 5971,
      "ĠCharl": 5972,
      "ugh": 5973,
      "Ġarchitect": 5974,
      "Ġ;": 5975,
      "top": 5976,
      "Ġnations": 5977,
      "Ġhell": 5978,
      "Ġvideos": 5979,
      "Ġlibrary": 5980,
      "ĠProject": 5981,
      "Ġcalcul": 5982,
      "Can": 5983,
      "Ġadvice": 5984,
      "Ġdiplom": 5985,
      "ilty": 5986,
      "issions": 5987,
      "Ġemergency": 5988,
      "nam": 5989,
      "Ġcreation": 5990,
      "Ġskill": 5991,
      "Ġaid": 5992,
      "Ġmir": 5993,
      "Ġrain": 5994,
      "Ġbuildings": 5995,
      "Donald": 5996,
      "ht": 5997,
      "Ġclin": 5998,
      "ĠRead": 5999,
      "Ġremark": 6000,
      "Ġgrab": 6001,
      "nergy": 6002,
      "Ġdeclined": 6003,
      "Ġsquare": 6004,
      "ĠScot": 6005,
      "Ġbrow": 6006,
      "igure": 6007,
      "oked": 6008,
      "Ġgra": 6009,
      "Ġsuit": 6010,
      "asp": 6011,
      "Ġforget": 6012,
      "ĠCIA": 6013,
      "Ġincreases": 6014,
      "Ġeffectively": 6015,
      "Ġpicked": 6016,
      "Ġyouth": 6017,
      "ensus": 6018,
      "De": 6019,
      "ua": 6020,
      "Ġdebut": 6021,
      "ican": 6022,
      "ima": 6023,
      "Ġreaders": 6024,
      "Ġcentre": 6025,
      "Ġcriticism": 6026,
      "ÙĦ": 6027,
      "ena": 6028,
      "Ġkit": 6029,
      "erences": 6030,
      "Ġemails": 6031,
      "Ġlawsuit": 6032,
      "Ġupdates": 6033,
      "Ġperspective": 6034,
      "Ġsad": 6035,
      "Ġsession": 6036,
      "Ġrent": 6037,
      "ĠHuman": 6038,
      "Ġalt": 6039,
      "Ġtransition": 6040,
      "date": 6041,
      "kel": 6042,
      "ĠElect": 6043,
      "Ġdiscussed": 6044,
      "Ġbond": 6045,
      "ĠBob": 6046,
      "ĠBell": 6047,
      "ĠPrem": 6048,
      "Ġspons": 6049,
      "Ġpray": 6050,
      "Ġactivists": 6051,
      "Ġsevere": 6052,
      "Ġvan": 6053,
      "UT": 6054,
      "Ġresident": 6055,
      "Ġinjured": 6056,
      "Ġfraud": 6057,
      "Mar": 6058,
      "resents": 6059,
      "Ġbutton": 6060,
      "ogue": 6061,
      "Ġprin": 6062,
      "Ob": 6063,
      "enda": 6064,
      "Ġfindings": 6065,
      "ĠSee": 6066,
      "Ġmissed": 6067,
      "],": 6068,
      "zona": 6069,
      "ĠBet": 6070,
      "Ġdesire": 6071,
      "Ġwarned": 6072,
      "Ġmagn": 6073,
      "Many": 6074,
      "Ġrail": 6075,
      "Ġimportance": 6076,
      "Ġvalid": 6077,
      "Se": 6078,
      "utch": 6079,
      "Ġboys": 6080,
      "ĠTra": 6081,
      "Ġfacts": 6082,
      "Ġexplos": 6083,
      "Ġannouncement": 6084,
      "ĠPower": 6085,
      "opy": 6086,
      "unte": 6087,
      "ounded": 6088,
      "Ġperformed": 6089,
      "Ġreaction": 6090,
      "rip": 6091,
      "Ġpictures": 6092,
      "Ġflag": 6093,
      "Ġrealize": 6094,
      "Ġwrites": 6095,
      "ĠSystem": 6096,
      "Ġreplaced": 6097,
      "Ġyesterday": 6098,
      "Ġincor": 6099,
      "Ġflood": 6100,
      "Ġcurrency": 6101,
      "Ġ33": 6102,
      "Ġentered": 6103,
      "Ġinvestors": 6104,
      "ĠKorean": 6105,
      "Ġexcell": 6106,
      "Ġquiet": 6107,
      "Ġroughly": 6108,
      "Ġwithd": 6109,
      "essor": 6110,
      "Ġmeat": 6111,
      "ĠStr": 6112,
      "Ġsurveillance": 6113,
      "ette": 6114,
      "Ġargue": 6115,
      "Ġexercise": 6116,
      "ĠSqu": 6117,
      "Ġisland": 6118,
      "ĠRoad": 6119,
      "Ġeverybody": 6120,
      "ĠLabour": 6121,
      "Ġappropriate": 6122,
      "ooth": 6123,
      "inals": 6124,
      "ĠIN": 6125,
      "Ġshop": 6126,
      "Ġlisted": 6127,
      "Ġtotally": 6128,
      "Ġinitially": 6129,
      "Ġwalking": 6130,
      "ati": 6131,
      "esc": 6132,
      "Ġrising": 6133,
      "Ġcontains": 6134,
      "Ġnearby": 6135,
      "Ġaccepted": 6136,
      "Ġenemy": 6137,
      "Ġscheduled": 6138,
      "69": 6139,
      "Ġphen": 6140,
      "Then": 6141,
      "ĠGrand": 6142,
      "Ġessentially": 6143,
      "Ġmanufacture": 6144,
      "whel": 6145,
      "Ġdelivered": 6146,
      "IG": 6147,
      "Pol": 6148,
      "water": 6149,
      "ĠAut": 6150,
      "Ġcann": 6151,
      "rid": 6152,
      "ĠFollow": 6153,
      "ĠLin": 6154,
      "ĠBrook": 6155,
      "abled": 6156,
      "ĠFer": 6157,
      "ĠKenn": 6158,
      "anges": 6159,
      "American": 6160,
      "Ġcert": 6161,
      "ĠSign": 6162,
      "ellow": 6163,
      "Ġregime": 6164,
      "Ġhttps": 6165,
      "Ġsurprised": 6166,
      "bel": 6167,
      "Ġride": 6168,
      "Ġmand": 6169,
      "Ġresolution": 6170,
      "ĠMichigan": 6171,
      "Ġcaption": 6172,
      "ĠNov": 6173,
      "Ġpool": 6174,
      "formation": 6175,
      "Ġexplains": 6176,
      "Or": 6177,
      "cons": 6178,
      "ĠMatt": 6179,
      "ĠGames": 6180,
      "=\"": 6181,
      "ĠMedia": 6182,
      "word": 6183,
      "Ð»": 6184,
      "enture": 6185,
      "Ġfort": 6186,
      "Ġunus": 6187,
      "Ġfaced": 6188,
      "Ġcustomer": 6189,
      "estival": 6190,
      "ĠDetroit": 6191,
      "Ġcorrespond": 6192,
      "ĠTechn": 6193,
      "Ġthinks": 6194,
      "stone": 6195,
      "rence": 6196,
      "Ġfairly": 6197,
      "Ġbegins": 6198,
      "Ġvir": 6199,
      "Ġsuc": 6200,
      "Ġclient": 6201,
      "ternal": 6202,
      "Ġrestaurant": 6203,
      "57": 6204,
      "ez": 6205,
      "wer": 6206,
      "Ġ37": 6207,
      "dule": 6208,
      "Ġexpression": 6209,
      "II": 6210,
      "stood": 6211,
      "Ġheavily": 6212,
      "orry": 6213,
      "Ġfly": 6214,
      "ĠAv": 6215,
      "Ġstorm": 6216,
      "ĠCy": 6217,
      "ĠWal": 6218,
      "abb": 6219,
      "apse": 6220,
      "ĠiPh": 6221,
      "TV": 6222,
      "asure": 6223,
      "ĠHel": 6224,
      "Ġperman": 6225,
      "PU": 6226,
      "See": 6227,
      "ĠSov": 6228,
      "irty": 6229,
      "Ġdeaths": 6230,
      "CS": 6231,
      "IV": 6232,
      "Ġboss": 6233,
      "ourney": 6234,
      "Ġarmed": 6235,
      "print": 6236,
      "Qu": 6237,
      "Ġclasses": 6238,
      "Ġlaugh": 6239,
      "ĠYear": 6240,
      "Ġapplied": 6241,
      "Ġrum": 6242,
      "andal": 6243,
      "Ġneither": 6244,
      "Ġintention": 6245,
      "Ġfollows": 6246,
      "Ġarticles": 6247,
      "59": 6248,
      "Ġsam": 6249,
      "cipl": 6250,
      "ĠAnn": 6251,
      "Ġtalent": 6252,
      "ĠHen": 6253,
      "Follow": 6254,
      "Ġobjects": 6255,
      "Ġcontroversial": 6256,
      "Ġpure": 6257,
      "Ġstorage": 6258,
      "Ġtargets": 6259,
      "Ġentry": 6260,
      "Ġviolent": 6261,
      "Ġexistence": 6262,
      "Ġquarterback": 6263,
      "Ġancient": 6264,
      "icing": 6265,
      "Ġrot": 6266,
      "Ġallegations": 6267,
      "MA": 6268,
      "fortunately": 6269,
      "ÅŁ": 6270,
      "Ġpra": 6271,
      "ideo": 6272,
      "Ġusual": 6273,
      "Ġanywhere": 6274,
      "Ġbrings": 6275,
      "Ġfaces": 6276,
      "acle": 6277,
      "ologist": 6278,
      "Ġhoping": 6279,
      "IP": 6280,
      "rum": 6281,
      "Ġoutput": 6282,
      "Ġrepresents": 6283,
      "esh": 6284,
      "arters": 6285,
      "arden": 6286,
      "Ġintent": 6287,
      "ĠDavis": 6288,
      "Ġterrorist": 6289,
      "ns": 6290,
      "Ġprohib": 6291,
      "Ġshall": 6292,
      "Ġsets": 6293,
      "Ġstrange": 6294,
      "Ġserving": 6295,
      "Ġcheap": 6296,
      "****": 6297,
      "Ġallegedly": 6298,
      "Ġbare": 6299,
      "Ġrein": 6300,
      "Ġempt": 6301,
      "Ġmotion": 6302,
      "Ġdynam": 6303,
      "duc": 6304,
      "Ġorders": 6305,
      "illy": 6306,
      "Ġowned": 6307,
      "iques": 6308,
      "Like": 6309,
      "Ġ36": 6310,
      "Ġguilty": 6311,
      "Ġtransp": 6312,
      "Ġpromise": 6313,
      "Ġnative": 6314,
      "Ġdomin": 6315,
      "Ġelement": 6316,
      "Ġ2002": 6317,
      "Ġheads": 6318,
      "Ġsomewhat": 6319,
      "Ġcooper": 6320,
      "ĠSeattle": 6321,
      "Ġsick": 6322,
      "Ġing": 6323,
      "ĠClub": 6324,
      "Ġradical": 6325,
      "Ġaf": 6326,
      "Ġnav": 6327,
      "Ġuniverse": 6328,
      "azz": 6329,
      "Ġplane": 6330,
      "Ġfacility": 6331,
      "Ġyounger": 6332,
      "ĠSaudi": 6333,
      "Ġjoint": 6334,
      "avor": 6335,
      "87": 6336,
      "Ġthread": 6337,
      "Ġunlikely": 6338,
      "rison": 6339,
      "agers": 6340,
      "Ġadvert": 6341,
      "ĠSpanish": 6342,
      "Ġlabel": 6343,
      "IF": 6344,
      "pret": 6345,
      "uated": 6346,
      "âĢĭ": 6347,
      "acter": 6348,
      "ĠRev": 6349,
      "Ġcoffee": 6350,
      "aints": 6351,
      "ĠEconom": 6352,
      "Ġnecessarily": 6353,
      "Ġroute": 6354,
      "lv": 6355,
      "Ġauthors": 6356,
      "Ġbon": 6357,
      "ĠItaly": 6358,
      "ĠDevelop": 6359,
      "Ġsentence": 6360,
      "Ġstood": 6361,
      "ĠIts": 6362,
      "Ġstudio": 6363,
      "ĠOnly": 6364,
      "Most": 6365,
      "Ġfunctions": 6366,
      "anna": 6367,
      "Ġholds": 6368,
      "Ġfeatured": 6369,
      "Ġharder": 6370,
      "iot": 6371,
      "rations": 6372,
      "ship": 6373,
      "Ġwake": 6374,
      "Ġbike": 6375,
      "Ġgod": 6376,
      "Ġessential": 6377,
      "long": 6378,
      "Ġpitch": 6379,
      "ĠDou": 6380,
      "ĠLong": 6381,
      "Ġadds": 6382,
      "Ġwalked": 6383,
      "Ġcolleagues": 6384,
      "you": 6385,
      "ĠHist": 6386,
      "Ġoffense": 6387,
      "Ġevolution": 6388,
      "Ġimmigrants": 6389,
      "Ġbuying": 6390,
      "Ġdemocracy": 6391,
      "Ġmaterials": 6392,
      "ĠArizona": 6393,
      "Ġmyster": 6394,
      "Ġwarm": 6395,
      "ucks": 6396,
      "Ġinjuries": 6397,
      "ĠTurkey": 6398,
      "cohol": 6399,
      "born": 6400,
      "ĠGM": 6401,
      "Ġrelevant": 6402,
      "Ġsand": 6403,
      "Ġgrown": 6404,
      "orders": 6405,
      "Spe": 6406,
      "Ġflo": 6407,
      "Ġtiny": 6408,
      "Ġfranch": 6409,
      "Ġcausing": 6410,
      "Ġsubsid": 6411,
      "ĠDar": 6412,
      "ĠDiv": 6413,
      "Ġwarning": 6414,
      "Ġreturns": 6415,
      "Ġcombination": 6416,
      "ĠAgain": 6417,
      "Ġconsistent": 6418,
      "alian": 6419,
      "Ġenh": 6420,
      "Ġextent": 6421,
      "Ġimmediate": 6422,
      "Ġprotests": 6423,
      "Ġcomfortable": 6424,
      "iest": 6425,
      "ĠCat": 6426,
      "ĠHol": 6427,
      "raham": 6428,
      "ĠAsia": 6429,
      "ĠWood": 6430,
      "ĠJr": 6431,
      "gent": 6432,
      "Ġadvanced": 6433,
      "Ġattempted": 6434,
      "ĠAff": 6435,
      "ĠWild": 6436,
      "athan": 6437,
      "Ġdivision": 6438,
      "Ġapps": 6439,
      "Ġscored": 6440,
      "Ġ300": 6441,
      "Ġbatt": 6442,
      "Ġthreats": 6443,
      "Ġschol": 6444,
      "Ġsees": 6445,
      "ĠViet": 6446,
      "Ġalongside": 6447,
      "ĠNBA": 6448,
      "Ġplot": 6449,
      "po": 6450,
      "icious": 6451,
      "Ġrow": 6452,
      "luding": 6453,
      "ĠAnother": 6454,
      "Ġcreative": 6455,
      "________": 6456,
      "Ġconsequences": 6457,
      "ĠGeorg": 6458,
      "Ġexception": 6459,
      "Ġcarrying": 6460,
      "fire": 6461,
      "ĠWork": 6462,
      "Ġ1970": 6463,
      "Ġpushed": 6464,
      "Ġsucceed": 6465,
      "uy": 6466,
      "esome": 6467,
      "Ġdownt": 6468,
      "Ġrally": 6469,
      "Ġhotel": 6470,
      "Ġfixed": 6471,
      "Ġcircumstances": 6472,
      "ĠLib": 6473,
      "Ġking": 6474,
      "Ġembr": 6475,
      "ĠEach": 6476,
      "Ġ34": 6477,
      "Ġrepeatedly": 6478,
      "Ġsymbol": 6479,
      "Ġcrazy": 6480,
      "ĠPolit": 6481,
      "ĠBoard": 6482,
      "88": 6483,
      "gor": 6484,
      "xy": 6485,
      "ora": 6486,
      "ouston": 6487,
      "ĠMot": 6488,
      "Ġmanage": 6489,
      "angers": 6490,
      "Ġwinter": 6491,
      "ĠPalestinian": 6492,
      "People": 6493,
      "67": 6494,
      "erm": 6495,
      "isms": 6496,
      "ĠPan": 6497,
      "Ġimper": 6498,
      "ĠPlan": 6499,
      "Ġclosely": 6500,
      "Ġzero": 6501,
      "Ġsurrounding": 6502,
      "Ġlinks": 6503,
      "ĠTop": 6504,
      "Ġisol": 6505,
      "amily": 6506,
      "cho": 6507,
      "ĠLord": 6508,
      "Ġbull": 6509,
      "Ġhat": 6510,
      "ĠID": 6511,
      "ĠNations": 6512,
      "weight": 6513,
      "Ġblow": 6514,
      "ĠOhio": 6515,
      "ĠWilson": 6516,
      "Two": 6517,
      "Ġtermin": 6518,
      "ĠEnter": 6519,
      "âĢĶâĢĶâĢĶâĢĶ": 6520,
      "ollywood": 6521,
      "ixt": 6522,
      "Ø§": 6523,
      "Ġshif": 6524,
      "Ġconsumer": 6525,
      "Ġparticipants": 6526,
      "Ġnomine": 6527,
      "Ġdetailed": 6528,
      "Ġdatabase": 6529,
      "ulous": 6530,
      "ĠVol": 6531,
      "Ġreceiving": 6532,
      "Ġurban": 6533,
      "Ġpenal": 6534,
      "TS": 6535,
      "Ġbot": 6536,
      "Ġselection": 6537,
      "ĠRights": 6538,
      "onsin": 6539,
      "Ġdefined": 6540,
      "Ġnetworks": 6541,
      "Ġacknowled": 6542,
      "Ġdiet": 6543,
      "Ġsav": 6544,
      "isconsin": 6545,
      "ĠCharles": 6546,
      "Ġsister": 6547,
      "ĠKim": 6548,
      "Ġoverwhel": 6549,
      "Ġcourts": 6550,
      "Ġclassic": 6551,
      "alle": 6552,
      "Ġwear": 6553,
      "Ġunem": 6554,
      "awa": 6555,
      "Ġdistribution": 6556,
      "greg": 6557,
      "emen": 6558,
      "Ġwest": 6559,
      "Ġring": 6560,
      "Ġknowing": 6561,
      "twitter": 6562,
      "hem": 6563,
      "Ġcere": 6564,
      "Ġpal": 6565,
      "ĠMen": 6566,
      "Ġobserved": 6567,
      "Ġphilosoph": 6568,
      "Ġ75": 6569,
      "Ġartists": 6570,
      "Ġfrequently": 6571,
      "Ġnarrow": 6572,
      "Ġadm": 6573,
      "ĠJersey": 6574,
      "ĠColorado": 6575,
      "iments": 6576,
      "ĠHy": 6577,
      "ĠJews": 6578,
      "Ġpushing": 6579,
      "Ġliterally": 6580,
      "Ġathlet": 6581,
      "Ġforth": 6582,
      "Ġru": 6583,
      "Ġ42": 6584,
      "Ġrequests": 6585,
      "Ġterritory": 6586,
      "rors": 6587,
      "oric": 6588,
      "ĠTO": 6589,
      "Ġmoves": 6590,
      "Ġ//": 6591,
      "Ġteachers": 6592,
      "Ġdedicated": 6593,
      "300": 6594,
      "ellect": 6595,
      "Ġtrick": 6596,
      "Ġslowly": 6597,
      "Ġphenomen": 6598,
      "hus": 6599,
      "Ġlies": 6600,
      "Ġmotor": 6601,
      "ĠMs": 6602,
      "ĠFar": 6603,
      "Ġparliament": 6604,
      "ĠFil": 6605,
      "Ġvice": 6606,
      "Ġversions": 6607,
      "Ġliqu": 6608,
      "Ġhistorical": 6609,
      "burg": 6610,
      "Ġsuicide": 6611,
      "Ġcontest": 6612,
      "Ġrealized": 6613,
      "Ġapproximately": 6614,
      "Int": 6615,
      "ta": 6616,
      "uke": 6617,
      "olve": 6618,
      "efully": 6619,
      "azi": 6620,
      "Ġinvolving": 6621,
      "Ġhousehold": 6622,
      "Ġstores": 6623,
      "Ġcategory": 6624,
      "IR": 6625,
      "Ġwave": 6626,
      "Ġfill": 6627,
      "ĠCle": 6628,
      "Ġdoctors": 6629,
      "Ġpassion": 6630,
      "ĠDie": 6631,
      "ĠMaybe": 6632,
      "ĠIrish": 6633,
      "ĠCub": 6634,
      "ometimes": 6635,
      "Ġefficient": 6636,
      "lies": 6637,
      "Ġfashion": 6638,
      "Ġtech": 6639,
      "Get": 6640,
      "Ġinput": 6641,
      "Ġacting": 6642,
      "Ġopposite": 6643,
      "ca": 6644,
      "ĠLife": 6645,
      "Ġdecline": 6646,
      "Ġsyn": 6647,
      "ĠPhot": 6648,
      "Ġillust": 6649,
      "mates": 6650,
      "Ġsample": 6651,
      "Ġanyway": 6652,
      "Ġassets": 6653,
      "Ġreput": 6654,
      "Ġmoral": 6655,
      "Ġearned": 6656,
      "Ġadults": 6657,
      "ĠJoseph": 6658,
      "Ġmerely": 6659,
      "04": 6660,
      "pan": 6661,
      "inations": 6662,
      "Ġbattery": 6663,
      "sembly": 6664,
      "Ġhur": 6665,
      "ĠWay": 6666,
      "Ġbreaking": 6667,
      "Ġelectricity": 6668,
      "uable": 6669,
      "Ġnarr": 6670,
      "Ġaside": 6671,
      "Ġguide": 6672,
      "axy": 6673,
      "Ġdescribe": 6674,
      "ĠRomney": 6675,
      "Ġsoul": 6676,
      "Ġwage": 6677,
      "Ġnorthern": 6678,
      "ums": 6679,
      "Ġshel": 6680,
      "Ġfewer": 6681,
      "Ġpromised": 6682,
      "Despite": 6683,
      "Ġsustain": 6684,
      "arry": 6685,
      "str": 6686,
      "Ġsharing": 6687,
      "Ġsigning": 6688,
      "Ġmoder": 6689,
      "anny": 6690,
      "ĠSoviet": 6691,
      "Ġdeploy": 6692,
      "Ġ48": 6693,
      "Ġhardware": 6694,
      "anes": 6695,
      "oration": 6696,
      "Ġbright": 6697,
      "ĠConf": 6698,
      "ĠMiller": 6699,
      "ĠDaniel": 6700,
      "ĠLew": 6701,
      "Ġcampus": 6702,
      "Ġmarketing": 6703,
      "va": 6704,
      "Ġcongress": 6705,
      "ĠFord": 6706,
      "DS": 6707,
      "FP": 6708,
      "ls": 6709,
      "ĠBoy": 6710,
      "ĠPrince": 6711,
      "Ġmouth": 6712,
      "Ġplayoff": 6713,
      "Ġregional": 6714,
      "Ġtopic": 6715,
      "Ġexcellent": 6716,
      "Ġgonna": 6717,
      "Ġwaste": 6718,
      "Ġagenda": 6719,
      "Ġbug": 6720,
      "Ġimpressive": 6721,
      "Ġkinds": 6722,
      "Ġhyd": 6723,
      "Ġbehavi": 6724,
      "Ġtournament": 6725,
      "Ã³": 6726,
      "Ġnoticed": 6727,
      "ĠEric": 6728,
      "Ġacts": 6729,
      "Ġstruck": 6730,
      "ĠCard": 6731,
      "Ġopponents": 6732,
      "ocratic": 6733,
      "ĠEnergy": 6734,
      "Ġdealing": 6735,
      "Ġprecise": 6736,
      "Ġsouthern": 6737,
      "ĠIP": 6738,
      "Ġremote": 6739,
      "Ġconstant": 6740,
      "ĠImage": 6741,
      "Ġcommunication": 6742,
      "ĠCNN": 6743,
      "Ġdesk": 6744,
      "Ġcommitment": 6745,
      "Ġlatter": 6746,
      "ĠNetwork": 6747,
      "aun": 6748,
      "Ġchose": 6749,
      "iveness": 6750,
      "Ġdefeat": 6751,
      "ittle": 6752,
      "lla": 6753,
      "Ġgap": 6754,
      "amin": 6755,
      "Ġescape": 6756,
      "Ġreferred": 6757,
      "ingu": 6758,
      "Ġuncle": 6759,
      "aug": 6760,
      "Ġretire": 6761,
      "Ġmatches": 6762,
      "ko": 6763,
      "lder": 6764,
      "ORE": 6765,
      "Ġeast": 6766,
      "ĠWat": 6767,
      "Ġsomehow": 6768,
      "Ġregulations": 6769,
      "nic": 6770,
      "ĠFort": 6771,
      "ĠVan": 6772,
      "ĠSecond": 6773,
      "Ġchairman": 6774,
      "Yes": 6775,
      "ĠRod": 6776,
      "ĠiPhone": 6777,
      "Ġchain": 6778,
      "ĠVictor": 6779,
      "nov": 6780,
      "press": 6781,
      "sm": 6782,
      "Ġretain": 6783,
      "ceived": 6784,
      "Ġjourney": 6785,
      "Ġvolunte": 6786,
      "GBT": 6787,
      "CE": 6788,
      "tering": 6789,
      "Ġconver": 6790,
      "ĠValley": 6791,
      "Ġobtained": 6792,
      "Ġegg": 6793,
      "ĠWater": 6794,
      "Ġcritics": 6795,
      "Ġrisks": 6796,
      "Ġcommunications": 6797,
      "98": 6798,
      "ĠWin": 6799,
      "Ġchannel": 6800,
      "Ġunknown": 6801,
      "Ġ44": 6802,
      "Ġimproved": 6803,
      "bro": 6804,
      "Ġmurd": 6805,
      "ĠWisconsin": 6806,
      "Ġfalling": 6807,
      "Ġamounts": 6808,
      "hetic": 6809,
      "ĠStephen": 6810,
      "game": 6811,
      "otten": 6812,
      "ĠWhe": 6813,
      "Ġdepth": 6814,
      "ĠBlue": 6815,
      "Ġprotected": 6816,
      "Ġmistake": 6817,
      "ĠColumbia": 6818,
      "Ġanonym": 6819,
      "Ġmainstream": 6820,
      "ĠISIS": 6821,
      "vy": 6822,
      "Ġiron": 6823,
      "Ġsending": 6824,
      "ĠJul": 6825,
      "asts": 6826,
      "Ġsimpl": 6827,
      "Ã¢": 6828,
      "ato": 6829,
      "Ġfuck": 6830,
      "Ġ38": 6831,
      "Ġstream": 6832,
      "Ġmoments": 6833,
      "Ġcompetitive": 6834,
      "Ġtrees": 6835,
      "ographic": 6836,
      "ĠJesus": 6837,
      "agan": 6838,
      "Ġemissions": 6839,
      "ĠYoung": 6840,
      "Ġselected": 6841,
      "Ġestimates": 6842,
      "Ġinspired": 6843,
      "Ġmine": 6844,
      "ĠAp": 6845,
      "Ġapproval": 6846,
      "08": 6847,
      "Ġlocations": 6848,
      "Ġnewslet": 6849,
      "list": 6850,
      "Ġtested": 6851,
      "iciency": 6852,
      "http": 6853,
      "Ġfundamental": 6854,
      "Ġicon": 6855,
      "MS": 6856,
      "Ġvolume": 6857,
      "Ġdefinition": 6858,
      "Ġsquad": 6859,
      "iami": 6860,
      "ĠPok": 6861,
      "Ġextended": 6862,
      "Ġterrorism": 6863,
      "Ġfeedback": 6864,
      "Ġregistered": 6865,
      "En": 6866,
      "Ġalive": 6867,
      "Ġ1998": 6868,
      "Ġproperties": 6869,
      "Äģ": 6870,
      "Ġworried": 6871,
      "Ġdiscover": 6872,
      "Ġcaptured": 6873,
      "chen": 6874,
      "Ġprotesters": 6875,
      "iscal": 6876,
      "Ġdollar": 6877,
      "Ġresistance": 6878,
      "Ġcomparison": 6879,
      "56": 6880,
      "Ġtort": 6881,
      "iger": 6882,
      "Ġcrash": 6883,
      "Ġeating": 6884,
      "Ġallies": 6885,
      "Ġmanner": 6886,
      "iban": 6887,
      "Ġblame": 6888,
      "Ġposts": 6889,
      "Ġschedule": 6890,
      "Ġdry": 6891,
      "ĠâĢ¢": 6892,
      "bal": 6893,
      "Ġwins": 6894,
      "ĠBest": 6895,
      "ocation": 6896,
      "ĠWeek": 6897,
      "Ġdemands": 6898,
      "ĠCatholic": 6899,
      "ĠFair": 6900,
      "Ġadapt": 6901,
      "Ġruled": 6902,
      "Ġfavour": 6903,
      "Ġrecognize": 6904,
      "Ġaspects": 6905,
      "ems": 6906,
      "boy": 6907,
      "Ġwal": 6908,
      "Ġmo": 6909,
      "Ġformed": 6910,
      "chain": 6911,
      "cers": 6912,
      "ĠKevin": 6913,
      "Ġsuddenly": 6914,
      "aire": 6915,
      "Ġbear": 6916,
      "ĠBusiness": 6917,
      "ĠHouston": 6918,
      "Ġvacc": 6919,
      "OC": 6920,
      "PR": 6921,
      "ĠCivil": 6922,
      "Ġdesper": 6923,
      "Ġhall": 6924,
      "ĠEr": 6925,
      "Ġdogs": 6926,
      "ĠGreek": 6927,
      "kl": 6928,
      "ĠEmp": 6929,
      "Ġinstalled": 6930,
      "Ġwinner": 6931,
      "ĠCarl": 6932,
      "Ġdeeply": 6933,
      "Ġrequirements": 6934,
      "name": 6935,
      "Ġlock": 6936,
      "Ġvillage": 6937,
      "Ġfolks": 6938,
      "Ġbunch": 6939,
      "Ġshares": 6940,
      "Ġuncertain": 6941,
      "Ġemotional": 6942,
      "54": 6943,
      "enth": 6944,
      "odox": 6945,
      "Ġchampion": 6946,
      "Ġadmit": 6947,
      "Ġpunish": 6948,
      "Police": 6949,
      "mun": 6950,
      "Ġalcohol": 6951,
      "atell": 6952,
      "Ġregions": 6953,
      "Ġphase": 6954,
      "Ġdriven": 6955,
      "Ġoccasion": 6956,
      "Ġdrawn": 6957,
      "asks": 6958,
      "ĠTit": 6959,
      "Ġstrongly": 6960,
      "Ġtargeted": 6961,
      "Ġpossession": 6962,
      "Ġcycle": 6963,
      "icken": 6964,
      "foot": 6965,
      "Ġdisag": 6966,
      "Ġfees": 6967,
      "Ġunderstood": 6968,
      "Ġpersonally": 6969,
      "Ġcorruption": 6970,
      "ĠDev": 6971,
      "ĠScotland": 6972,
      "ĠCast": 6973,
      "ĠGi": 6974,
      "Ġkil": 6975,
      "Ġproperly": 6976,
      "Ġdegrees": 6977,
      "ĠSar": 6978,
      "Ġupcoming": 6979,
      "Ġ49": 6980,
      "Ġcontrols": 6981,
      "Ġfields": 6982,
      "Ġcontributed": 6983,
      "otal": 6984,
      "Ġsole": 6985,
      "ordan": 6986,
      "ormon": 6987,
      "Ġpromote": 6988,
      "Ġhonor": 6989,
      "Ġbag": 6990,
      "ĠEll": 6991,
      "ulture": 6992,
      "Ġconfront": 6993,
      "Ġinstru": 6994,
      "Te": 6995,
      "Ã¤": 6996,
      "ĠArch": 6997,
      "Ġprofile": 6998,
      "acc": 6999,
      "ether": 7000,
      "Ġdeleg": 7001,
      "ĠESP": 7002,
      "adel": 7003,
      "Ġpregn": 7004,
      "Ġparam": 7005,
      "Ġmaximum": 7006,
      "Inst": 7007,
      "Ġofficially": 7008,
      "Ġprimarily": 7009,
      "Ġupdated": 7010,
      "Ġanswers": 7011,
      "osis": 7012,
      "ĠEnd": 7013,
      "Ġsym": 7014,
      "Ġcaptain": 7015,
      "Ġattacked": 7016,
      "Ġyield": 7017,
      "ĠDefense": 7018,
      "Ġdestroyed": 7019,
      "May": 7020,
      "ĠDark": 7021,
      "umer": 7022,
      "ĠNation": 7023,
      "Ġtruck": 7024,
      "Ġsky": 7025,
      "uilding": 7026,
      "Per": 7027,
      "bar": 7028,
      "woman": 7029,
      "owed": 7030,
      "ocket": 7031,
      "Ġgenerate": 7032,
      "ĠÃ®": 7033,
      "Ġempty": 7034,
      "BM": 7035,
      "friend": 7036,
      "Ġbird": 7037,
      "igg": 7038,
      "Ġneut": 7039,
      "Ġscheme": 7040,
      "Ġlikes": 7041,
      "ĠCruz": 7042,
      "Ġ65": 7043,
      "Ġwatched": 7044,
      "tes": 7045,
      "ĠRam": 7046,
      "Ġclar": 7047,
      "Ġpover": 7048,
      "Ġmayor": 7049,
      "Ġreporter": 7050,
      "ĠAdminist": 7051,
      "Ġstretch": 7052,
      "77": 7053,
      "ĠSk": 7054,
      "Ġrub": 7055,
      "phy": 7056,
      "Ġstronger": 7057,
      "oil": 7058,
      "isan": 7059,
      "Ġmob": 7060,
      "Ġprofit": 7061,
      "Ġbasket": 7062,
      "Ġwire": 7063,
      "izz": 7064,
      "Ġunp": 7065,
      "Ġexplore": 7066,
      "mes": 7067,
      "Ġupper": 7068,
      "Ġrig": 7069,
      "ĠAgency": 7070,
      "ĠNASA": 7071,
      "Ġinev": 7072,
      "Ġdress": 7073,
      "ĠHome": 7074,
      "Ġfinds": 7075,
      "Ġorganized": 7076,
      "Ġwelcome": 7077,
      "Ġarguments": 7078,
      "Ġrejected": 7079,
      "han": 7080,
      "oster": 7081,
      "obb": 7082,
      "Ġincredibly": 7083,
      "lers": 7084,
      "mod": 7085,
      "aser": 7086,
      "essed": 7087,
      "ĠSpain": 7088,
      "Ġacademic": 7089,
      "ĠBowl": 7090,
      "Ġsho": 7091,
      "Ġmedic": 7092,
      "Ġkeeps": 7093,
      "Today": 7094,
      "ura": 7095,
      "ĠWomen": 7096,
      "ĠInf": 7097,
      "Ġdecent": 7098,
      "Ġdrag": 7099,
      "Any": 7100,
      "Ed": 7101,
      "Once": 7102,
      "lock": 7103,
      "sters": 7104,
      "ĠSports": 7105,
      "earing": 7106,
      "Ġmyth": 7107,
      "Ġsacr": 7108,
      "Ġatmosphere": 7109,
      "rary": 7110,
      "Ġsight": 7111,
      "Ġbid": 7112,
      "ĠRight": 7113,
      "ĠNight": 7114,
      "Ġassume": 7115,
      "Ġemployment": 7116,
      "Ġpoverty": 7117,
      "ĠFour": 7118,
      "ensity": 7119,
      "Ġending": 7120,
      "Ġclaiming": 7121,
      "mal": 7122,
      "Ġfasc": 7123,
      "ĠCam": 7124,
      "Ġintellect": 7125,
      "Ġcounty": 7126,
      "Ġgoods": 7127,
      "Ġputs": 7128,
      "Ġchoices": 7129,
      "Ġcomplaint": 7130,
      "Ġteaching": 7131,
      "Ġnewly": 7132,
      "Ġcontrolled": 7133,
      "86": 7134,
      "Ġdu": 7135,
      "ilarly": 7136,
      "inson": 7137,
      "Ġcondem": 7138,
      "Ġinformed": 7139,
      "Ġassistant": 7140,
      "Ġtaste": 7141,
      "Ġstuck": 7142,
      "abis": 7143,
      "Ġhadn": 7144,
      "Ġterrible": 7145,
      "07": 7146,
      "AA": 7147,
      "owered": 7148,
      "Ġchosen": 7149,
      "ĠChampionship": 7150,
      "Ġletters": 7151,
      "ĠAttorney": 7152,
      "keep": 7153,
      "ĠWatch": 7154,
      "orted": 7155,
      "Ġexhib": 7156,
      "ĠNY": 7157,
      "Ġreasonable": 7158,
      "orne": 7159,
      "Ġped": 7160,
      "sea": 7161,
      "igation": 7162,
      "ĠRog": 7163,
      "Ġsomebody": 7164,
      "ciples": 7165,
      "Ġwarming": 7166,
      "Ġapartment": 7167,
      "Ġfemin": 7168,
      "ĠDisney": 7169,
      "Ġsanctions": 7170,
      "owa": 7171,
      "ĠStand": 7172,
      "Ġrecording": 7173,
      "Ġsituations": 7174,
      "Ġmeetings": 7175,
      "Tube": 7176,
      "Ġpic": 7177,
      "Ġshit": 7178,
      "Ġdeveloper": 7179,
      "Ġresulting": 7180,
      "Ġencourage": 7181,
      "raid": 7182,
      "Ġemployee": 7183,
      "Ġthreatened": 7184,
      "regon": 7185,
      "Ġtypical": 7186,
      "Ġangry": 7187,
      "ules": 7188,
      "Ġworldwide": 7189,
      "Ġdirected": 7190,
      "Ġbench": 7191,
      "Ġassistance": 7192,
      "Ġanxiety": 7193,
      "Ġregularly": 7194,
      "Ġconstantly": 7195,
      "ĠBrad": 7196,
      "Ġperfectly": 7197,
      "Ġlicense": 7198,
      "Ġtrib": 7199,
      "star": 7200,
      "Ġsomewhere": 7201,
      "nesota": 7202,
      "Ġtitles": 7203,
      "Rel": 7204,
      "âĢĻ.": 7205,
      "ĠMah": 7206,
      "ĠHollywood": 7207,
      "unning": 7208,
      "Ġexposed": 7209,
      "Ġextensive": 7210,
      "Ġoccas": 7211,
      "Ġexplanation": 7212,
      "gorith": 7213,
      "03": 7214,
      "Ġfighters": 7215,
      "omin": 7216,
      "igen": 7217,
      "ĠCamer": 7218,
      "ĠMic": 7219,
      "06": 7220,
      "Pr": 7221,
      "rep": 7222,
      "ria": 7223,
      "Ġattended": 7224,
      "Ġconstit": 7225,
      "Ġequival": 7226,
      "Ġcutting": 7227,
      "Ġfifth": 7228,
      "Ġnarrative": 7229,
      "Add": 7230,
      "Ġgang": 7231,
      "Ġenthus": 7232,
      "Ġengage": 7233,
      "Ġtracks": 7234,
      "Ġborrow": 7235,
      "lete": 7236,
      "Ġtheme": 7237,
      "Ġopponent": 7238,
      "Ġreward": 7239,
      "etary": 7240,
      "ĠEp": 7241,
      "Ġplastic": 7242,
      "Ġclubs": 7243,
      "Ġpurposes": 7244,
      "Ġsweet": 7245,
      "John": 7246,
      "wan": 7247,
      "Ġflex": 7248,
      "Ġsupports": 7249,
      "Ġhouses": 7250,
      "anchester": 7251,
      "LA": 7252,
      "Ġflying": 7253,
      "ĠCD": 7254,
      "Ġrival": 7255,
      "ĠKat": 7256,
      "ĠThank": 7257,
      "iform": 7258,
      "Ġconfig": 7259,
      "everal": 7260,
      "ĠAsian": 7261,
      "Ġcontinuing": 7262,
      "Ġfacilities": 7263,
      "Ġraising": 7264,
      "Ġmixed": 7265,
      "Ġtherap": 7266,
      "aylor": 7267,
      "ĠWik": 7268,
      "ĠItalian": 7269,
      "aze": 7270,
      "Ġfranchise": 7271,
      "ao": 7272,
      "rates": 7273,
      "Ġhabit": 7274,
      "Ġoutcome": 7275,
      "Ġstrict": 7276,
      "ĠSteven": 7277,
      "ĠTaliban": 7278,
      "rete": 7279,
      "Ġcup": 7280,
      "icate": 7281,
      "celer": 7282,
      "ĠMoh": 7283,
      "hips": 7284,
      "Ġtrading": 7285,
      "Ġincredible": 7286,
      "Ġunusual": 7287,
      "Fr": 7288,
      "Ġinqu": 7289,
      "Ġ39": 7290,
      "Ġpolls": 7291,
      "Ġastron": 7292,
      "ĠMiami": 7293,
      "Ġextrem": 7294,
      "Ġprominent": 7295,
      "Also": 7296,
      "Ġlosses": 7297,
      "::": 7298,
      "Ġgaming": 7299,
      "ĠLGBT": 7300,
      "Ġgotten": 7301,
      "Ġideal": 7302,
      "Ġreveal": 7303,
      "idelines": 7304,
      "02": 7305,
      "ĠâĢĻ": 7306,
      "ĠBas": 7307,
      "ĠNBC": 7308,
      "ĠLove": 7309,
      "enders": 7310,
      "Ġencoun": 7311,
      "Ġdeals": 7312,
      "ushed": 7313,
      "ockey": 7314,
      "Ġcontem": 7315,
      "Ġmainly": 7316,
      "Ġlimits": 7317,
      "Ġrelationships": 7318,
      "Ġemerged": 7319,
      "ĠTurn": 7320,
      "Ġstadium": 7321,
      "ĠHot": 7322,
      "Ġreturning": 7323,
      "ĠBru": 7324,
      "abama": 7325,
      "Ġsaved": 7326,
      "ĠOld": 7327,
      "Ġju": 7328,
      "ĠCompany": 7329,
      "ĠAcadem": 7330,
      "Ġcomprom": 7331,
      "Ġflu": 7332,
      "Ġconvicted": 7333,
      "Ġjournalists": 7334,
      "rive": 7335,
      "Ġexcess": 7336,
      "Ġnobody": 7337,
      "elect": 7338,
      "rating": 7339,
      "eda": 7340,
      "Ġconven": 7341,
      "Ġ150": 7342,
      "acking": 7343,
      "Ġrecovery": 7344,
      "Ġdistinct": 7345,
      "Ġrape": 7346,
      "lls": 7347,
      "Ġplug": 7348,
      "Ġanymore": 7349,
      "Ġ1960": 7350,
      "Ġexciting": 7351,
      "Ġroutine": 7352,
      "Ġvirtual": 7353,
      "Ġgro": 7354,
      "Ġapolog": 7355,
      "cut": 7356,
      "ĠEduc": 7357,
      ".\"[": 7358,
      "58": 7359,
      "Ġties": 7360,
      "Ġfir": 7361,
      "Ġmanip": 7362,
      "Ġcollapse": 7363,
      "ML": 7364,
      "ĠHun": 7365,
      "Ġaccomp": 7366,
      "Ġprovince": 7367,
      "Ġtechniques": 7368,
      "SU": 7369,
      "urrent": 7370,
      "ĠHind": 7371,
      "Ġproved": 7372,
      "there": 7373,
      "ĠOrgan": 7374,
      "ĠTech": 7375,
      "Ġconcluded": 7376,
      "ione": 7377,
      "ĠWalker": 7378,
      "Ġchances": 7379,
      "mont": 7380,
      "ĪĴ": 7381,
      "Ġtank": 7382,
      "ĠPy": 7383,
      "Ġ($": 7384,
      "Ġcomponents": 7385,
      "Ġentit": 7386,
      "Ġracial": 7387,
      "Ġscores": 7388,
      "Ġtechnologies": 7389,
      "Ġwestern": 7390,
      "Ġproof": 7391,
      "thodox": 7392,
      "Ġevil": 7393,
      "Ġoblig": 7394,
      "Ġvisited": 7395,
      "ĠKingdom": 7396,
      "Ġmel": 7397,
      "Ġduty": 7398,
      "Ġcompete": 7399,
      "Ġprofession": 7400,
      "09": 7401,
      "Dr": 7402,
      "cript": 7403,
      "zens": 7404,
      "ĠMajor": 7405,
      "redit": 7406,
      "Ġcompens": 7407,
      "gery": 7408,
      "ĠDi": 7409,
      "acked": 7410,
      "ĠPremier": 7411,
      "inem": 7412,
      "Ġpip": 7413,
      "ĠHas": 7414,
      "ĠThanks": 7415,
      "ĠSea": 7416,
      "Ġfarm": 7417,
      "ĠForeign": 7418,
      "ked": 7419,
      "ĠSeries": 7420,
      "fr": 7421,
      "ĠAuthor": 7422,
      "ĠDown": 7423,
      "Ġformat": 7424,
      "',": 7425,
      "Ġhits": 7426,
      "ĠFC": 7427,
      "Ġsuccessfully": 7428,
      "Ġtackle": 7429,
      "vin": 7430,
      "Ġweird": 7431,
      "Ġdrinking": 7432,
      "da": 7433,
      "Ġfake": 7434,
      "Ġpace": 7435,
      "Ġbills": 7436,
      "Ġsufficient": 7437,
      "aska": 7438,
      "Ġparking": 7439,
      "Ġpilot": 7440,
      "Ġmonit": 7441,
      "Ġpayments": 7442,
      "Ġnominee": 7443,
      "Ġtall": 7444,
      "Ġtied": 7445,
      "Ġelsewhere": 7446,
      "Ġreputation": 7447,
      "lined": 7448,
      "eland": 7449,
      "Ġagric": 7450,
      "Ġarray": 7451,
      "era": 7452,
      "Ġexists": 7453,
      "Ġcapture": 7454,
      "Ġpenalty": 7455,
      "ĠWhere": 7456,
      "Ġdiscipl": 7457,
      "iana": 7458,
      "angel": 7459,
      "Ġbitcoin": 7460,
      "ĠServices": 7461,
      "VER": 7462,
      "pool": 7463,
      "Ñĥ": 7464,
      "upid": 7465,
      "Ġinterpret": 7466,
      "Ġcomputers": 7467,
      "Ġportion": 7468,
      "Ġenemies": 7469,
      "52": 7470,
      "ads": 7471,
      "hers": 7472,
      "ĠDam": 7473,
      "Ġfounder": 7474,
      "Ġtaught": 7475,
      "ĠSP": 7476,
      "ifications": 7477,
      "Ġmedium": 7478,
      "ĠMinnesota": 7479,
      "%.": 7480,
      "Ġoverse": 7481,
      "Ġveget": 7482,
      "Ġimplementation": 7483,
      "53": 7484,
      "Ġpin": 7485,
      "ĠInvest": 7486,
      "Ġextension": 7487,
      "Ġcompre": 7488,
      "pread": 7489,
      "onic": 7490,
      "ouver": 7491,
      "ĠHard": 7492,
      "ĠOs": 7493,
      "Ġelite": 7494,
      "idespread": 7495,
      "Ġengaged": 7496,
      "Ġhistoric": 7497,
      "ni": 7498,
      "ras": 7499,
      "Ġthin": 7500,
      "idency": 7501,
      "ĠThough": 7502,
      "Ġcollected": 7503,
      "ĠDespite": 7504,
      "ĠJordan": 7505,
      "Ġdefence": 7506,
      "ixon": 7507,
      "Ġformal": 7508,
      "Ġconstitutional": 7509,
      "Ġ1999": 7510,
      "Ġticket": 7511,
      "Ġble": 7512,
      "ĠLabor": 7513,
      "ĠReport": 7514,
      "ĠPolicy": 7515,
      "Ġcrucial": 7516,
      "FF": 7517,
      "Ġë": 7518,
      "iner": 7519,
      "Ġwid": 7520,
      "ĠReal": 7521,
      "Ġsolve": 7522,
      "Ġtaxpay": 7523,
      "Ġdiagn": 7524,
      "Ġharass": 7525,
      "Ġgranted": 7526,
      "Ġaggressive": 7527,
      "ĠESPN": 7528,
      "uine": 7529,
      "Ðº": 7530,
      "ali": 7531,
      "Ġven": 7532,
      "ĠVeg": 7533,
      "Ġbusy": 7534,
      "Ġdowntown": 7535,
      "itar": 7536,
      "this": 7537,
      "ĠView": 7538,
      "Ġdepending": 7539,
      "Ġrepresented": 7540,
      "Ġregardless": 7541,
      "Ġboot": 7542,
      "Ġstim": 7543,
      "ĠDNA": 7544,
      "Ġcoalition": 7545,
      "Ġconclusion": 7546,
      "\".[": 7547,
      "Ġ%": 7548,
      "ĠCustom": 7549,
      "Ġstab": 7550,
      "Ġchampionship": 7551,
      "ĠAlabama": 7552,
      "Ġwriters": 7553,
      "ĠMax": 7554,
      "pected": 7555,
      "Ġenjoyed": 7556,
      "itarian": 7557,
      "Ġfought": 7558,
      "ounced": 7559,
      "ancouver": 7560,
      "Ġpaint": 7561,
      "ĠConstitution": 7562,
      "97": 7563,
      "ĠFull": 7564,
      "ĠNavy": 7565,
      "Ġenorm": 7566,
      "Ġ64": 7567,
      "Ġwarrant": 7568,
      "Ġloan": 7569,
      "Ġautomatically": 7570,
      "Ġadopted": 7571,
      "ĠLinux": 7572,
      "ĠGeorgia": 7573,
      "51": 7574,
      "agram": 7575,
      "mann": 7576,
      "Ġmarked": 7577,
      "Ġ1996": 7578,
      "Ġnegotiations": 7579,
      "fast": 7580,
      "front": 7581,
      "gender": 7582,
      "ker": 7583,
      "0000": 7584,
      "ĠSenator": 7585,
      "Ġinnoc": 7586,
      "Because": 7587,
      "sex": 7588,
      "ĠMars": 7589,
      "ĠRick": 7590,
      "Ġarrange": 7591,
      "Ġroster": 7592,
      "Ġbranch": 7593,
      "ĠYouTube": 7594,
      "Ġdescribes": 7595,
      "ĠDun": 7596,
      "ĠOregon": 7597,
      "ĠKelly": 7598,
      "ifies": 7599,
      "ĠStone": 7600,
      "Ġdestruction": 7601,
      "ĠPacific": 7602,
      "ĠPutin": 7603,
      "Ġspark": 7604,
      "ĠAlbert": 7605,
      "alo": 7606,
      "ĠSouthern": 7607,
      "Ã¼": 7608,
      "iti": 7609,
      "ĠId": 7610,
      "ĠAvenue": 7611,
      "Ġstable": 7612,
      "active": 7613,
      "Off": 7614,
      "cow": 7615,
      "Ġthick": 7616,
      "Ġheight": 7617,
      "ĠLind": 7618,
      "ĠReuters": 7619,
      "Ġsolutions": 7620,
      "ĠAdam": 7621,
      "Ġbom": 7622,
      "ĠIowa": 7623,
      "ĠOS": 7624,
      "Ġactor": 7625,
      "ĠOper": 7626,
      "Ġmilk": 7627,
      "ĠManchester": 7628,
      "ĠVR": 7629,
      "Ġlawyers": 7630,
      "ĠBrian": 7631,
      "ĠJac": 7632,
      "aka": 7633,
      "ureau": 7634,
      "inking": 7635,
      "Ġavo": 7636,
      "Ġminds": 7637,
      "ĠGlobal": 7638,
      "urb": 7639,
      "ĠKir": 7640,
      "imp": 7641,
      "ĠLook": 7642,
      "Ġunw": 7643,
      "Ġ46": 7644,
      "Ġshortly": 7645,
      "Ġanticip": 7646,
      "Ġcomplicated": 7647,
      "Ġrecognition": 7648,
      "ystem": 7649,
      "Ã¶": 7650,
      "Ġ?": 7651,
      "ouch": 7652,
      "ĠLive": 7653,
      "ĠUt": 7654,
      "Ġvaluable": 7655,
      "Ġstruggling": 7656,
      "##": 7657,
      "herent": 7658,
      "Ġbath": 7659,
      "ĠTake": 7660,
      "ĠAh": 7661,
      "ĠPS": 7662,
      "allas": 7663,
      "Ġdozen": 7664,
      "Ġfinance": 7665,
      "Ġfunny": 7666,
      "Ġvisible": 7667,
      "Ġsteel": 7668,
      "Ġrapidly": 7669,
      "uce": 7670,
      "Ġcited": 7671,
      "Ġgall": 7672,
      "Ġlawmakers": 7673,
      "Ġprogramming": 7674,
      "Ġsubjects": 7675,
      "Ġaimed": 7676,
      "ui": 7677,
      "isp": 7678,
      "Ġbail": 7679,
      "oured": 7680,
      "etts": 7681,
      "ĠBudd": 7682,
      "Ġsharp": 7683,
      "ĠBefore": 7684,
      "Ġstead": 7685,
      "Ġcomic": 7686,
      "ĠNHL": 7687,
      "ĠGetty": 7688,
      "Ġsoil": 7689,
      "Ġadvis": 7690,
      "Ġresulted": 7691,
      "ĠNick": 7692,
      "Ġspr": 7693,
      "Ġobst": 7694,
      "ependent": 7695,
      "Ġdrawing": 7696,
      "Ġequivalent": 7697,
      "found": 7698,
      "inity": 7699,
      "ami": 7700,
      "Ġentering": 7701,
      "ĠiP": 7702,
      "Ġlayer": 7703,
      "ìĿ": 7704,
      "Ġtor": 7705,
      "asters": 7706,
      "ĠScient": 7707,
      "olph": 7708,
      "ĠThus": 7709,
      "Ġ47": 7710,
      "Ġveteran": 7711,
      "NC": 7712,
      "acon": 7713,
      "ĠBry": 7714,
      "text": 7715,
      "Ġwithdraw": 7716,
      "Ġafraid": 7717,
      "Ġfiscal": 7718,
      "rous": 7719,
      "Ġdeserv": 7720,
      "ĠPokÃ©": 7721,
      "ĠMid": 7722,
      "Ġalgorith": 7723,
      "Ġsup": 7724,
      "Ġconspir": 7725,
      "Mean": 7726,
      "etime": 7727,
      "ĠReview": 7728,
      "ĠZeal": 7729,
      "Ġcounsel": 7730,
      "ĠConservative": 7731,
      "Ġrefugees": 7732,
      "BN": 7733,
      "log": 7734,
      "ĠSnow": 7735,
      "ĠBattle": 7736,
      "ĠFred": 7737,
      "RS": 7738,
      "bell": 7739,
      "ĠJava": 7740,
      "Ġintense": 7741,
      "Ġdeck": 7742,
      "Ġpayment": 7743,
      "ĠCoast": 7744,
      "Ġreduction": 7745,
      "Ġmagic": 7746,
      "Ġcyber": 7747,
      "viously": 7748,
      "Ġexpectations": 7749,
      "aturally": 7750,
      "Ġsatell": 7751,
      "ĠEastern": 7752,
      "Ġphysic": 7753,
      "Ġmachines": 7754,
      "bn": 7755,
      "pes": 7756,
      "rage": 7757,
      "Ġtail": 7758,
      "ĠJosh": 7759,
      "portion": 7760,
      "Ġdomain": 7761,
      "ĠRoman": 7762,
      "Ġutil": 7763,
      "Ġtroub": 7764,
      "Ġscenes": 7765,
      "Dav": 7766,
      "ifest": 7767,
      "ĠHon": 7768,
      "ĠField": 7769,
      "ologists": 7770,
      "thew": 7771,
      "ĠLatin": 7772,
      "istent": 7773,
      "Ġrecru": 7774,
      "ĠMusic": 7775,
      "Ġaccurate": 7776,
      "rical": 7777,
      "Ġtap": 7778,
      "Ġwidespread": 7779,
      "ĠRoyal": 7780,
      "ibilities": 7781,
      "away": 7782,
      "Ġcreates": 7783,
      "adelph": 7784,
      "aga": 7785,
      "ĠKen": 7786,
      "Ġfoundation": 7787,
      "ĠMarc": 7788,
      "Ġawesome": 7789,
      "Ġminority": 7790,
      "ĠLA": 7791,
      "ildren": 7792,
      "Ġ400": 7793,
      "sylv": 7794,
      "Ð¼": 7795,
      "Ġocean": 7796,
      "Ġcos": 7797,
      "Ġhole": 7798,
      "weet": 7799,
      "Ġsignal": 7800,
      "ĠHenry": 7801,
      "making": 7802,
      "Ġfault": 7803,
      "ĠLyn": 7804,
      "ĠProgram": 7805,
      "ĠParliament": 7806,
      "Ġpermanent": 7807,
      "Ġcha": 7808,
      "aching": 7809,
      "Ġaudio": 7810,
      "%)": 7811,
      "oen": 7812,
      "uits": 7813,
      "Ġfold": 7814,
      "Ġphr": 7815,
      "heast": 7816,
      "orough": 7817,
      "kish": 7818,
      "Ġseats": 7819,
      "Ġdinner": 7820,
      "Getty": 7821,
      "quarters": 7822,
      "Ġdisaster": 7823,
      "athy": 7824,
      "Ġgenuine": 7825,
      "96": 7826,
      "from": 7827,
      "rative": 7828,
      "âĢĻ,": 7829,
      "ĠKent": 7830,
      "Ġ43": 7831,
      "Ġrelief": 7832,
      "Ġfounded": 7833,
      "Ġextract": 7834,
      "Ġgenerated": 7835,
      "Ġheaded": 7836,
      "Ġfeelings": 7837,
      "Ġassociation": 7838,
      "Ġnormally": 7839,
      "Ġthousand": 7840,
      "uties": 7841,
      "Ġrecip": 7842,
      "Ġ55": 7843,
      "Ġ1997": 7844,
      "ĠSpecial": 7845,
      "Ġridic": 7846,
      "ml": 7847,
      "page": 7848,
      "Ġloud": 7849,
      "ĠRet": 7850,
      "ĠNorthern": 7851,
      "Ġproducing": 7852,
      "scape": 7853,
      "Ġcitizen": 7854,
      "fall": 7855,
      "ye": 7856,
      "Ġtom": 7857,
      "Ġscoring": 7858,
      "Ġphones": 7859,
      "Ġjournalist": 7860,
      "ĠEmpire": 7861,
      "âĸ": 7862,
      "Ġcrop": 7863,
      "itals": 7864,
      "Ġjury": 7865,
      "ecut": 7866,
      "Ġfootage": 7867,
      "ĠâĤ¬": 7868,
      "ĠLewis": 7869,
      "sylvania": 7870,
      "Ne": 7871,
      "Ġproducer": 7872,
      "Ġexplicit": 7873,
      "Ġcarefully": 7874,
      "Ġprocesses": 7875,
      "ATE": 7876,
      "Ġrecognized": 7877,
      "Ġscenario": 7878,
      "Ġdiscrimination": 7879,
      "ĠDevelopment": 7880,
      "Ġlaid": 7881,
      "Ġbes": 7882,
      "acare": 7883,
      "rome": 7884,
      "Ġuncom": 7885,
      "Ġgrass": 7886,
      "Ġpasses": 7887,
      "Col": 7888,
      "ulating": 7889,
      "ĠGreg": 7890,
      "engers": 7891,
      "Ġbaseball": 7892,
      "Ref": 7893,
      "Ġelectronic": 7894,
      "ĠBrother": 7895,
      "Ġprogressive": 7896,
      "hent": 7897,
      "athered": 7898,
      "aron": 7899,
      "ĠTw": 7900,
      "ĠRa": 7901,
      "Ġlegs": 7902,
      "Ġestate": 7903,
      "Ġforest": 7904,
      "ĠContin": 7905,
      "Ġmanufacturing": 7906,
      "adelphia": 7907,
      "Ġelev": 7908,
      "ĠCome": 7909,
      "Ġelig": 7910,
      "ĠHarry": 7911,
      "Ġaver": 7912,
      "ĠTour": 7913,
      "ĠVancouver": 7914,
      "Ġblind": 7915,
      "Ġrarely": 7916,
      "Ġrestrictions": 7917,
      "ĠFoot": 7918,
      "Ġcomponent": 7919,
      "Ġprinciple": 7920,
      "world": 7921,
      "isa": 7922,
      "ĠâĢĭ": 7923,
      "Ġ41": 7924,
      "Ġfirms": 7925,
      "ĠDC": 7926,
      "Ġdeputy": 7927,
      "ĠAnth": 7928,
      "ĠCall": 7929,
      "ĠNob": 7930,
      "Ġshock": 7931,
      "Ġpropag": 7932,
      "Ġsuggesting": 7933,
      "RED": 7934,
      "Ġcorporations": 7935,
      "Ġbegun": 7936,
      "Ġpod": 7937,
      "amber": 7938,
      "ĠAmendment": 7939,
      "Ġpatterns": 7940,
      "ĠZealand": 7941,
      "car": 7942,
      "ashes": 7943,
      "ĠTony": 7944,
      "Ġrating": 7945,
      "Ġrecover": 7946,
      "teen": 7947,
      "Ġsmoke": 7948,
      "ĠArm": 7949,
      "Ġbehalf": 7950,
      "Ġcameras": 7951,
      "ĠAcademy": 7952,
      "erts": 7953,
      "Ġgained": 7954,
      "ĠMu": 7955,
      "ĠMir": 7956,
      "achus": 7957,
      "Star": 7958,
      "Ġprinciples": 7959,
      "Ġunemployment": 7960,
      "Ġhang": 7961,
      "Ġhired": 7962,
      "amacare": 7963,
      "olen": 7964,
      "Ġexposure": 7965,
      "prise": 7966,
      "ĠÎ": 7967,
      "Ġhidden": 7968,
      "umes": 7969,
      "Ġsurvive": 7970,
      "Ġcrypt": 7971,
      "SD": 7972,
      "post": 7973,
      "ila": 7974,
      "Ġprote": 7975,
      "ĠAdministration": 7976,
      "ĠEducation": 7977,
      "NE": 7978,
      "Ġtc": 7979,
      "arlier": 7980,
      "Ġeuro": 7981,
      "Ġcontracts": 7982,
      "Ġneighbour": 7983,
      "Meanwhile": 7984,
      "Note": 7985,
      "bec": 7986,
      "hour": 7987,
      "iture": 7988,
      "ĠNSA": 7989,
      "ĠKurd": 7990,
      "Ġ2019": 7991,
      "Ġpersonnel": 7992,
      "ĠCentre": 7993,
      "Ġparticipate": 7994,
      "Before": 7995,
      "achusetts": 7996,
      "she": 7997,
      "ilton": 7998,
      "Ġpremium": 7999,
      "Ġlists": 8000,
      "ĠThree": 8001,
      "Ġspin": 8002,
      "ĠAsh": 8003,
      "Ġindicate": 8004,
      "Ġasks": 8005,
      "Ġaffairs": 8006,
      "who": 8007,
      "Ġliked": 8008,
      "Ġvulnerable": 8009,
      "400": 8010,
      "Ġstations": 8011,
      "ushing": 8012,
      "Ġinvestigate": 8013,
      "Ġwonderful": 8014,
      "abinet": 8015,
      "78": 8016,
      "gun": 8017,
      "uan": 8018,
      "Ġho": 8019,
      "ĠFund": 8020,
      "Ġrose": 8021,
      "Ġoperate": 8022,
      "Ġdeeper": 8023,
      "Ġcontributions": 8024,
      "otype": 8025,
      "Ġcontribute": 8026,
      "Ġow": 8027,
      "ĠTem": 8028,
      "izon": 8029,
      "Ġeverywhere": 8030,
      "Ġinvolvement": 8031,
      "ĠCO": 8032,
      "ĠColl": 8033,
      "Ġclients": 8034,
      "ãģ®": 8035,
      "Ġengineering": 8036,
      "arrass": 8037,
      "iel": 8038,
      "reams": 8039,
      "Ġlobby": 8040,
      "ĠCare": 8041,
      "antic": 8042,
      "Ġchat": 8043,
      "ogan": 8044,
      "ĠStill": 8045,
      "Ġsmooth": 8046,
      "Ġcampaigns": 8047,
      "Ġcivilians": 8048,
      "Ġestablishment": 8049,
      "ĠHawai": 8050,
      "Rec": 8051,
      "cription": 8052,
      "imony": 8053,
      "ĠPen": 8054,
      "ĠPatrick": 8055,
      "Sec": 8056,
      "eno": 8057,
      "Ġraces": 8058,
      "Ġwheel": 8059,
      "ĠKn": 8060,
      "intend": 8061,
      "Ġbrown": 8062,
      "Ġinflation": 8063,
      "Ġdeliber": 8064,
      "ĠDiego": 8065,
      "Ġtox": 8066,
      "ifer": 8067,
      "Ġenable": 8068,
      "Ġconsumption": 8069,
      "Ġdict": 8070,
      "ĠTaylor": 8071,
      "ĠFed": 8072,
      "umin": 8073,
      "Ġsugar": 8074,
      "ĠJason": 8075,
      "ilipp": 8076,
      "Ġpurchased": 8077,
      "Co": 8078,
      "serv": 8079,
      "ĠBull": 8080,
      "ĠLo": 8081,
      "iano": 8082,
      "month": 8083,
      "Ġbeliefs": 8084,
      "cling": 8085,
      "Ġfinger": 8086,
      "ĠFood": 8087,
      "unior": 8088,
      "ogether": 8089,
      "Ġpreced": 8090,
      "Ġbridge": 8091,
      "Ġhumanity": 8092,
      "Ġphotograph": 8093,
      "Ġreaching": 8094,
      "Ġstrikes": 8095,
      "ĠBatman": 8096,
      "Ġcontaining": 8097,
      "Ġpeak": 8098,
      "ĠMayor": 8099,
      "Ġprivile": 8100,
      "Ġsalary": 8101,
      "Ġneighb": 8102,
      "ĠSC": 8103,
      "Ġfee": 8104,
      "Ġflash": 8105,
      "Ġillness": 8106,
      "ja": 8107,
      "ĠCost": 8108,
      "Ġscandal": 8109,
      "Ġhandful": 8110,
      "Ġinfect": 8111,
      "lessly": 8112,
      "inois": 8113,
      "ĠQueen": 8114,
      "ĠPennsylvania": 8115,
      "fare": 8116,
      "Ġbread": 8117,
      "ĠNic": 8118,
      "ĠOak": 8119,
      "Ġsurgery": 8120,
      "Ġretired": 8121,
      "Ġlistening": 8122,
      "ĠVegas": 8123,
      "73": 8124,
      "reate": 8125,
      "Ġhide": 8126,
      "Ġdivor": 8127,
      "ĠPerhaps": 8128,
      "ĠMoore": 8129,
      "Ġrif": 8130,
      "ĠHom": 8131,
      "Ġdozens": 8132,
      "Ġprincip": 8133,
      "Ġsympt": 8134,
      "Ġinvent": 8135,
      "Ġacceler": 8136,
      "rators": 8137,
      "Ġpublisher": 8138,
      "aver": 8139,
      "Ġtip": 8140,
      "aning": 8141,
      "Ġrely": 8142,
      "Ġdepression": 8143,
      "EP": 8144,
      "Ġtab": 8145,
      "Ġanger": 8146,
      "isting": 8147,
      "Ġvary": 8148,
      "Ġvital": 8149,
      "ĠOnt": 8150,
      "ultural": 8151,
      "interest": 8152,
      "Ġroot": 8153,
      "omething": 8154,
      "ĠClass": 8155,
      "ĠDead": 8156,
      "Ġindicated": 8157,
      "senal": 8158,
      "Ġbarely": 8159,
      "FA": 8160,
      "Ġpapers": 8161,
      "Ġmail": 8162,
      "Those": 8163,
      "Ġsynt": 8164,
      "Ġconnections": 8165,
      "Ġpounds": 8166,
      "quest": 8167,
      "sole": 8168,
      "Ġresign": 8169,
      "Ġtransit": 8170,
      "Ġaffili": 8171,
      "Ġcollective": 8172,
      "vard": 8173,
      "Ġgal": 8174,
      "ige": 8175,
      "ĠGall": 8176,
      "Ġcareful": 8177,
      "Ġforever": 8178,
      "Ġracist": 8179,
      "Ġconsciousness": 8180,
      "GA": 8181,
      "uts": 8182,
      "ĠSir": 8183,
      "Ġstupid": 8184,
      "ĠDutch": 8185,
      "Ġblocks": 8186,
      "Ġpriority": 8187,
      "Ġexclusive": 8188,
      "Ġunclear": 8189,
      "Under": 8190,
      "ĠKansas": 8191,
      "Ġinvited": 8192,
      "raph": 8193,
      "Ġdevast": 8194,
      "profit": 8195,
      "ĠMoscow": 8196,
      "Ġintellectual": 8197,
      "Ġpump": 8198,
      "Ġhook": 8199,
      "ĠPay": 8200,
      "osa": 8201,
      "Ġpermission": 8202,
      "Ġcoaches": 8203,
      "ĠAbout": 8204,
      "74": 8205,
      "dney": 8206,
      "Ġgains": 8207,
      "ĠNote": 8208,
      "Ġdoors": 8209,
      "Ġuniform": 8210,
      "Ġstayed": 8211,
      "ĠMassachusetts": 8212,
      "63": 8213,
      "then": 8214,
      "yo": 8215,
      "otes": 8216,
      "ĠRay": 8217,
      "ĠRand": 8218,
      "Ġalien": 8219,
      "Ġclock": 8220,
      "Ġincidents": 8221,
      "Ġroles": 8222,
      "Ġoffices": 8223,
      "Ġparalle": 8224,
      "including": 8225,
      "Ġprepare": 8226,
      "burgh": 8227,
      "Ġwars": 8228,
      "ĠLas": 8229,
      "ahoma": 8230,
      "Ġconvin": 8231,
      "Ġindependence": 8232,
      "Ġtransportation": 8233,
      "ba": 8234,
      "ĠTest": 8235,
      "usse": 8236,
      "ĠFre": 8237,
      "Ġexceed": 8238,
      "abe": 8239,
      "ĠHell": 8240,
      "Ġestimate": 8241,
      "ĠMcCain": 8242,
      "Ġvirtually": 8243,
      "ĠGuardian": 8244,
      "pat": 8245,
      "Ġtoler": 8246,
      "Ġdelivery": 8247,
      "About": 8248,
      "mad": 8249,
      "Ġfoss": 8250,
      "ĠAL": 8251,
      "ĠHT": 8252,
      "ĠDallas": 8253,
      "ĠOK": 8254,
      "Ġusage": 8255,
      "Ġultimate": 8256,
      "Ġstructures": 8257,
      "Ġoverwhelming": 8258,
      "'.": 8259,
      "PP": 8260,
      "uh": 8261,
      "ĠPR": 8262,
      "ĠFurther": 8263,
      "Ġrespectively": 8264,
      "Ġsensitive": 8265,
      "ĠAR": 8266,
      "Ġequally": 8267,
      "Ġsuspected": 8268,
      "Ġmountain": 8269,
      "61": 8270,
      "Ġversus": 8271,
      "Ġdiscussions": 8272,
      "ĠSupport": 8273,
      "ĠSquare": 8274,
      "Will": 8275,
      "dem": 8276,
      "ĠSaf": 8277,
      "Ġsear": 8278,
      "rient": 8279,
      "Ġedition": 8280,
      "ĠConference": 8281,
      "Ġthrew": 8282,
      "ĠCH": 8283,
      "Ġproven": 8284,
      "Ġplate": 8285,
      "inding": 8286,
      "Ġpublication": 8287,
      "Ġfrag": 8288,
      "Ġfears": 8289,
      "ĠPhiladelphia": 8290,
      "Ġincorpor": 8291,
      "Ġenormous": 8292,
      "uper": 8293,
      "Ġtag": 8294,
      "rypt": 8295,
      "Ġworker": 8296,
      "Ġtechnique": 8297,
      "Ġstone": 8298,
      "Ġprosec": 8299,
      "Ġattached": 8300,
      "Ġdiscovery": 8301,
      "Ġfailing": 8302,
      "Ġscholars": 8303,
      "))": 8304,
      "79": 8305,
      "kes": 8306,
      "ĠTri": 8307,
      "Ġranks": 8308,
      "icking": 8309,
      "Ġbrut": 8310,
      "Who": 8311,
      "Ġgenetic": 8312,
      "Ġrescue": 8313,
      "Ġliquid": 8314,
      "ĠSn": 8315,
      "olis": 8316,
      "Ġnotion": 8317,
      "Ġindex": 8318,
      "Ġrepresentative": 8319,
      "Ġwebsites": 8320,
      "ĠMarket": 8321,
      "Ġceleb": 8322,
      "Ġownership": 8323,
      "klahoma": 8324,
      "MP": 8325,
      "Ġwrest": 8326,
      "riers": 8327,
      "ĠAllen": 8328,
      "Ġinvestigators": 8329,
      "Ġgrounds": 8330,
      "Ġbarrel": 8331,
      "ĠRuby": 8332,
      "Ġlegend": 8333,
      "Ġsalt": 8334,
      "Ġchallenging": 8335,
      "Ġexpanded": 8336,
      "Ġsubstantial": 8337,
      "Ġbanned": 8338,
      "ĠAli": 8339,
      "Ġwelf": 8340,
      "Ġdisagree": 8341,
      "ĠHD": 8342,
      "ĠRoss": 8343,
      "inder": 8344,
      "cover": 8345,
      "ĠObamacare": 8346,
      "Ġterrorists": 8347,
      "??": 8348,
      "Hz": 8349,
      "Ġburd": 8350,
      "ĠOl": 8351,
      "Ġpractical": 8352,
      "Ġreducing": 8353,
      "Ġlogic": 8354,
      "Ġadvertising": 8355,
      "Ġwelfare": 8356,
      "ĠGO": 8357,
      "ĠLuc": 8358,
      "Ġjur": 8359,
      "Ġ52": 8360,
      "Ġbrill": 8361,
      "ĠMinistry": 8362,
      "Ġswim": 8363,
      "LC": 8364,
      "Post": 8365,
      "ĠHay": 8366,
      "Ġtickets": 8367,
      "Ġsettlement": 8368,
      "ĠRadio": 8369,
      ".-": 8370,
      "72": 8371,
      "rine": 8372,
      "ĠOF": 8373,
      "Ġpresum": 8374,
      "iversary": 8375,
      "Ġhardly": 8376,
      "Ġeastern": 8377,
      "Ġportray": 8378,
      "Ġachieved": 8379,
      "Ġgear": 8380,
      "Ġriver": 8381,
      "agg": 8382,
      "Ġhitting": 8383,
      "Ġcasual": 8384,
      "Ġcannabis": 8385,
      "ĠVietnam": 8386,
      "Ġconvinced": 8387,
      "iability": 8388,
      "uten": 8389,
      "ĠStadium": 8390,
      "Ġperpet": 8391,
      "ĠPlus": 8392,
      "Ġawareness": 8393,
      "ĠOlympic": 8394,
      "Ġbasketball": 8395,
      "rolled": 8396,
      "ĠPent": 8397,
      "uma": 8398,
      "alling": 8399,
      "Ġphilosophy": 8400,
      "oz": 8401,
      "ĠIce": 8402,
      "anted": 8403,
      "Ġsuspended": 8404,
      "Ġembarrass": 8405,
      "ĠSanta": 8406,
      "SC": 8407,
      "Ġfarmers": 8408,
      "ĠMedicaid": 8409,
      "Ġbrowser": 8410,
      "hemat": 8411,
      "Ġcust": 8412,
      "Ġcable": 8413,
      "Ġluck": 8414,
      "ĠGaza": 8415,
      "Ġships": 8416,
      "Ġads": 8417,
      "Ġincent": 8418,
      "Ġdefine": 8419,
      "Che": 8420,
      "Look": 8421,
      "Ġwaves": 8422,
      "ĠOtt": 8423,
      "Ġpoly": 8424,
      "Ġbacked": 8425,
      "issue": 8426,
      "Ġprocessing": 8427,
      "Ġreferring": 8428,
      "Ã±": 8429,
      "ĠAward": 8430,
      "ĠBalt": 8431,
      "opher": 8432,
      "Ġcontained": 8433,
      "Ġremem": 8434,
      "Ġmonthly": 8435,
      "Ġpromises": 8436,
      "ĠEdward": 8437,
      "Ġlegitimate": 8438,
      "BO": 8439,
      "Part": 8440,
      "Ġlucky": 8441,
      "ĠBang": 8442,
      "Ġserves": 8443,
      "Ġviewed": 8444,
      "Ġlowest": 8445,
      "Ġsuffer": 8446,
      "Ġspiritual": 8447,
      "Ġgathered": 8448,
      "change": 8449,
      "Ġrhet": 8450,
      "Ġanybody": 8451,
      "Ġreplied": 8452,
      "Ġplatforms": 8453,
      "Ġfantastic": 8454,
      "appy": 8455,
      "Ġlights": 8456,
      "ijing": 8457,
      "Ġroads": 8458,
      "Ġtemperatures": 8459,
      "Ġpetition": 8460,
      "89": 8461,
      "RL": 8462,
      "ÂĴ": 8463,
      "Ġwing": 8464,
      "esla": 8465,
      "Ġdance": 8466,
      "Ġunex": 8467,
      "ĠBernie": 8468,
      "Ġabandoned": 8469,
      "62": 8470,
      "Us": 8471,
      "yer": 8472,
      "Ġsteal": 8473,
      "Ġconce": 8474,
      "Ġ1992": 8475,
      "Ġinvestigations": 8476,
      "leveland": 8477,
      "power": 8478,
      "Ġtone": 8479,
      "esy": 8480,
      "ĠAction": 8481,
      "Ġflaw": 8482,
      "Ġextend": 8483,
      "ĠIndeed": 8484,
      "Ġabsor": 8485,
      "Ġcomprehens": 8486,
      "link": 8487,
      "erted": 8488,
      "eding": 8489,
      "ĠCirc": 8490,
      "ĠWW": 8491,
      "ĠEs": 8492,
      "Ġreader": 8493,
      "ĠChristians": 8494,
      "ĠIllinois": 8495,
      "Ġentertainment": 8496,
      "Ġfab": 8497,
      "Ġinequ": 8498,
      "ĠData": 8499,
      "Ġneuro": 8500,
      "ogen": 8501,
      "Ġjoining": 8502,
      "Ġstatistics": 8503,
      "ĠIII": 8504,
      "mig": 8505,
      "Ġcoc": 8506,
      "Ġloyal": 8507,
      "ĠFamily": 8508,
      "ĠArk": 8509,
      "Ġseemingly": 8510,
      "Ġimproving": 8511,
      "Ġinterviews": 8512,
      "Ġrequested": 8513,
      "Ġneutral": 8514,
      "Ñĭ": 8515,
      "Ġsoph": 8516,
      "Ġbra": 8517,
      "Ġfro": 8518,
      "aria": 8519,
      "ĠTenn": 8520,
      "rix": 8521,
      "udes": 8522,
      "ective": 8523,
      "ĠAustin": 8524,
      "ĠWithout": 8525,
      "Ġspeaks": 8526,
      "ho": 8527,
      "Ġgrav": 8528,
      "ĠPD": 8529,
      "ĠRose": 8530,
      "Ġcovers": 8531,
      "Ġdescription": 8532,
      "ĠArabia": 8533,
      "</": 8534,
      "osexual": 8535,
      "wered": 8536,
      "Ġremarks": 8537,
      "Ġdepends": 8538,
      "Ġactivist": 8539,
      "ATO": 8540,
      "Ġextraord": 8541,
      "ĠProfessor": 8542,
      "cific": 8543,
      "ĠCore": 8544,
      "ira": 8545,
      "agic": 8546,
      "ĠFront": 8547,
      "rett": 8548,
      "Ġcovering": 8549,
      "ĠMexican": 8550,
      "ĠSpring": 8551,
      "Mc": 8552,
      "Ġrevel": 8553,
      "ppers": 8554,
      "Ġnoting": 8555,
      "Ġupset": 8556,
      "Ġethnic": 8557,
      "Ġwww": 8558,
      "Ġgift": 8559,
      "Ġattitude": 8560,
      "Ġhandling": 8561,
      "Ġbrew": 8562,
      "Ġlanguages": 8563,
      "ĠCheck": 8564,
      "Ġwalls": 8565,
      "========": 8566,
      "HS": 8567,
      "Ġtasks": 8568,
      "ĠHa": 8569,
      "Ġovert": 8570,
      "***": 8571,
      "Ġreviews": 8572,
      "71": 8573,
      "Me": 8574,
      "abeth": 8575,
      "ĠGov": 8576,
      "ĠStat": 8577,
      "ĠBeach": 8578,
      "Ġadvocates": 8579,
      "Ġcontroversy": 8580,
      "ĠAtlanta": 8581,
      "ĠCross": 8582,
      "Ġ->": 8583,
      "ixed": 8584,
      "Ġguest": 8585,
      "Ġinsisted": 8586,
      "ĠMedical": 8587,
      "Ġconversations": 8588,
      "ĠDesign": 8589,
      "Ġpredicted": 8590,
      "Ġquantum": 8591,
      "Ġappreciate": 8592,
      "GO": 8593,
      "ĠMuseum": 8594,
      "ĠPoint": 8595,
      "Ġje": 8596,
      "ĠIns": 8597,
      "Ġscar": 8598,
      "Ġscope": 8599,
      "Ġmonitor": 8600,
      "Ġpassengers": 8601,
      "ika": 8602,
      "Ġtestimony": 8603,
      "Ġignore": 8604,
      "ihad": 8605,
      "ĠSuch": 8606,
      "ĠNever": 8607,
      "Ġjoke": 8608,
      "ĠBible": 8609,
      "ĠHit": 8610,
      "usions": 8611,
      "Ġ51": 8612,
      "Ġgrid": 8613,
      "Ġviewers": 8614,
      "Ġawarded": 8615,
      "maker": 8616,
      "Ġthrown": 8617,
      "Ġlocked": 8618,
      "ĠBron": 8619,
      "actions": 8620,
      "Ġmovements": 8621,
      "Ġfriendly": 8622,
      "Ġauto": 8623,
      "ĠJustin": 8624,
      "Ġarrive": 8625,
      "Ġconservatives": 8626,
      "ĠCommunity": 8627,
      "Ġstrategic": 8628,
      "har": 8629,
      "rance": 8630,
      "Ġsin": 8631,
      "ĠJay": 8632,
      "Ġhanded": 8633,
      "Ġpopulations": 8634,
      "ĠPhilipp": 8635,
      "Ġinvolves": 8636,
      "Ġguarantee": 8637,
      "ĠÃ®n": 8638,
      "Ñı": 8639,
      "Ġrational": 8640,
      "Ġregulation": 8641,
      "Ġfeaturing": 8642,
      "Ġimplemented": 8643,
      "Ġratio": 8644,
      "ĠCameron": 8645,
      "Ġconspiracy": 8646,
      "Ġec": 8647,
      "Ġterr": 8648,
      "Ġboat": 8649,
      "Ġfallen": 8650,
      "Ġepisodes": 8651,
      "Ġinner": 8652,
      "Ġnerv": 8653,
      "Ġscreens": 8654,
      "ĠEngine": 8655,
      "Ġbanking": 8656,
      "bi": 8657,
      "ĠAD": 8658,
      "usted": 8659,
      "ĠUFC": 8660,
      "eping": 8661,
      "Ġrecommended": 8662,
      "ĠAND": 8663,
      "ĠHistory": 8664,
      "76": 8665,
      "President": 8666,
      "Ġ00": 8667,
      "ctic": 8668,
      "Ġ1994": 8669,
      "Ġsamples": 8670,
      "Back": 8671,
      "Where": 8672,
      "oice": 8673,
      "ĠTown": 8674,
      "ĠNev": 8675,
      "ĠSydney": 8676,
      "Ġsenator": 8677,
      "Ġbrothers": 8678,
      "Ġproposals": 8679,
      "Ġsettings": 8680,
      "EA": 8681,
      "Ġcogn": 8682,
      "ammed": 8683,
      "ĠRoy": 8684,
      "Ġheading": 8685,
      "Ġimprovements": 8686,
      "Ġfantasy": 8687,
      "mo": 8688,
      "Ġfulf": 8689,
      "thood": 8690,
      "ĠJean": 8691,
      "ubb": 8692,
      "Ġ1995": 8693,
      "Ġprotecting": 8694,
      "ĠTechnology": 8695,
      "oenix": 8696,
      "ecutive": 8697,
      "UL": 8698,
      "ĠLittle": 8699,
      "Ġchapter": 8700,
      "Ġattacking": 8701,
      "helsea": 8702,
      "Ġranked": 8703,
      "ĠSweden": 8704,
      "cles": 8705,
      "worth": 8706,
      "Ġdad": 8707,
      "Ġstored": 8708,
      "ĠBra": 8709,
      "Ġclosing": 8710,
      "Ġvoter": 8711,
      "Ġclassified": 8712,
      "ĠDivision": 8713,
      "dit": 8714,
      "mate": 8715,
      "Ġax": 8716,
      "Ġham": 8717,
      "ĠDid": 8718,
      "Ġlegacy": 8719,
      "ĠCooper": 8720,
      "Ġspokesperson": 8721,
      "Ġclothes": 8722,
      "Ġstake": 8723,
      "ĠLight": 8724,
      "ported": 8725,
      "ictions": 8726,
      "ught": 8727,
      "Ġdynamic": 8728,
      "Ġingred": 8729,
      "Ġentitled": 8730,
      "lan": 8731,
      "ĠMake": 8732,
      "Ġrom": 8733,
      "itionally": 8734,
      "Ġbreaks": 8735,
      "Ġresponses": 8736,
      "ĠEnvironment": 8737,
      "Ġtactics": 8738,
      "Ġhypot": 8739,
      "was": 8740,
      "Ġactors": 8741,
      "ĠShare": 8742,
      "ĠIraqi": 8743,
      "core": 8744,
      "een": 8745,
      "ĠMoon": 8746,
      "ĠUse": 8747,
      "Ġmodule": 8748,
      "minute": 8749,
      "Ġ99": 8750,
      "Ġmenu": 8751,
      "Ġattempting": 8752,
      "Ġtomorrow": 8753,
      "Please": 8754,
      "des": 8755,
      "eters": 8756,
      "ĠAst": 8757,
      "ĠJam": 8758,
      "Ġtrave": 8759,
      "Ġconcrete": 8760,
      "annels": 8761,
      "Ġprofits": 8762,
      "Ġfunctional": 8763,
      "HA": 8764,
      "itol": 8765,
      "Ġfruit": 8766,
      "Ġdrew": 8767,
      "ĠCleveland": 8768,
      "outing": 8769,
      "ieties": 8770,
      "EE": 8771,
      "ouri": 8772,
      "owing": 8773,
      "ĠBrew": 8774,
      "ivals": 8775,
      "Ġbutt": 8776,
      "izabeth": 8777,
      "Ġtwenty": 8778,
      "Ġflags": 8779,
      "Ġcomplaints": 8780,
      "usalem": 8781,
      "ĠKennedy": 8782,
      "Ġkilomet": 8783,
      "Cons": 8784,
      "Ġsorry": 8785,
      "Ġreven": 8786,
      "ndum": 8787,
      "bridge": 8788,
      "ĠAnthony": 8789,
      "Ġaccus": 8790,
      "scale": 8791,
      "Ġfrequency": 8792,
      "News": 8793,
      "Ġsilver": 8794,
      "Ġmechanism": 8795,
      "Ġappointed": 8796,
      "Ġholiday": 8797,
      "atar": 8798,
      "Ġhint": 8799,
      "Ġstolen": 8800,
      "ĠInformation": 8801,
      "hesis": 8802,
      "Ġfunded": 8803,
      "Ġsubsequent": 8804,
      "++": 8805,
      "ĠLy": 8806,
      "asty": 8807,
      "ĠUr": 8808,
      "Ġbuff": 8809,
      "Ġpreserv": 8810,
      "Ġinterface": 8811,
      "Ġdivided": 8812,
      "Ġopinions": 8813,
      "Ġpartnership": 8814,
      "Ġtweeted": 8815,
      "hot": 8816,
      "isk": 8817,
      "ĠChair": 8818,
      "Ġfactory": 8819,
      "iences": 8820,
      "uer": 8821,
      "ĠTok": 8822,
      "amine": 8823,
      "Ġrural": 8824,
      "ĠHor": 8825,
      "Ġpermit": 8826,
      "Ġamid": 8827,
      "ĠUnfortunately": 8828,
      "Ġshoulder": 8829,
      "Ġreads": 8830,
      "plete": 8831,
      "Ġdistributed": 8832,
      "ĠMean": 8833,
      "Ġacknowledged": 8834,
      "ĠForm": 8835,
      "Ġjudges": 8836,
      "ĠAnton": 8837,
      "dri": 8838,
      "omy": 8839,
      "Ġrear": 8840,
      "iry": 8841,
      "ĠBelg": 8842,
      "Ġau": 8843,
      "Ġstages": 8844,
      "eman": 8845,
      "ĠGDP": 8846,
      "ĠYemen": 8847,
      "Ġpersonality": 8848,
      "iverpool": 8849,
      "Ġlanding": 8850,
      "Ġtemporary": 8851,
      "EST": 8852,
      "Ġvisitors": 8853,
      "ĠTurkish": 8854,
      "92": 8855,
      "rec": 8856,
      "Ġdub": 8857,
      "ĠNext": 8858,
      "ĠOklahoma": 8859,
      "Ġregister": 8860,
      "Ġcounts": 8861,
      "phones": 8862,
      "ĠHarvard": 8863,
      "Ġaddressed": 8864,
      "Ġballot": 8865,
      "ĠMatthew": 8866,
      "Ġwedd": 8867,
      "esty": 8868,
      "ĠUlt": 8869,
      "ĠMcG": 8870,
      "Ġlicens": 8871,
      "Ġther": 8872,
      "Ġtheat": 8873,
      "Ġokay": 8874,
      "Ġlying": 8875,
      "ĠPit": 8876,
      "oded": 8877,
      "acket": 8878,
      "ogs": 8879,
      "ubble": 8880,
      "Ġresource": 8881,
      "Ġdispl": 8882,
      "Ġinvestigating": 8883,
      "Ġdramatic": 8884,
      "Ġdominant": 8885,
      "rell": 8886,
      "Ġquoted": 8887,
      "Ġvisiting": 8888,
      "ommod": 8889,
      "Ġmoon": 8890,
      "ĠMS": 8891,
      "Ġexternal": 8892,
      "ĠBeijing": 8893,
      "Ġcapitalism": 8894,
      "Ġrobot": 8895,
      "Ġmonitoring": 8896,
      "%,": 8897,
      "84": 8898,
      "igious": 8899,
      "agh": 8900,
      "umble": 8901,
      "geon": 8902,
      "Ġcompare": 8903,
      "sels": 8904,
      "ĠIndust": 8905,
      "aeda": 8906,
      "ĠØ": 8907,
      "ĠNorm": 8908,
      "Ġcriticized": 8909,
      "Ġcelebrate": 8910,
      "ĠOntario": 8911,
      "aus": 8912,
      "Ġfiction": 8913,
      "oret": 8914,
      "ĠGraham": 8915,
      "plate": 8916,
      "flix": 8917,
      "Related": 8918,
      "Her": 8919,
      "pa": 8920,
      "Ġhung": 8921,
      "ĠAcc": 8922,
      "Ġmanifest": 8923,
      "Ġcenturies": 8924,
      "ĠAdv": 8925,
      "Ġassessment": 8926,
      "ĠKong": 8927,
      "Ġspoken": 8928,
      "Ġreprodu": 8929,
      "ĠDoes": 8930,
      "Ġracism": 8931,
      "Ġencouraged": 8932,
      "door": 8933,
      "uj": 8934,
      "Ġdiversity": 8935,
      "uted": 8936,
      "through": 8937,
      "Ġspots": 8938,
      "Ġnoise": 8939,
      "Ġviolation": 8940,
      "Ġmistakes": 8941,
      "Ġreplacement": 8942,
      "ĠPokÃ©mon": 8943,
      "Ġnin": 8944,
      "ĠABC": 8945,
      "ĠiOS": 8946,
      "Ġignored": 8947,
      "itting": 8948,
      "ĠExt": 8949,
      "Ġtrained": 8950,
      "oker": 8951,
      "aret": 8952,
      "ĠBeck": 8953,
      "ĠOrthodox": 8954,
      "Ġtrem": 8955,
      "Ġconsistently": 8956,
      "Ġpursue": 8957,
      "ĠGreece": 8958,
      "Ġdiverse": 8959,
      "icity": 8960,
      "stract": 8961,
      "ĠBon": 8962,
      "Ġincl": 8963,
      "Ġovers": 8964,
      "Ġmidfield": 8965,
      "Ġdrove": 8966,
      "ĠKey": 8967,
      "Both": 8968,
      "Ġouts": 8969,
      "Ġairport": 8970,
      "ĠJerusalem": 8971,
      "dated": 8972,
      "ĠTro": 8973,
      "emed": 8974,
      "Ġwarn": 8975,
      "Ġfalls": 8976,
      "Ġmortg": 8977,
      "Ġdismissed": 8978,
      "Ass": 8979,
      "isons": 8980,
      "ĠDet": 8981,
      "unes": 8982,
      "Ġwhenever": 8983,
      "ĠVis": 8984,
      "Ġdeficit": 8985,
      "Ġpolitically": 8986,
      "Ġhyper": 8987,
      "Sim": 8988,
      "ĠLine": 8989,
      "Ġages": 8990,
      "ĠWhich": 8991,
      "ĠMarvel": 8992,
      "Ġerrors": 8993,
      "Ġvariable": 8994,
      "Ġwealthy": 8995,
      "PG": 8996,
      "mary": 8997,
      "alia": 8998,
      "Ġtries": 8999,
      "hatt": 9000,
      "inch": 9001,
      "Ġcul": 9002,
      "Ġrelax": 9003,
      "Ġdrone": 9004,
      "El": 9005,
      "PC": 9006,
      "icket": 9007,
      "Ġarguing": 9008,
      "sa": 9009,
      "Ġfur": 9010,
      "ultane": 9011,
      "Ġdisrupt": 9012,
      "Ġpresidency": 9013,
      "Ġstudied": 9014,
      "rator": 9015,
      "Ġ1993": 9016,
      "Ġurged": 9017,
      "rooms": 9018,
      "ĠRevolution": 9019,
      "Ġbehaviour": 9020,
      "SL": 9021,
      "lad": 9022,
      "math": 9023,
      "xit": 9024,
      "Ġinject": 9025,
      "Ġgam": 9026,
      "ĠMun": 9027,
      "iler": 9028,
      "ĠPot": 9029,
      "Ġraw": 9030,
      "Ġtrillion": 9031,
      "ĠKar": 9032,
      "Ġformation": 9033,
      "Ġprogramme": 9034,
      "amsung": 9035,
      "ĠEmail": 9036,
      "Ġsurvival": 9037,
      "ĠJudge": 9038,
      "Ġlad": 9039,
      "ĠMill": 9040,
      "onder": 9041,
      "Ġblocked": 9042,
      "Ġimprovement": 9043,
      "Comp": 9044,
      "Your": 9045,
      "case": 9046,
      "ĠAle": 9047,
      "ĠCBS": 9048,
      "ĠRoll": 9049,
      "Ġsaving": 9050,
      "Ġroots": 9051,
      "David": 9052,
      "Ġtie": 9053,
      "ĠTesla": 9054,
      "igate": 9055,
      "Ġspaces": 9056,
      "Ġaccommod": 9057,
      "Ġefficiency": 9058,
      "Ġexperiments": 9059,
      "Ġmarks": 9060,
      "Ġordinary": 9061,
      "Ġsettled": 9062,
      "Ġyellow": 9063,
      "Ġalarm": 9064,
      "Ġabroad": 9065,
      "iece": 9066,
      "Ġplain": 9067,
      "Ġjoy": 9068,
      "Ġtransgender": 9069,
      "Ġreforms": 9070,
      "Ġreferendum": 9071,
      "fund": 9072,
      "hop": 9073,
      "oding": 9074,
      "aware": 9075,
      "Ġdepos": 9076,
      "ĠProv": 9077,
      "Christ": 9078,
      "Ġwaters": 9079,
      "Ġcongressional": 9080,
      "91": 9081,
      "ais": 9082,
      "Ġcig": 9083,
      "ĠAge": 9084,
      "Ġshadow": 9085,
      "Ġsupplies": 9086,
      "Ġstreaming": 9087,
      "ĠConnect": 9088,
      "Ġequality": 9089,
      "Ġcommonly": 9090,
      "Ġcopies": 9091,
      "Ġmedicine": 9092,
      "\")": 9093,
      "800": 9094,
      "ĠEvent": 9095,
      "plus": 9096,
      "Ġpron": 9097,
      "Ġguitar": 9098,
      "Ġlandscape": 9099,
      "Ġpersons": 9100,
      "Ġvoices": 9101,
      "ĠAssociated": 9102,
      "ĠBerlin": 9103,
      "Ġliterature": 9104,
      "Ġassumed": 9105,
      "ĠMontreal": 9106,
      "ãĢģ": 9107,
      "Yet": 9108,
      "acco": 9109,
      "imore": 9110,
      "ĠDave": 9111,
      "Ġdemocratic": 9112,
      "Ġdistract": 9113,
      "ĠAmong": 9114,
      "Ste": 9115,
      "Ġdump": 9116,
      "ntil": 9117,
      "Ġ1950": 9118,
      "ropri": 9119,
      "Ġemployed": 9120,
      "Ġretirement": 9121,
      "ped": 9122,
      "ĠÙ": 9123,
      "held": 9124,
      "Ġmun": 9125,
      "ĠAnderson": 9126,
      "Ġinvestments": 9127,
      "Ġsurely": 9128,
      "arency": 9129,
      "cr": 9130,
      "encing": 9131,
      "Ġcro": 9132,
      "itage": 9133,
      "ounding": 9134,
      "Ġsubmit": 9135,
      "Ġguidelines": 9136,
      "shire": 9137,
      "backs": 9138,
      "Ġthrowing": 9139,
      "Ġcustody": 9140,
      "!)": 9141,
      "Sm": 9142,
      "Sen": 9143,
      "Ġwider": 9144,
      "Ġramp": 9145,
      "Ġsevent": 9146,
      "ĠFreedom": 9147,
      "apes": 9148,
      "Ġspan": 9149,
      "Ġintervention": 9150,
      "ĠLeader": 9151,
      "Ġcenters": 9152,
      "theless": 9153,
      "Step": 9154,
      "ĠBroad": 9155,
      "82": 9156,
      "Ð²": 9157,
      "Ġbeings": 9158,
      "Ġinspect": 9159,
      "Ġapproached": 9160,
      "Ġrepresenting": 9161,
      "Ġ{\\": 9162,
      "Ġremarkable": 9163,
      "zed": 9164,
      "asury": 9165,
      "Ġrender": 9166,
      "ĠSon": 9167,
      "Ġforcing": 9168,
      "Ġweigh": 9169,
      "ĠHo": 9170,
      "ĠNATO": 9171,
      "Ġsmile": 9172,
      "ĠDeath": 9173,
      "Ġhealthcare": 9174,
      "ĠPrice": 9175,
      "Ġauthent": 9176,
      "ĠAbb": 9177,
      "Ġnomination": 9178,
      "ĠFootball": 9179,
      "OK": 9180,
      "Ġlands": 9181,
      "Ġbeating": 9182,
      "Ġrush": 9183,
      "ĠGT": 9184,
      "Ġproducers": 9185,
      "ikes": 9186,
      "Ġtargeting": 9187,
      "ĠCorpor": 9188,
      "Ġcomplexity": 9189,
      "ĠScottish": 9190,
      "ĠMaryland": 9191,
      "Ġuniversal": 9192,
      "after": 9193,
      "inf": 9194,
      "oli": 9195,
      "Ġunions": 9196,
      "they": 9197,
      "Ġperforming": 9198,
      "Ġblockchain": 9199,
      "Ġdemanding": 9200,
      "ĠGovernor": 9201,
      "Ġcategories": 9202,
      "ĠAtlantic": 9203,
      "Ġtape": 9204,
      "ĠKick": 9205,
      "Ġsmell": 9206,
      "Ġdrama": 9207,
      "Ġtracking": 9208,
      "rogen": 9209,
      "Ġsymptoms": 9210,
      "Ġpatch": 9211,
      "Ġdying": 9212,
      "ista": 9213,
      "ailed": 9214,
      "Ġpref": 9215,
      "Ġmembership": 9216,
      "Ġkitchen": 9217,
      "ĠPop": 9218,
      "aval": 9219,
      "Ġinvasion": 9220,
      "Ġproviders": 9221,
      "archy": 9222,
      "Ġprosecutors": 9223,
      "Dem": 9224,
      "ito": 9225,
      "ĠSometimes": 9226,
      "ethe": 9227,
      "ĠNOT": 9228,
      "ĠLim": 9229,
      "obs": 9230,
      "Ġimportantly": 9231,
      "ĠPlace": 9232,
      "ĠCarter": 9233,
      "Ġhomeless": 9234,
      "Ġsemi": 9235,
      "Ġoverseas": 9236,
      "Are": 9237,
      "don": 9238,
      "gener": 9239,
      "Ġna": 9240,
      "ĠBuff": 9241,
      "Ġintr": 9242,
      "rows": 9243,
      "pha": 9244,
      "Ġmusical": 9245,
      "Ġveterans": 9246,
      "Ġinnocent": 9247,
      "bow": 9248,
      "rets": 9249,
      "orous": 9250,
      "Ġmac": 9251,
      "ĠBureau": 9252,
      "Ġinspir": 9253,
      "Ġconsideration": 9254,
      "Ġpreparing": 9255,
      "Ġprisoners": 9256,
      "Ġconventional": 9257,
      "ixture": 9258,
      "high": 9259,
      "Ġreliable": 9260,
      "ĠBloom": 9261,
      "Ġorigin": 9262,
      "ĠCole": 9263,
      "Act": 9264,
      "king": 9265,
      "test": 9266,
      "Ġlux": 9267,
      "ĠSat": 9268,
      "ĠSus": 9269,
      "Ġneck": 9270,
      "orship": 9271,
      "Ġactively": 9272,
      "Ġwhereas": 9273,
      "lando": 9274,
      "Ġanniversary": 9275,
      "Ġphotograp": 9276,
      "ĠIntelligence": 9277,
      "UN": 9278,
      "low": 9279,
      "Ġbars": 9280,
      "Ġgest": 9281,
      "ĠPack": 9282,
      "Though": 9283,
      "Ġendorse": 9284,
      "Ġletting": 9285,
      "ĠBlake": 9286,
      "Ġabsence": 9287,
      "ĠMorris": 9288,
      "trans": 9289,
      "Ġinitiative": 9290,
      "ĠBad": 9291,
      "ĠHop": 9292,
      "ĠGulf": 9293,
      "ĠHead": 9294,
      "Ġheadquarters": 9295,
      "Ġphysics": 9296,
      "Ġcivilian": 9297,
      "Ġrounds": 9298,
      "Ġdocumentary": 9299,
      "https": 9300,
      "Ġinnovation": 9301,
      "Ġphenomenon": 9302,
      "jo": 9303,
      "mony": 9304,
      "Ġfiring": 9305,
      "Ġrevers": 9306,
      "Ġunpre": 9307,
      "Ġassign": 9308,
      "const": 9309,
      "ierce": 9310,
      "Ġargues": 9311,
      "Ġutility": 9312,
      "Ġdemonstrated": 9313,
      "Sub": 9314,
      "ded": 9315,
      "rection": 9316,
      "Ġpa": 9317,
      "arms": 9318,
      "ĠBoe": 9319,
      "ĠHong": 9320,
      "Ġcomedy": 9321,
      "Ġ250": 9322,
      "Ġdiscount": 9323,
      "Ġgraduate": 9324,
      "Ġexclus": 9325,
[...]
