{
  "version": "1.0",
  "truncation": null,
  "padding": null,
  "added_tokens": [
    {
      "id": 0,
      "content": "<|endoftext|>",
      "single_word": false,
      "lstrip": false,
      "rstrip": false,
      "normalized": false,
      "special": true
    }
  ],
  "normalizer": null,
  "pre_tokenizer": {
    "type": "ByteLevel",
    "add_prefix_space": false,
    "trim_offsets": true,
    "use_regex": true
  },
  "post_processor": null,
  "decoder": {
    "type": "ByteLevel",
    "add_prefix_space": true,
    "trim_offsets": true,
    "use_regex": true
  },
  "model": {
    "type": "BPE",
    "dropout": null,
    "unk_token": null,
    "continuing_subword_prefix": null,
    "end_of_word_suffix": null,
    "fuse_unk": false,
    "byte_fallback": false,
    "ignore_merges": false,
    "vocab": {
      "<|endoftext|>": 0,
      "!": 1,
      "\"": 2,
      "#": 3,
      "$": 4,
      "%": 5,
      "&": 6,
      "'": 7,
      "(": 8,
      ")": 9,
      "*": 10,
      "+": 11,
      ",": 12,
      "-": 13,
      ".": 14,
      "/": 15,
      "0": 16,
      "1": 17,
      "2": 18,
      "3": 19,
      "4": 20,
      "5": 21,
      "6": 22,
      "7": 23,
      "8": 24,
      "9": 25,
      ":": 26,
      ";": 27,
      "<": 28,
      "=": 29,
      ">": 30,
      "?": 31,
      "@": 32,
      "A": 33,
      "B": 34,
      "C": 35,
      "D": 36,
      "E": 37,
      "F": 38,
      "G": 39,
      "H": 40,
      "I": 41,
      "J": 42,
      "K": 43,
      "L": 44,
      "M": 45,
      "N": 46,
      "O": 47,
      "P": 48,
      "Q": 49,
      "R": 50,
      "S": 51,
      "T": 52,
      "U": 53,
      "V": 54,
      "W": 55,
      "X": 56,
      "Y": 57,
      "Z": 58,
      "[": 59,
      "\\": 60,
      "]": 61,
      "^": 62,
      "_": 63,
      "`": 64,
      "a": 65,
      "b": 66,
      "c": 67,
      "d": 68,
      "e": 69,
      "f": 70,
      "g": 71,
      "h": 72,
      "i": 73,
      "j": 74,
      "k": 75,
      "l": 76,
      "m": 77,
      "n": 78,
      "o": 79,
      "p": 80,
      "q": 81,
      "r": 82,
      "s": 83,
      "t": 84,
      "u": 85,
      "v": 86,
      "w": 87,
      "x": 88,
      "y": 89,
      "z": 90,
      "{": 91,
      "|": 92,
      "}": 93,
      "~": 94,
      "¡": 95,
      "¢": 96,
      "£": 97,
      "¤": 98,
      "¥": 99,
      "¦": 100,
      "§": 101,
      "¨": 102,
      "©": 103,
      "ª": 104,
      "«": 105,
      "¬": 106,
      "®": 107,
      "¯": 108,
      "°": 109,
      "±": 110,
      "²": 111,
      "³": 112,
      "´": 113,
      "µ": 114,
      "¶": 115,
      "·": 116,
      "¸": 117,
      "¹": 118,
      "º": 119,
      "»": 120,
      "¼": 121,
      "½": 122,
      "¾": 123,
      "¿": 124,
      "À": 125,
      "Á": 126,
      "Â": 127,
      "Ã": 128,
      "Ä": 129,
      "Å": 130,
      "Æ": 131,
      "Ç": 132,
      "È": 133,
      "É": 134,
      "Ê": 135,
      "Ë": 136,
      "Ì": 137,
      "Í": 138,
      "Î": 139,
      "Ï": 140,
      "Ð": 141,
      "Ñ": 142,
      "Ò": 143,
      "Ó": 144,
      "Ô": 145,
      "Õ": 146,
      "Ö": 147,
      "×": 148,
      "Ø": 149,
      "Ù": 150,
      "Ú": 151,
      "Û": 152,
      "Ü": 153,
      "Ý": 154,
      "Þ": 155,
      "ß": 156,
      "à": 157,
      "á": 158,
      "â": 159,
      "ã": 160,
      "ä": 161,
      "å": 162,
      "æ": 163,
      "ç": 164,
      "è": 165,
      "é": 166,
      "ê": 167,
      "ë": 168,
      "ì": 169,
      "í": 170,
      "î": 171,
      "ï": 172,
      "ð": 173,
      "ñ": 174,
      "ò": 175,
      "ó": 176,
      "ô": 177,
      "õ": 178,
      "ö": 179,
      "÷": 180,
      "ø": 181,
      "ù": 182,
      "ú": 183,
      "û": 184,
      "ü": 185,
      "ý": 186,
      "þ": 187,
      "ÿ": 188,
      "Ā": 189,
      "ā": 190,
      "Ă": 191,
      "ă": 192,
      "Ą": 193,
      "ą": 194,
      "Ć": 195,
      "ć": 196,
      "Ĉ": 197,
      "ĉ": 198,
      "Ċ": 199,
      "ċ": 200,
      "Č": 201,
      "č": 202,
      "Ď": 203,
      "ď": 204,
      "Đ": 205,
      "đ": 206,
      "Ē": 207,
      "ē": 208,
      "Ĕ": 209,
      "ĕ": 210,
      "Ė": 211,
      "ė": 212,
      "Ę": 213,
      "ę": 214,
      "Ě": 215,
      "ě": 216,
      "Ĝ": 217,
      "ĝ": 218,
      "Ğ": 219,
      "ğ": 220,
      "Ġ": 221,
      "ġ": 222,
      "Ģ": 223,
      "ģ": 224,
      "Ĥ": 225,
      "ĥ": 226,
      "Ħ": 227,
      "ħ": 228,
      "Ĩ": 229,
      "ĩ": 230,
      "Ī": 231,
      "ī": 232,
      "Ĭ": 233,
      "ĭ": 234,
      "Į": 235,
      "į": 236,
      "İ": 237,
      "ı": 238,
      "Ĳ": 239,
      "ĳ": 240,
      "Ĵ": 241,
      "ĵ": 242,
      "Ķ": 243,
      "ķ": 244,
      "ĸ": 245,
      "Ĺ": 246,
      "ĺ": 247,
      "Ļ": 248,
      "ļ": 249,
      "Ľ": 250,
      "ľ": 251,
      "Ŀ": 252,
      "ŀ": 253,
      "Ł": 254,
      "ł": 255,
      "Ń": 256,
      "he": 257,
      "Ġt": 258,
      "Ġa": 259,
      "Ġs": 260,
      "Ġw": 261,
      "nd": 262,
      "Ġthe": 263,
      "ed": 264,
      "Ġand": 265,
      "Ġto": 266,
      "Ġb": 267,
      "in": 268,
      "Ġh": 269,
      "Ġwa": 270,
      "re": 271,
      "Ġf": 272,
      "ou": 273,
      "it": 274,
      "Ġl": 275,
      "Ġc": 276,
      "er": 277,
      "Ġd": 278,
      "Ġhe": 279,
      "Ġwas": 280,
      "Ġm": 281,
      "Ġp": 282,
      "om": 283,
      "ĠT": 284,
      "Ġo": 285,
      "ay": 286,
      "ar": 287,
      "ing": 288,
      "is": 289,
      "Ġg": 290,
      "il": 291,
      "id": 292,
      "at": 293,
      "en": 294,
      "Ġn": 295,
      "Ġsa": 296,
      "Ġha": 297,
      "ĠS": 298,
      "ĠThe": 299,
      "an": 300,
      "im": 301,
      "or": 302,
      "on": 303,
      "Ġit": 304,
      "Ġth": 305,
      "ll": 306,
      "le": 307,
      "ĠH": 308,
      "Ġher": 309,
      "et": 310,
      "ot": 311,
      "ir": 312,
      "ĠShe": 313,
      "ĠHe": 314,
      "es": 315,
      "ver": 316,
      "Ġin": 317,
      "ut": 318,
      "ow": 319,
      "ck": 320,
      "Ġe": 321,
      "ĠThey": 322,
      "Ġu": 323,
      "ld": 324,
      "oo": 325,
      "ig": 326,
      "Ġy": 327,
      "Ġsaid": 328,
      "Ġr": 329,
      "Ġbe": 330,
      "ily": 331,
      "am": 332,
      "Ġst": 333,
      "ce": 334,
      "Ġshe": 335,
      "Ġ\"": 336,
      "pp": 337,
      "ke": 338,
      "ĠI": 339,
      "ith": 340,
      "ve": 341,
      "On": 342,
      "Ġwith": 343,
      "Ġof": 344,
      "Lily": 345,
      "Ġon": 346,
      "Ġso": 347,
      "ked": 348,
      "ri": 349,
      "Ġhis": 350,
      "nt": 351,
      "Ġpl": 352,
      "very": 353,
      "Ġyou": 354,
      "ad": 355,
      "Ġday": 356,
      "Ġthat": 357,
      "Ġup": 358,
      "Ġhad": 359,
      "st": 360,
      "Ġplay": 361,
      "Ġthey": 362,
      "el": 363,
      "ĠLily": 364,
      "Ġmom": 365,
      "Ġfor": 366,
      "Ġwe": 367,
      "ould": 368,
      "un": 369,
      "my": 370,
      "ĠB": 371,
      "The": 372,
      "'s": 373,
      "Ġhapp": 374,
      "ent": 375,
      "ch": 376,
      "itt": 377,
      "Ġli": 378,
      "Ġwant": 379,
      "out": 380,
      "Ġsh": 381,
      "her": 382,
      "ly": 383,
      "Ġvery": 384,
      "ound": 385,
      "ime": 386,
      "ome": 387,
      "se": 388,
      "ittle": 389,
      "all": 390,
      "Ġdo": 391,
      "end": 392,
      "Ġtime": 393,
      "Ġwh": 394,
      "Ġnot": 395,
      "Ġlittle": 396,
      "Ġthere": 397,
      "Ġk": 398,
      "al": 399,
      "ht": 400,
      "Ġne": 401,
      "Ġhappy": 402,
      "Ġre": 403,
      "Ġbig": 404,
      "ĠM": 405,
      "ĠĊ": 406,
      "Ġsm": 407,
      "Ġbut": 408,
      "ĠIt": 409,
      "ack": 410,
      "Ġsaw": 411,
      "Ġan": 412,
      "riend": 413,
      "Ġfriend": 414,
      "Ġis": 415,
      "ra": 416,
      "Ġas": 417,
      "ry": 418,
      "One": 419,
      "ide": 420,
      ".\"": 421,
      "ake": 422,
      "'t": 423,
      "ved": 424,
      "Once": 425,
      "ug": 426,
      "ter": 427,
      "Ġloo": 428,
      "Ġwere": 429,
      "ore": 430,
      "ec": 431,
      "Ġlo": 432,
      "!\"": 433,
      "Ġhim": 434,
      "Ġbo": 435,
      "Ġtoo": 436,
      "Ġgo": 437,
      "irl": 438,
      "Ġse": 439,
      "ĠTim": 440,
      "Ġupon": 441,
      "Ġgirl": 442,
      "Ġwanted": 443,
      "Ġj": 444,
      "ard": 445,
      "ill": 446,
      "Ġout": 447,
      "Ġsp": 448,
      "way": 449,
      "Ġthem": 450,
      "fu": 451,
      "Ġat": 452,
      "Ġcould": 453,
      "ind": 454,
      "ur": 455,
      "Ġare": 456,
      "hen": 457,
      "ĠA": 458,
      "Ġdid": 459,
      "Ġtheir": 460,
      "Ġsmil": 461,
      "ain": 462,
      "Ġex": 463,
      "hed": 464,
      "art": 465,
      "Ġhave": 466,
      "Ġwent": 467,
      "Ġar": 468,
      "rom": 469,
      "ic": 470,
      "ĠJ": 471,
      "hing": 472,
      "ful": 473,
      "Ġall": 474,
      "lp": 475,
      "Ġnam": 476,
      "Ġfriends": 477,
      "ight": 478,
      "Ġkn": 479,
      "Ġcan": 480,
      "ood": 481,
      "Ġhelp": 482,
      "um": 483,
      "one": 484,
      "ark": 485,
      "Ġback": 486,
      "ĠBen": 487,
      "?\"": 488,
      "Ġcl": 489,
      "Ġfun": 490,
      "are": 491,
      "Ġle": 492,
      "Ġno": 493,
      "Ġnamed": 494,
      "Ġsay": 495,
      "ĠTom": 496,
      "Ġsc": 497,
      "oug": 498,
      "Ġloved": 499,
      "op": 500,
      "Ġal": 501,
      "You": 502,
      "elt": 503,
      "side": 504,
      "ĠOne": 505,
      "Ġsmiled": 506,
      "ick": 507,
      "Ġfelt": 508,
      "Ġman": 509,
      "Ġaround": 510,
      "Ġasked": 511,
      "Ġfe": 512,
      "Ġtoy": 513,
      "ĠTimmy": 514,
      "ame": 515,
      "Ġlooked": 516,
      "omet": 517,
      "Ġlike": 518,
      "Ġsome": 519,
      "Ġsee": 520,
      "ure": 521,
      "Ġro": 522,
      "Ġwould": 523,
      "Ġboy": 524,
      "Ġbr": 525,
      "get": 526,
      "Ġbir": 527,
      "ĠW": 528,
      "Ġme": 529,
      "Ġstart": 530,
      "ong": 531,
      "ice": 532,
      "Ġsomet": 533,
      "ss": 534,
      "Ġbird": 535,
      "ade": 536,
      "Ġfa": 537,
      "Ġwor": 538,
      "Ġag": 539,
      "ings": 540,
      "dd": 541,
      "king": 542,
      "Ġwhat": 543,
      "Ġtre": 544,
      "Ã¢": 545,
      "âĤ": 546,
      "âĤ¬": 547,
      "gether": 548,
      "Ġaway": 549,
      "own": 550,
      "Ġmake": 551,
      "Ġstarted": 552,
      "ĠBut": 553,
      "ie": 554,
      "Ġran": 555,
      "ag": 556,
      "ared": 557,
      "oud": 558,
      "Ġmade": 559,
      "Ġsomething": 560,
      "ited": 561,
      "if": 562,
      "Ġtogether": 563,
      ",\"": 564,
      "Ġco": 565,
      "Ġpark": 566,
      "ther": 567,
      "Ġexc": 568,
      "Ġcar": 569,
      "ĠYou": 570,
      "Ġsad": 571,
      "Ġother": 572,
      "Ġfrom": 573,
      "Ġput": 574,
      "Ġnew": 575,
      "ble": 576,
      "Ġpr": 577,
      "Ġsays": 578,
      "Ġla": 579,
      "Ġhome": 580,
      "Ġagain": 581,
      "Ġmu": 582,
      "Ġwhen": 583,
      "Ġhug": 584,
      "ell": 585,
      "Ġthen": 586,
      "Ġdec": 587,
      "Ġwho": 588,
      "est": 589,
      "ep": 590,
      "ĠL": 591,
      "Ġfound": 592,
      "ach": 593,
      "ried": 594,
      "pped": 595,
      "Ġch": 596,
      "Ġgood": 597,
      "ook": 598,
      "Ġfl": 599,
      "ĠE": 600,
      "as": 601,
      "Ġwal": 602,
      "qu": 603,
      "Ġget": 604,
      "ought": 605,
      "ally": 606,
      "Ġplaying": 607,
      "pl": 608,
      "Ġexcited": 609,
      "Ġsw": 610,
      "Ġthings": 611,
      "hat": 612,
      "Ġgot": 613,
      "ous": 614,
      "ided": 615,
      "Ġdecided": 616,
      "uck": 617,
      "Ġevery": 618,
      "Ġliked": 619,
      "ro": 620,
      "ave": 621,
      "Ġcame": 622,
      "ny": 623,
      "Ġbl": 624,
      "ax": 625,
      "Ġone": 626,
      "Ġdown": 627,
      "Ġbec": 628,
      "Ġscared": 629,
      "ouse": 630,
      "ust": 631,
      "Ġv": 632,
      "Ġfind": 633,
      "Ġthan": 634,
      "na": 635,
      "Ġcare": 636,
      "Ġfeel": 637,
      "Ġyour": 638,
      "ĠD": 639,
      "ara": 640,
      "udd": 641,
      "ist": 642,
      "Ġdog": 643,
      "Ġab": 644,
      "Ġdad": 645,
      "ways": 646,
      "Ġke": 647,
      "ĠMom": 648,
      "Ġdidn": 649,
      "Ġalways": 650,
      "ue": 651,
      "Ġgra": 652,
      "ap": 653,
      "Ġgr": 654,
      "arn": 655,
      "fe": 656,
      "us": 657,
      "Ġmommy": 658,
      "Ġtook": 659,
      "our": 660,
      "ĠF": 661,
      "Ġlot": 662,
      "ess": 663,
      "Ġkne": 664,
      "ant": 665,
      "ers": 666,
      "Ġabout": 667,
      "eci": 668,
      "nder": 669,
      "Ġpo": 670,
      "They": 671,
      "Ġmy": 672,
      "Ġlook": 673,
      "Ġoutside": 674,
      "bb": 675,
      "Ġtree": 676,
      "nna": 677,
      "ched": 678,
      "Ġwill": 679,
      "Ġthought": 680,
      "ise": 681,
      "ened": 682,
      "Ġball": 683,
      "Ġtoys": 684,
      "ite": 685,
      "ĠSam": 686,
      "Ġint": 687,
      "ecial": 688,
      "Ġspecial": 689,
      "Ġold": 690,
      "Ġta": 691,
      "Ġmore": 692,
      "Ġlearn": 693,
      "Ġknow": 694,
      "ret": 695,
      "Ġho": 696,
      "Ġknew": 697,
      "Ġtake": 698,
      "ged": 699,
      "Ġlaug": 700,
      "udden": 701,
      "Ġpe": 702,
      "fter": 703,
      "ĠMax": 704,
      "Ġcat": 705,
      "ive": 706,
      "Ġany": 707,
      "uddenly": 708,
      "Ġhow": 709,
      "Ġtr": 710,
      "ma": 711,
      "au": 712,
      "Ġsor": 713,
      "Ġmuch": 714,
      "Ġshow": 715,
      "ia": 716,
      "Ġtw": 717,
      "ish": 718,
      "ven": 719,
      "Ġsl": 720,
      "Ġhouse": 721,
      "But": 722,
      "and": 723,
      "ink": 724,
      "Ġsk": 725,
      "Ġrun": 726,
      "Ġmo": 727,
      "Ġop": 728,
      "Ġinto": 729,
      "Ġsun": 730,
      "ĠEvery": 731,
      "Ġclo": 732,
      "Ġtried": 733,
      "Ġhand": 734,
      "Ġinside": 735,
      "Ġcouldn": 736,
      "Ġtold": 737,
      "Ġproud": 738,
      "Ġen": 739,
      "Ġqu": 740,
      "Ġnever": 741,
      "Ġsorry": 742,
      "Ġgave": 743,
      "Ġwater": 744,
      "Ġor": 745,
      "Ġover": 746,
      "ump": 747,
      "ate": 748,
      "ause": 749,
      "Ġif": 750,
      "ace": 751,
      "by": 752,
      "Ġexpl": 753,
      "Ġheard": 754,
      "ank": 755,
      "Ġeat": 756,
      "ty": 757,
      "other": 758,
      "ion": 759,
      "ge": 760,
      "Ġplayed": 761,
      "dy": 762,
      "Ġroom": 763,
      "Ġthis": 764,
      "etter": 765,
      "Ġpick": 766,
      "Ġeach": 767,
      "Ġstr": 768,
      "Ġgre": 769,
      "here": 770,
      "Ġbecause": 771,
      "ĠSara": 772,
      "Ġpret": 773,
      "Ġjust": 774,
      "Tom": 775,
      "Ġwat": 776,
      "ĠWe": 777,
      "Ġcom": 778,
      "oth": 779,
      "Ġhugged": 780,
      "Ġoff": 781,
      "ak": 782,
      "Ġbox": 783,
      "ile": 784,
      "Ġneed": 785,
      "iz": 786,
      "Ġnice": 787,
      "Ġsmall": 788,
      "Ġlong": 789,
      "Ġjo": 790,
      "Ġbu": 791,
      "ĠAnna": 792,
      "Mom": 793,
      "Ġunt": 794,
      "ough": 795,
      "Ġmany": 796,
      "ort": 797,
      "ving": 798,
      "uc": 799,
      "Ġfo": 800,
      "Ġbear": 801,
      "Ġuntil": 802,
      "ĠJack": 803,
      "sel": 804,
      "ine": 805,
      "imal": 806,
      "Ġanimal": 807,
      "Ġtry": 808,
      "ild": 809,
      "'m": 810,
      "sed": 811,
      "Ġlearned": 812,
      "gry": 813,
      "Ġend": 814,
      "Ġbetter": 815,
      "Ġim": 816,
      "em": 817,
      "Ġcall": 818,
      "urt": 819,
      "Ġkind": 820,
      "Ġad": 821,
      "ft": 822,
      "vent": 823,
      "aut": 824,
      "ĠJo": 825,
      "Ġflow": 826,
      "He": 827,
      "Ġdre": 828,
      "ĠSo": 829,
      "Ġlove": 830,
      "urn": 831,
      "ull": 832,
      "Ġcle": 833,
      "ars": 834,
      "Ġbest": 835,
      "pt": 836,
      "ber": 837,
      "ady": 838,
      "Ġthanked": 839,
      "Ġeven": 840,
      "urp": 841,
      "Ġbeaut": 842,
      "Ġsky": 843,
      "Ġbra": 844,
      "arden": 845,
      "Ġgarden": 846,
      "Ġsn": 847,
      "lly": 848,
      "ĠAnd": 849,
      "Ġfast": 850,
      "ves": 851,
      "ĠHer": 852,
      "Ġcareful": 853,
      "Ġlaughed": 854,
      "Ġlots": 855,
      "self": 856,
      "Ġby": 857,
      "Ġfi": 858,
      "Ġche": 859,
      "lew": 860,
      "ĠMia": 861,
      "Ġjump": 862,
      "Ġdon": 863,
      "iny": 864,
      "Ġfam": 865,
      "Yes": 866,
      "Ġloud": 867,
      "Ġbeauti": 868,
      "Ġway": 869,
      "Ġbeautiful": 870,
      "wn": 871,
      "Ġte": 872,
      "Ġgl": 873,
      "ies": 874,
      "ĠC": 875,
      "Ġstill": 876,
      "Th": 877,
      "Ġra": 878,
      "ĠThen": 879,
      "Ġcome": 880,
      "Ġhard": 881,
      "Åĵ": 882,
      "Ġwo": 883,
      "ĠFrom": 884,
      "hn": 885,
      "ase": 886,
      "Ġlist": 887,
      "Ġstay": 888,
      "Ġanimals": 889,
      "ĠHis": 890,
      "ect": 891,
      "It": 892,
      "ning": 893,
      "Ġhurt": 894,
      "Ġsafe": 895,
      "Ġunder": 896,
      "ast": 897,
      "Ġrem": 898,
      "Ġcol": 899,
      "ct": 900,
      "hes": 901,
      "Ġboth": 902,
      "Ġlived": 903,
      "Ġtwo": 904,
      "Ġcu": 905,
      "ool": 906,
      "ople": 907,
      "ree": 908,
      "ane": 909,
      "Ġfamily": 910,
      "Ġbrave": 911,
      "Ġimp": 912,
      "ĠÃ¢": 913,
      "Ġits": 914,
      "Ġlet": 915,
      "Ġfin": 916,
      "When": 917,
      "Ġflew": 918,
      "Ġbad": 919,
      "ished": 920,
      "ob": 921,
      "Ġkept": 922,
      "urpr": 923,
      "ucy": 924,
      "Tim": 925,
      "Ġpeople": 926,
      "Ġwalked": 927,
      "igh": 928,
      "Ġstor": 929,
      "Ġsurpr": 930,
      "Ġcalled": 931,
      "Ġbook": 932,
      "ĠWhen": 933,
      "fore": 934,
      "be": 935,
      "Ġsoon": 936,
      "led": 937,
      "Ġred": 938,
      "kay": 939,
      "Ġfore": 940,
      "Ġdan": 941,
      "Ġfly": 942,
      "xt": 943,
      "Ġshould": 944,
      "ock": 945,
      "ised": 946,
      "Ġrock": 947,
      "Ġpic": 948,
      "Ġangry": 949,
      "Ġgoing": 950,
      "Ġshare": 951,
      "Ġclean": 952,
      "ĠP": 953,
      "Ġadvent": 954,
      "ummy": 955,
      "Ġopened": 956,
      "Ġexplore": 957,
      "Ġkeep": 958,
      "No": 959,
      "ip": 960,
      "Let": 961,
      "Ġnow": 962,
      "illy": 963,
      "Ġbefore": 964,
      "Ġpretty": 965,
      "âĤ¬â": 966,
      "Ġcon": 967,
      "Ġdoor": 968,
      "Ġcre": 969,
      "Ġwind": 970,
      "Ġdoll": 971,
      "ary": 972,
      "Ġsto": 973,
      "Ġshiny": 974,
      "Ġground": 975,
      "Ġreal": 976,
      "age": 977,
      "Ġdra": 978,
      "Ġnoise": 979,
      "Ġide": 980,
      "dded": 981,
      "Ġfar": 982,
      "Ġfr": 983,
      "ied": 984,
      "Ġturn": 985,
      "Ġfeeling": 986,
      "Ġcry": 987,
      "Ġey": 988,
      "oon": 989,
      "Ġwar": 990,
      "oy": 991,
      "Ġidea": 992,
      "Ġcolor": 993,
      "thing": 994,
      "les": 995,
      "Ġun": 996,
      "Ġnext": 997,
      "Ġpicked": 998,
      "Ġwalking": 999,
      "th": 1000,
      "so": 1001,
      "Ġwhile": 1002,
      "Ħ¢": 1003,
      "âĤ¬âĦ¢": 1004,
      "imb": 1005,
      "Ben": 1006,
      "ĠLucy": 1007,
      "Ġthr": 1008,
      "Ġsmile": 1009,
      "Ġma": 1010,
      "Ġadventure": 1011,
      "Ġclimb": 1012,
      "Ġalso": 1013,
      "iced": 1014,
      "Ġbed": 1015,
      "uch": 1016,
      "ture": 1017,
      "What": 1018,
      "ger": 1019,
      "ious": 1020,
      "That": 1021,
      "eet": 1022,
      "joy": 1023,
      "ff": 1024,
      "Ġbeing": 1025,
      "ted": 1026,
      "Ġwr": 1027,
      "ac": 1028,
      "Ġclos": 1029,
      "Ġnodded": 1030,
      "Ġlooking": 1031,
      "Ġstopped": 1032,
      "Ġdel": 1033,
      "Ġhas": 1034,
      "kes": 1035,
      "Ġdif": 1036,
      "Ġpicture": 1037,
      "Ġgive": 1038,
      "ember": 1039,
      "ting": 1040,
      "Ġfood": 1041,
      "ĠDad": 1042,
      "Ġtruck": 1043,
      "ĠSuddenly": 1044,
      "Ġwait": 1045,
      "ĠG": 1046,
      "Ġeyes": 1047,
      "ught": 1048,
      "Ġever": 1049,
      "Ġenjoy": 1050,
      "Ġnoticed": 1051,
      "Ġown": 1052,
      "Ġquick": 1053,
      "Ġafter": 1054,
      "Ġgreat": 1055,
      "able": 1056,
      "maz": 1057,
      "Thank": 1058,
      "Ġamaz": 1059,
      "aybe": 1060,
      "ized": 1061,
      "Ġbre": 1062,
      "Ġremember": 1063,
      "Ġwalk": 1064,
      "Suddenly": 1065,
      "Ġthink": 1066,
      "Ġtow": 1067,
      "Ġrain": 1068,
      "Ġlisten": 1069,
      "Ġrepl": 1070,
      "Ġdis": 1071,
      "Ġeveryone": 1072,
      "Ġblue": 1073,
      "Ġforest": 1074,
      "Ġvo": 1075,
      "Ġbro": 1076,
      "Ġfish": 1077,
      "Ġapp": 1078,
      "irst": 1079,
      "ĠSp": 1080,
      "Ġimport": 1081,
      "Ġhands": 1082,
      "bbit": 1083,
      "Ġflowers": 1084,
      "Ġshowed": 1085,
      "gan": 1086,
      "Ġnear": 1087,
      "She": 1088,
      "Ġstrong": 1089,
      "Ġac": 1090,
      "Ġwork": 1091,
      "Ġde": 1092,
      "Ġwonder": 1093,
      "Ġslide": 1094,
      "Ġbright": 1095,
      "Ġimportant": 1096,
      "bbed": 1097,
      "bye": 1098,
      "Ġwatch": 1099,
      "llow": 1100,
      "Ġquickly": 1101,
      "Ġshout": 1102,
      "Ġrabbit": 1103,
      "Ġhead": 1104,
      "Ġwatched": 1105,
      "Ġright": 1106,
      "Ġstore": 1107,
      "Ġsound": 1108,
      "Ġreplied": 1109,
      "Ġtal": 1110,
      "fere": 1111,
      "day": 1112,
      "Ġus": 1113,
      "Ġmean": 1114,
      "Ġdiffere": 1115,
      "Ġsqu": 1116,
      "Ġsure": 1117,
      "Ġye": 1118,
      "ered": 1119,
      "So": 1120,
      "Ġplace": 1121,
      "Ġuse": 1122,
      "Ġboat": 1123,
      "Ġwhere": 1124,
      "Ġmor": 1125,
      "ange": 1126,
      "Ġbeen": 1127,
      "Ġfollow": 1128,
      "ath": 1129,
      "Ġdress": 1130,
      "Ġstick": 1131,
      "ĠBob": 1132,
      "Ġokay": 1133,
      "Ġbecame": 1134,
      "Ġtra": 1135,
      "Ġgoodbye": 1136,
      "Ġchild": 1137,
      "lease": 1138,
      "ng": 1139,
      "Ġask": 1140,
      "ĠN": 1141,
      "Ġyell": 1142,
      "Ġcloser": 1143,
      "Ġface": 1144,
      "Ġmag": 1145,
      "Ġhigh": 1146,
      "Ġdifferent": 1147,
      "Ġwarm": 1148,
      "We": 1149,
      "Ġcuri": 1150,
      "Ġvoice": 1151,
      "co": 1152,
      "aught": 1153,
      "Ġcr": 1154,
      "ached": 1155,
      "Ġnight": 1156,
      "Ġforg": 1157,
      "ĠR": 1158,
      "Ġhop": 1159,
      "Ġbel": 1160,
      "Ġour": 1161,
      "ĠSpot": 1162,
      "ired": 1163,
      "leep": 1164,
      "ĠMommy": 1165,
      "Jo": 1166,
      "ĠSue": 1167,
      "Ġtell": 1168,
      "ount": 1169,
      "Ġcurious": 1170,
      "Ġpa": 1171,
      "more": 1172,
      "Ġanymore": 1173,
      "Ġcook": 1174,
      "Ġdoes": 1175,
      "Ġpu": 1176,
      "Ġcake": 1177,
      "Ġthree": 1178,
      "ndma": 1179,
      "Look": 1180,
      "Ġfav": 1181,
      "Ġopen": 1182,
      "itc": 1183,
      "Ġgrabbed": 1184,
      "ĠJohn": 1185,
      "Anna": 1186,
      "Ġfirst": 1187,
      "Sara": 1188,
      "Ġbutter": 1189,
      "Ġcont": 1190,
      "Her": 1191,
      "Ġz": 1192,
      "Ġam": 1193,
      "Ġpain": 1194,
      "imes": 1195,
      "Ġper": 1196,
      "Ġbit": 1197,
      "Ġlea": 1198,
      "Ġhelped": 1199,
      "Ġpull": 1200,
      "orn": 1201,
      "Ġba": 1202,
      "Ġbus": 1203,
      "Ġbirds": 1204,
      "ĠTh": 1205,
      "ĠEveryone": 1206,
      "Ġsweet": 1207,
      "unny": 1208,
      "Ġkid": 1209,
      "Ġfell": 1210,
      "Ġjumped": 1211,
      "After": 1212,
      "Ġhappened": 1213,
      "ila": 1214,
      "Ġonly": 1215,
      "Ġgrass": 1216,
      "isy": 1217,
      "iss": 1218,
      "ĠJane": 1219,
      "Ġmon": 1220,
      "ppy": 1221,
      "Ġbrother": 1222,
      "Ġhere": 1223,
      "itchen": 1224,
      "Ġreached": 1225,
      "Ġkitchen": 1226,
      "Ġsand": 1227,
      "Ġsing": 1228,
      "Ġglad": 1229,
      "Ġflo": 1230,
      "Ġrealized": 1231,
      "Can": 1232,
      "Ġblock": 1233,
      "Ġstory": 1234,
      "nts": 1235,
      "Ġfire": 1236,
      "ĠAs": 1237,
      "Ġru": 1238,
      "Ġdr": 1239,
      "Ġstop": 1240,
      "Ġthrough": 1241,
      "Ġrest": 1242,
      "Ġhaving": 1243,
      "ĠSarah": 1244,
      "Ġate": 1245,
      "Ġyummy": 1246,
      "Ġbeh": 1247,
      "zy": 1248,
      "Ġbegan": 1249,
      "Ġmum": 1250,
      "Ġready": 1251,
      "Ġsees": 1252,
      "where": 1253,
      "Ġreally": 1254,
      "ater": 1255,
      "Ġgame": 1256,
      "Ġtri": 1257,
      "Ġpare": 1258,
      "Ġhimself": 1259,
      "Ġprin": 1260,
      "Ġmess": 1261,
      "Ġsoft": 1262,
      "Ġdraw": 1263,
      "fully": 1264,
      "Ġless": 1265,
      "Ġworld": 1266,
      "Ġshouted": 1267,
      "ather": 1268,
      "Ġtired": 1269,
      "Ġmagic": 1270,
      "Ġunderst": 1271,
      "Ġlady": 1272,
      "olly": 1273,
      "Ġdone": 1274,
      "Ġfavor": 1275,
      "ins": 1276,
      "ĠLet": 1277,
      "Ġthing": 1278,
      "ster": 1279,
      "Ġfavorite": 1280,
      "Ġfill": 1281,
      "Ġmaking": 1282,
      "Ġseen": 1283,
      "Ġwaved": 1284,
      "uff": 1285,
      "Ġused": 1286,
      "Ġfix": 1287,
      "'re": 1288,
      "sh": 1289,
      "Ġhat": 1290,
      "Ġcoming": 1291,
      "ken": 1292,
      "Ġcut": 1293,
      "Ġste": 1294,
      "Ġbutterf": 1295,
      "Ġpond": 1296,
      "Ġtast": 1297,
      "Ġkids": 1298,
      "ĠJoe": 1299,
      "Ġbunny": 1300,
      "Ġdelic": 1301,
      "Ġworry": 1302,
      "Mommy": 1303,
      "Ġtop": 1304,
      "Ġparents": 1305,
      "Ġpart": 1306,
      "Ġduck": 1307,
      "Ġfunny": 1308,
      "Ġwhy": 1309,
      "Ġflower": 1310,
      "Ġpap": 1311,
      "bo": 1312,
      "Ġcatch": 1313,
      "ient": 1314,
      "Ġprom": 1315,
      "Ġmouse": 1316,
      "Ġname": 1317,
      "ĠDo": 1318,
      "ign": 1319,
      "John": 1320,
      "Ġpretend": 1321,
      "Ġswim": 1322,
      "mer": 1323,
      "iver": 1324,
      "air": 1325,
      "akes": 1326,
      "Ġanother": 1327,
      "rel": 1328,
      "ĠThat": 1329,
      "Ġfull": 1330,
      "Ġtouch": 1331,
      "ation": 1332,
      "As": 1333,
      "Ġpus": 1334,
      "Wow": 1335,
      "Ġcool": 1336,
      "Ġworked": 1337,
      "Timmy": 1338,
      "Ġlight": 1339,
      "aisy": 1340,
      "Ġsurprise": 1341,
      "Ġfro": 1342,
      "oney": 1343,
      "Ġlooks": 1344,
      "eddy": 1345,
      "Ġcars": 1346,
      "ĠCan": 1347,
      "Ġcried": 1348,
      "Ġgi": 1349,
      "Ġcra": 1350,
      "Ġhair": 1351,
      "Ġhopped": 1352,
      "Ġtrees": 1353,
      "Ġdro": 1354,
      "ards": 1355,
      "Ġgreen": 1356,
      "Ġspot": 1357,
      "Ġsmell": 1358,
      "Ġremembered": 1359,
      "Don": 1360,
      "Ġyears": 1361,
      "Ġdin": 1362,
      "Ġbag": 1363,
      "Ġlesson": 1364,
      "Ġrunning": 1365,
      "Ġsho": 1366,
      "Ġthank": 1367,
      "Ġ-": 1368,
      "Ġset": 1369,
      "ued": 1370,
      "ely": 1371,
      "andy": 1372,
      "hy": 1373,
      "Ġslow": 1374,
      "Ġread": 1375,
      "Ġwood": 1376,
      "Ġbehind": 1377,
      "Ġdark": 1378,
      "Ġsleep": 1379,
      "Ġhappily": 1380,
      "ssed": 1381,
      "Ġdri": 1382,
      "Ġneeded": 1383,
      "Ġwindow": 1384,
      "Ġsat": 1385,
      "Ġperf": 1386,
      "Ġcarefully": 1387,
      "Ġhold": 1388,
      "Ġfloor": 1389,
      "\".": 1390,
      "Ġyellow": 1391,
      "ĠIn": 1392,
      "Ġbow": 1393,
      "Ġcla": 1394,
      "Sam": 1395,
      "ul": 1396,
      "ren": 1397,
      "Ġfinished": 1398,
      "Ġdoing": 1399,
      "Ġwished": 1400,
      "Ġsurprised": 1401,
      "Ġcold": 1402,
      "Ġtall": 1403,
      "Ġhole": 1404,
      "aring": 1405,
      "Ġpaper": 1406,
      "ike": 1407,
      "Ġmove": 1408,
      "Ġenjoyed": 1409,
      "Ġbuy": 1410,
      "Ġheld": 1411,
      "Ġbutterfly": 1412,
      "Ġair": 1413,
      "inally": 1414,
      "Ġlost": 1415,
      "ĠAfter": 1416,
      "Ġblocks": 1417,
      "Ġlaugh": 1418,
      "uit": 1419,
      "Ġanything": 1420,
      "Ġdream": 1421,
      "Ġleft": 1422,
      "Ġice": 1423,
      "Ġarri": 1424,
      "Ġswing": 1425,
      "Ġdelicious": 1426,
      "Ġrel": 1427,
      "Ġlikes": 1428,
      "ens": 1429,
      "Ġherself": 1430,
      "Ġlion": 1431,
      "Ġfair": 1432,
      "Ġfrog": 1433,
      "ined": 1434,
      "Ġwrong": 1435,
      "Ġfollowed": 1436,
      "Ġhill": 1437,
      "Ġpre": 1438,
      "Ġchildren": 1439,
      "Ġcontin": 1440,
      "Ġhun": 1441,
      "ield": 1442,
      "Ġclose": 1443,
      "reed": 1444,
      "ream": 1445,
      "Ġfriendly": 1446,
      "Ġhid": 1447,
      "cess": 1448,
      "Ġforgot": 1449,
      "Ġhot": 1450,
      "Ġcast": 1451,
      "Ġable": 1452,
      "Ġhear": 1453,
      "Ġarrived": 1454,
      "lf": 1455,
      "Ġdir": 1456,
      "ĠSally": 1457,
      "Ġbuild": 1458,
      "Ġwonderful": 1459,
      "Ġbaby": 1460,
      "Ġfilled": 1461,
      "Ġarm": 1462,
      "Ġtight": 1463,
      "ĠBenny": 1464,
      "Ġunderstand": 1465,
      "Ġmight": 1466,
      "Ġgone": 1467,
      "asure": 1468,
      "Ġtable": 1469,
      "Ġbug": 1470,
      "Ġsnow": 1471,
      "Hell": 1472,
      "Hello": 1473,
      "Ġel": 1474,
      "Ġcreat": 1475,
      "Then": 1476,
      "Ġbooks": 1477,
      "Ġmat": 1478,
      "ds": 1479,
      "Ġelse": 1480,
      "ner": 1481,
      "Ġgent": 1482,
      "ich": 1483,
      "Ġcolors": 1484,
      "Ġcontinued": 1485,
      "Ġyes": 1486,
      "ĠEm": 1487,
      "ĠDaisy": 1488,
      "Jack": 1489,
      "irrel": 1490,
      "ey": 1491,
      "ĠNow": 1492,
      "Ġsong": 1493,
      "ross": 1494,
      "Ġstayed": 1495,
      "Ġplease": 1496,
      "Ġbroken": 1497,
      "Ġsomeone": 1498,
      "Ġleaves": 1499,
      "ĠThere": 1500,
      "av": 1501,
      "Ġwall": 1502,
      "Ġpat": 1503,
      "Ġfinally": 1504,
      "Ġenough": 1505,
      "From": 1506,
      "room": 1507,
      "Ġmorning": 1508,
      "Ġsquirrel": 1509,
      "Ġgetting": 1510,
      "Ġamazing": 1511,
      "Ġagreed": 1512,
      "Ġcount": 1513,
      "Ġvis": 1514,
      "sp": 1515,
      "Ġscary": 1516,
      "ask": 1517,
      "ash": 1518,
      "Ġbreak": 1519,
      "gon": 1520,
      "Ġpink": 1521,
      "Ġcomp": 1522,
      "Ġpoin": 1523,
      "Ġperfect": 1524,
      "'ll": 1525,
      "Ġwants": 1526,
      "Ġmoment": 1527,
      "At": 1528,
      "icy": 1529,
      "Ġcastle": 1530,
      "Ġgrandma": 1531,
      "Ġpi": 1532,
      "Ġtrying": 1533,
      "Ġfew": 1534,
      "Ġju": 1535,
      "ĠBilly": 1536,
      "row": 1537,
      "ĠLila": 1538,
      "oom": 1539,
      "Ġmar": 1540,
      "ance": 1541,
      "Ġmother": 1542,
      "Ġothers": 1543,
      "Ġturned": 1544,
      "ama": 1545,
      "Ġpuppy": 1546,
      "ries": 1547,
      "Ġdinner": 1548,
      "rot": 1549,
      "Ġhungry": 1550,
      "oup": 1551,
      "ced": 1552,
      "Ġbeach": 1553,
      "OK": 1554,
      "Ġfight": 1555,
      "Ġwasn": 1556,
      "Ġwet": 1557,
      "Ġdaddy": 1558,
      "ĠK": 1559,
      "Ġmus": 1560,
      "Ġsometimes": 1561,
      "Ġjoy": 1562,
      "Ġcream": 1563,
      "Ġmet": 1564,
      "Ġstrange": 1565,
      "Ġsail": 1566,
      "Ġclimbed": 1567,
      "ĠThis": 1568,
      "Ġroll": 1569,
      "oring": 1570,
      "ons": 1571,
      "ence": 1572,
      "Ġpictures": 1573,
      "Ġbrought": 1574,
      "red": 1575,
      "Ġfur": 1576,
      "Ġwhite": 1577,
      "Ġfall": 1578,
      "Ġlistened": 1579,
      "uffy": 1580,
      "man": 1581,
      "ee": 1582,
      "wl": 1583,
      "Ġspl": 1584,
      "Ġcookies": 1585,
      "Ġspark": 1586,
      "Ġballoon": 1587,
      "Ġclot": 1588,
      "ĠTommy": 1589,
      "Ġsear": 1590,
      "ated": 1591,
      "Ġclothes": 1592,
      "His": 1593,
      "ucky": 1594,
      "Ġeverything": 1595,
      "der": 1596,
      "ever": 1597,
      "ĠTo": 1598,
      "amp": 1599,
      "This": 1600,
      "Ġtalk": 1601,
      "ĠWhat": 1602,
      "Ġamazed": 1603,
      "Ġsmiles": 1604,
      "Ġwoods": 1605,
      "ĠMaybe": 1606,
      "Ġdeep": 1607,
      "Ġride": 1608,
      "Ġtail": 1609,
      "ĠJen": 1610,
      "Ġpol": 1611,
      "Ġthre": 1612,
      "pping": 1613,
      "Ġmakes": 1614,
      "Ġwaited": 1615,
      "Ġalone": 1616,
      "ĠGra": 1617,
      "ister": 1618,
      "eter": 1619,
      "ower": 1620,
      "os": 1621,
      "Ġsit": 1622,
      "key": 1623,
      "Ġgrow": 1624,
      "Ġpie": 1625,
      "Ġpet": 1626,
      "Ġvisit": 1627,
      "elc": 1628,
      "ctor": 1629,
      "med": 1630,
      "Ġlake": 1631,
      "Ġwon": 1632,
      "Ġdanger": 1633,
      "Ġmusic": 1634,
      "ott": 1635,
      "me": 1636,
      "Ġplan": 1637,
      "Ġtreat": 1638,
      "Ġleave": 1639,
      "zz": 1640,
      "Ġpulled": 1641,
      "Ġside": 1642,
      "Oh": 1643,
      "ope": 1644,
      "Ġsilly": 1645,
      "Ġcloud": 1646,
      "Ġland": 1647,
      "Ġfox": 1648,
      "Ġflying": 1649,
      "Ġfield": 1650,
      "ugg": 1651,
      "Ġhide": 1652,
      "Ġtowards": 1653,
      "thy": 1654,
      "ang": 1655,
      "Ġpromised": 1656,
      "Ġbelie": 1657,
      "Ġteddy": 1658,
      "Max": 1659,
      "ames": 1660,
      "ĠAmy": 1661,
      "cket": 1662,
      "Ġshared": 1663,
      "Ġsec": 1664,
      "ained": 1665,
      "Ġbigger": 1666,
      "ix": 1667,
      "orm": 1668,
      "Ġasks": 1669,
      "eces": 1670,
      "igg": 1671,
      "Ġowner": 1672,
      "Ġpieces": 1673,
      "gs": 1674,
      "ually": 1675,
      "Ġbran": 1676,
      "Ġslowly": 1677,
      "Ġworried": 1678,
      "Ġmoney": 1679,
      "ĠAll": 1680,
      "Ġcup": 1681,
      "Ġblank": 1682,
      "Ġgu": 1683,
      "iet": 1684,
      "Ġsuch": 1685,
      "Ġmoral": 1686,
      "Ġem": 1687,
      "Ġsister": 1688,
      "Ġtreasure": 1689,
      "ling": 1690,
      "Ġparty": 1691,
      "Ġmagical": 1692,
      "Ġpen": 1693,
      "Ġrace": 1694,
      "Ġnap": 1695,
      "fort": 1696,
      "cle": 1697,
      "Ġshap": 1698,
      "Ġgrate": 1699,
      "Ġblanket": 1700,
      "ises": 1701,
      "avy": 1702,
      "ased": 1703,
      "Ġfaster": 1704,
      "Ġplant": 1705,
      "Ġve": 1706,
      "Ġcolorful": 1707,
      "ze": 1708,
      "ĠJim": 1709,
      "Ġdance": 1710,
      "Ġwear": 1711,
      "Ġreach": 1712,
      "Ġmust": 1713,
      "ire": 1714,
      "sw": 1715,
      "Ġgrateful": 1716,
      "Ġriver": 1717,
      "Ġquiet": 1718,
      "Ġansw": 1719,
      "Ġthinks": 1720,
      "Ġmost": 1721,
      "unch": 1722,
      "Ġgif": 1723,
      "Ġliving": 1724,
      "ol": 1725,
      "Ġjob": 1726,
      "Maybe": 1727,
      "Ġcho": 1728,
      "Ġeverywhere": 1729,
      "less": 1730,
      "Ġsnack": 1731,
      "Ġpaint": 1732,
      "app": 1733,
      "Ġbott": 1734,
      "Ġele": 1735,
      "Okay": 1736,
      "Ġpro": 1737,
      "Ġruns": 1738,
      "Ġcandy": 1739,
      "Ġpot": 1740,
      "ph": 1741,
      "up": 1742,
      "Ġmonster": 1743,
      "Ġwelc": 1744,
      "ĠFl": 1745,
      "Ġjoin": 1746,
      "Ġdragon": 1747,
      "Ġje": 1748,
      "set": 1749,
      "Ġhelping": 1750,
      "ming": 1751,
      "outh": 1752,
      "Ġbar": 1753,
      "Ġbike": 1754,
      "Ġacross": 1755,
      "Ġfarmer": 1756,
      "Ġdolls": 1757,
      "Ġstepped": 1758,
      "Ġatt": 1759,
      "Ġmouth": 1760,
      "Ġblack": 1761,
      "bble": 1762,
      "Ġcarrot": 1763,
      "Ġtrain": 1764,
      "ipped": 1765,
      "ĠMolly": 1766,
      "Ġbroke": 1767,
      "ĠJill": 1768,
      "ere": 1769,
      "Ġprincess": 1770,
      "Ġwouldn": 1771,
      "Ġhig": 1772,
      "Ġsame": 1773,
      "ident": 1774,
      "Ġsmart": 1775,
      "Ġdangerous": 1776,
      "Ġscream": 1777,
      "Ġwin": 1778,
      "Ġdisapp": 1779,
      "Ġheal": 1780,
      "Ġspr": 1781,
      "Ġacc": 1782,
      "eared": 1783,
      "Ġheavy": 1784,
      "Ġcrying": 1785,
      "ear": 1786,
      "Ġmix": 1787,
      "ored": 1788,
      "Ġsign": 1789,
      "Ġbee": 1790,
      "Sure": 1791,
      "Ġbowl": 1792,
      "Ġbelieve": 1793,
      "Ġclosed": 1794,
      "Ġwords": 1795,
      "Ġdoctor": 1796,
      "Ġdirty": 1797,
      "ĠDaddy": 1798,
      "Ġstre": 1799,
      "Ġteac": 1800,
      "Ġcoll": 1801,
      "iting": 1802,
      "Ġstuck": 1803,
      "Ġfruit": 1804,
      "Ġthrew": 1805,
      "Why": 1806,
      "Ġbutt": 1807,
      "Ġeating": 1808,
      "Ġbite": 1809,
      "chool": 1810,
      "Ġtown": 1811,
      "Ġmonkey": 1812,
      "Ġbath": 1813,
      "Ġbuck": 1814,
      "ĠMr": 1815,
      "Ġhigher": 1816,
      "Ġheart": 1817,
      "Ġcheered": 1818,
      "Ġtwins": 1819,
      "de": 1820,
      "br": 1821,
      "ord": 1822,
      "Ġneigh": 1823,
      "Ġschool": 1824,
      "Ġstand": 1825,
      "ventually": 1826,
      "Ġfairy": 1827,
      "Ġpers": 1828,
      "Ġclapped": 1829,
      "Ġneighb": 1830,
      "Ġpack": 1831,
      "umb": 1832,
      "Ġsuddenly": 1833,
      "cked": 1834,
      "Ġtower": 1835,
      "Hi": 1836,
      "asket": 1837,
      "Ġteacher": 1838,
      "Ġhit": 1839,
      "Ġlonger": 1840,
      "Ġpast": 1841,
      "Ġwithout": 1842,
      "Ġbasket": 1843,
      "Ġdry": 1844,
      "ract": 1845,
      "ier": 1846,
      "Ġaccident": 1847,
      "Ġmin": 1848,
      "Ġfree": 1849,
      "Ġcray": 1850,
      "Ġtoday": 1851,
      "Ġdrove": 1852,
      "Ġhoped": 1853,
      "Ġwings": 1854,
      "Mia": 1855,
      "Ġsmo": 1856,
      "Ġpushed": 1857,
      "Ġyard": 1858,
      "Ġgentle": 1859,
      "Finally": 1860,
      "Ġcour": 1861,
      "ney": 1862,
      "cy": 1863,
      "Ġfeels": 1864,
      "Ġpocket": 1865,
      "ass": 1866,
      "ors": 1867,
      "Ġhappen": 1868,
      "Ġjour": 1869,
      "Ġforget": 1870,
      "Ġfence": 1871,
      "Ġbrown": 1872,
      "Ġchair": 1873,
      "Ġlon": 1874,
      "orrow": 1875,
      "ead": 1876,
      "Ġgames": 1877,
      "Ġalong": 1878,
      "vel": 1879,
      "Ġswings": 1880,
      "Ġsea": 1881,
      "Ġcorn": 1882,
      "Ġcourse": 1883,
      "Ġsang": 1884,
      "Ġexplained": 1885,
      "ts": 1886,
      "Ġlonely": 1887,
      "Ġadventures": 1888,
      "Ġpiece": 1889,
      "Ġinst": 1890,
      "Ġsinging": 1891,
      "Ġsecret": 1892,
      "ment": 1893,
      "ountain": 1894,
      "Ġwelcome": 1895,
      "Ġupset": 1896,
      "Ġowl": 1897,
      "issed": 1898,
      "Ġswam": 1899,
      "Ġnoises": 1900,
      "Ġbring": 1901,
      "Ġmoved": 1902,
      "Ġapple": 1903,
      "Ġshoes": 1904,
      "Ġyoung": 1905,
      "Ġstories": 1906,
      "yard": 1907,
      "ward": 1908,
      "Ġtrou": 1909,
      "Ġplac": 1910,
      "Ġbackyard": 1911,
      "Ġstars": 1912,
      "Ġtaking": 1913,
      "ho": 1914,
      "Ġexploring": 1915,
      "ĠEmma": 1916,
      "ible": 1917,
      "Ġdist": 1918,
      "itting": 1919,
      "phant": 1920,
      "Ġturns": 1921,
      "Ġlate": 1922,
      "Ġthrow": 1923,
      "Ġrocks": 1924,
      "Ġdropped": 1925,
      "Ġseemed": 1926,
      "oun": 1927,
      "Ġtiny": 1928,
      "Ġexp": 1929,
      "Ġwhe": 1930,
      "ĠMary": 1931,
      "fused": 1932,
      "Ġlunch": 1933,
      "Ġelephant": 1934,
      "ches": 1935,
      "Ġbucket": 1936,
      "Ġneck": 1937,
      "Ġsoup": 1938,
      "Ġbelong": 1939,
      "Ġnaught": 1940,
      "bby": 1941,
      "Ġshop": 1942,
      "Ġjar": 1943,
      "Ġnaughty": 1944,
      "Ġshook": 1945,
      "bow": 1946,
      "Ġwise": 1947,
      "Ġcaught": 1948,
      "Ġca": 1949,
      "Ġrelie": 1950,
      "Ġmail": 1951,
      "Ġes": 1952,
      "ush": 1953,
      "Ġnearby": 1954,
      "ĠFluffy": 1955,
      "ek": 1956,
      "Ġhugs": 1957,
      "Ġthough": 1958,
      "Ġwoke": 1959,
      "Ġdes": 1960,
      "ocked": 1961,
      "Ġwish": 1962,
      "Ġwell": 1963,
      "Ġ3": 1964,
      "Ġdrink": 1965,
      "Ġstreet": 1966,
      "ape": 1967,
      "Ġorange": 1968,
      "Ġph": 1969,
      "Ġyear": 1970,
      "Ġben": 1971,
      "ions": 1972,
      "Ġbusy": 1973,
      "llo": 1974,
      "Ġpig": 1975,
      "ces": 1976,
      "Ġkey": 1977,
      "Ġsu": 1978,
      "adow": 1979,
      "Lila": 1980,
      "Ġmiss": 1981,
      "Ġinv": 1982,
      "Ġcou": 1983,
      "sy": 1984,
      "cing": 1985,
      "Ġrainbow": 1986,
      "Ġbat": 1987,
      "Ġpurp": 1988,
      "ung": 1989,
      "ining": 1990,
      "Ġstar": 1991,
      "Ġtom": 1992,
      "Ġjuice": 1993,
      "aughter": 1994,
      "col": 1995,
      "ity": 1996,
      "Ġhuge": 1997,
      "ĠGrandma": 1998,
      "Ġob": 1999,
      "Ġforever": 2000,
      "ĠInside": 2001,
      "Ġshapes": 2002,
      "Ġbranch": 2003,
      "to": 2004,
      "ours": 2005,
      "Ġfarm": 2006,
      "Ġcow": 2007,
      "Do": 2008,
      "Ġarms": 2009,
      "weet": 2010,
      "vered": 2011,
      "Ġaf": 2012,
      "idge": 2013,
      "ĠFinally": 2014,
      "Ġnest": 2015,
      "Ġstu": 2016,
      "cer": 2017,
      "And": 2018,
      "Ġmark": 2019,
      "Ġpurple": 2020,
      "Ġnose": 2021,
      "Ġsick": 2022,
      "Ġround": 2023,
      "shine": 2024,
      "Ġrelieved": 2025,
      "Ġpeace": 2026,
      "Ġcarry": 2027,
      "Ġwondered": 2028,
      "Ġfit": 2029,
      "Ġdaughter": 2030,
      "ittens": 2031,
      "Ġlife": 2032,
      "Ġwhist": 2033,
      "Ġswimming": 2034,
      "Ġresp": 2035,
      "Ġboun": 2036,
      "Ġgift": 2037,
      "Ġnothing": 2038,
      "ail": 2039,
      "Ġexciting": 2040,
      "Ġsitting": 2041,
      "Ġcir": 2042,
      "ĠThank": 2043,
      "pper": 2044,
      "Ġmine": 2045,
      "Ġsunshine": 2046,
      "Ġret": 2047,
      "raid": 2048,
      "Ġmad": 2049,
      "Ġafraid": 2050,
      "Ġpatient": 2051,
      "Ġkite": 2052,
      "Ġjourney": 2053,
      "Ġmil": 2054,
      "gg": 2055,
      "itch": 2056,
      "Ġletter": 2057,
      "fish": 2058,
      "Ġcreature": 2059,
      "ose": 2060,
      "sting": 2061,
      "Ġonto": 2062,
      "thday": 2063,
      "uched": 2064,
      "Ġtouched": 2065,
      "Ġdays": 2066,
      "Ġhello": 2067,
      "ese": 2068,
      "Ġreturn": 2069,
      "ĠO": 2070,
      "Ġdisco": 2071,
      "let": 2072,
      "ĠSoon": 2073,
      "Ġtakes": 2074,
      "Ġdriver": 2075,
      "Ġaccidentally": 2076,
      "Ġintere": 2077,
      "Ġking": 2078,
      "Ġlaughing": 2079,
      "Ġspoon": 2080,
      "Ġcute": 2081,
      "Ġfan": 2082,
      "Ġpower": 2083,
      "itten": 2084,
      "ĠSammy": 2085,
      "Ġholding": 2086,
      "Ġsounds": 2087,
      "Ġcomes": 2088,
      "Ġlift": 2089,
      "Ġcollect": 2090,
      "Ġcoat": 2091,
      "Ġcave": 2092,
      "Ġcomfort": 2093,
      "Ġgigg": 2094,
      "Ġband": 2095,
      "ness": 2096,
      "Later": 2097,
      "Ġshell": 2098,
      "Ġsunny": 2099,
      "ĠMama": 2100,
      "sc": 2101,
      "board": 2102,
      "Ġinstead": 2103,
      "Ġinc": 2104,
      "Ġcozy": 2105,
      "Ġwra": 2106,
      "irt": 2107,
      "Ġfing": 2108,
      "Ġact": 2109,
      "Ġear": 2110,
      "Ġbench": 2111,
      "Ġbirthday": 2112,
      "Ġce": 2113,
      "Ġhor": 2114,
      "Ġsearched": 2115,
      "Ġpointed": 2116,
      "Ġmist": 2117,
      "Ġgrab": 2118,
      "ped": 2119,
      "Ġlucky": 2120,
      "Ġsmiling": 2121,
      "Ġimag": 2122,
      "Ġpromise": 2123,
      "Ġgather": 2124,
      "og": 2125,
      "Ġbought": 2126,
      "Ġeas": 2127,
      "ten": 2128,
      "alm": 2129,
      "Ġwatching": 2130,
      "round": 2131,
      "Ġspo": 2132,
      "Ġmilk": 2133,
      "Ġsandw": 2134,
      "ize": 2135,
      "Ġpres": 2136,
      "Ġpudd": 2137,
      "Ġstorm": 2138,
      "Of": 2139,
      "Ġkick": 2140,
      "Ġanyone": 2141,
      "Ġwide": 2142,
      "Ġtasty": 2143,
      "ball": 2144,
      "oman": 2145,
      "Ġcheese": 2146,
      "Ġlater": 2147,
      "ove": 2148,
      "gged": 2149,
      "Ġspin": 2150,
      "blem": 2151,
      "unt": 2152,
      "Ġhope": 2153,
      "Ġwoman": 2154,
      "Hey": 2155,
      "Ġtalked": 2156,
      "Ġproblem": 2157,
      "eth": 2158,
      "Bob": 2159,
      "Ġent": 2160,
      "Ġroad": 2161,
      "arp": 2162,
      "Ġbread": 2163,
      "Tommy": 2164,
      "Ġhealthy": 2165,
      "Ġshining": 2166,
      "Ġsuc": 2167,
      "Ġadm": 2168,
      "Ġtrouble": 2169,
      "Ġbutton": 2170,
      "Ġzoom": 2171,
      "Ġsharp": 2172,
      "ub": 2173,
      "Ġperson": 2174,
      "Ġspid": 2175,
      "Ġbottle": 2176,
      "aur": 2177,
      "Ġinteresting": 2178,
      "Ġplane": 2179,
      "Ġrope": 2180,
      "Ġgives": 2181,
      "Ġbush": 2182,
      "els": 2183,
      "Ġlovely": 2184,
      "ĠTweet": 2185,
      "Ġsaf": 2186,
      "Ġclouds": 2187,
      "ĠCome": 2188,
      "Ġpresent": 2189,
      "owed": 2190,
      "Ġpract": 2191,
      "Ġhoney": 2192,
      "ĠJimmy": 2193,
      "Ġmatter": 2194,
      "Ġquest": 2195,
      "Ġsmelled": 2196,
      "Ġclever": 2197,
      "isa": 2198,
      "Ġwhole": 2199,
      "Ġmyster": 2200,
      "Ġvill": 2201,
      "ĠWith": 2202,
      "Ġwhich": 2203,
      "Ġap": 2204,
      "ont": 2205,
      "Ġducks": 2206,
      "Ġspotted": 2207,
      "Ġprot": 2208,
      "Ġrolled": 2209,
      "ndp": 2210,
      "Ġmeet": 2211,
      "Ġcheer": 2212,
      "Ġkiss": 2213,
      "epend": 2214,
      "Ġsur": 2215,
      "Ġapples": 2216,
      "Ġappeared": 2217,
      "Ġhon": 2218,
      "Ġtasted": 2219,
      "Ġpath": 2220,
      "Ġgiant": 2221,
      "Ġcrayons": 2222,
      "Ġhorse": 2223,
      "Ġpop": 2224,
      "Ġorgan": 2225,
      "Ġfront": 2226,
      "Ġzoo": 2227,
      "Ġprotect": 2228,
      "ond": 2229,
      "Ġpile": 2230,
      "cean": 2231,
      "Ġputs": 2232,
      "Ġocean": 2233,
      "oose": 2234,
      "een": 2235,
      "Ġpar": 2236,
      "Ġdanced": 2237,
      "lla": 2238,
      "ching": 2239,
      "Ġlay": 2240,
      "Ġsnowman": 2241,
      "Ġfeather": 2242,
      "ale": 2243,
      "Lucy": 2244,
      "Ġmach": 2245,
      "erly": 2246,
      "Ġtrip": 2247,
      "Every": 2248,
      "Ġthin": 2249,
      "Ġshr": 2250,
      "Ġtun": 2251,
      "amed": 2252,
      "Ġeag": 2253,
      "Ġneighbor": 2254,
      "Ġpuzz": 2255,
      "ÅĵI": 2256,
      "Ġloves": 2257,
      "Ġplaces": 2258,
      "Good": 2259,
      "Molly": 2260,
      "Ġdi": 2261,
      "eb": 2262,
      "izz": 2263,
      "Ġsack": 2264,
      "Ġwearing": 2265,
      "Ġasleep": 2266,
      "Ġseat": 2267,
      "Jim": 2268,
      "In": 2269,
      "Ġmud": 2270,
      "nic": 2271,
      "Ġimpre": 2272,
      "Ġspent": 2273,
      "Ġminut": 2274,
      "ular": 2275,
      "Ġwild": 2276,
      "Ġmed": 2277,
      "Ġsplas": 2278,
      "Ġanswer": 2279,
      "Just": 2280,
      "Ġpill": 2281,
      "itty": 2282,
      "Ġpicnic": 2283,
      "Ġemb": 2284,
      "Ġval": 2285,
      "nn": 2286,
      "ometimes": 2287,
      "Ġcorner": 2288,
      "la": 2289,
      "Ġsnake": 2290,
      "Ġfoot": 2291,
      "Ġbuilding": 2292,
      "Ġscreamed": 2293,
      "Ġslid": 2294,
      "ert": 2295,
      "ndpa": 2296,
      "Ġmind": 2297,
      "Ġsupp": 2298,
      "Ġrespect": 2299,
      "cks": 2300,
      "Ġdirt": 2301,
      "Ġlad": 2302,
      "ĠMittens": 2303,
      "Ġgently": 2304,
      "arge": 2305,
      "Ġoven": 2306,
      "Come": 2307,
      "ĠEmily": 2308,
      "Ġsal": 2309,
      "umber": 2310,
      "St": 2311,
      "hile": 2312,
      "Ġmountain": 2313,
      "Ġconfused": 2314,
      "Ġspider": 2315,
      "Ġbark": 2316,
      "ones": 2317,
      "Ġlive": 2318,
      "Ġdelight": 2319,
      "Ġwrite": 2320,
      "Ġcart": 2321,
      "Ġcard": 2322,
      "Ġworm": 2323,
      "Ġpass": 2324,
      "Ġremind": 2325,
      "Ġfurry": 2326,
      "Ġign": 2327,
      "Ġembar": 2328,
      "Ġembarra": 2329,
      "Ġwhenever": 2330,
      "Ġeventually": 2331,
      "Ġhelpful": 2332,
      "lex": 2333,
      "Ġtid": 2334,
      "Ġcookie": 2335,
      "Ġphone": 2336,
      "Ġser": 2337,
      "Ġbell": 2338,
      "Ġcouch": 2339,
      "Soon": 2340,
      "Ġfeet": 2341,
      "Ġfaces": 2342,
      "Ġrec": 2343,
      "Ġtalking": 2344,
      "Mum": 2345,
      "Ġgoes": 2346,
      "Ġladder": 2347,
      "Ġlast": 2348,
      "Ġcoin": 2349,
      "Ġteach": 2350,
      "Ġchick": 2351,
      "ex": 2352,
      "Ġblew": 2353,
      "unk": 2354,
      "Ġwave": 2355,
      "Ġsmooth": 2356,
      "Ġring": 2357,
      "ĠSt": 2358,
      "mo": 2359,
      "Ġpaw": 2360,
      "bbles": 2361,
      "als": 2362,
      "Ġban": 2363,
      "Ġpan": 2364,
      "Ġcolour": 2365,
      "ĠGo": 2366,
      "Ġpretended": 2367,
      "read": 2368,
      "Ġcalm": 2369,
      "Ġrob": 2370,
      "Ġtries": 2371,
      "Ġshy": 2372,
      "Ġdrive": 2373,
      "Ġpool": 2374,
      "ife": 2375,
      "Ġlarge": 2376,
      "Ġmachine": 2377,
      "Ġstret": 2378,
      "Ġtool": 2379,
      "Ġwaiting": 2380,
      "Ġforgive": 2381,
      "Ġhiding": 2382,
      "Ġspread": 2383,
      "Ġspray": 2384,
      "ĠEverywhere": 2385,
      "Ġfinish": 2386,
      "Ġash": 2387,
      "lebr": 2388,
      "Ġcoo": 2389,
      "ato": 2390,
      "Ġchocol": 2391,
      "Ġpush": 2392,
      "Ġvillage": 2393,
      "Ġcelebr": 2394,
      "Ġpour": 2395,
      "Ġsel": 2396,
      "Ġstra": 2397,
      "Ġtreats": 2398,
      "Ġtomorrow": 2399,
      "Ġant": 2400,
      "Ġple": 2401,
      "ĠHow": 2402,
      "Ġfixed": 2403,
      "Ġfighting": 2404,
      "ĠJenny": 2405,
      "Ġsol": 2406,
      "Ġcloth": 2407,
      "Ġhum": 2408,
      "Ġteeth": 2409,
      "Ġchased": 2410,
      "Ġrude": 2411,
      "Ġkitten": 2412,
      "ĠAl": 2413,
      "Ġtidy": 2414,
      "Ġrobot": 2415,
      "old": 2416,
      "urse": 2417,
      "Ġbanan": 2418,
      "Ġforward": 2419,
      "oph": 2420,
      "Ġrep": 2421,
      "Ġcann": 2422,
      "Ġemp": 2423,
      "Ġembarrassed": 2424,
      "Ġknee": 2425,
      "ĠCh": 2426,
      "Ġsongs": 2427,
      "Ġshirt": 2428,
      "Ġbarked": 2429,
      "Ġempty": 2430,
      "Ġrocket": 2431,
      "ator": 2432,
      "ighed": 2433,
      "Ġspe": 2434,
      "Ġfold": 2435,
      "Ġcarrots": 2436,
      "Ġpuddle": 2437,
      "inted": 2438,
      "aul": 2439,
      "Ġpeaceful": 2440,
      "ĠJust": 2441,
      "Ġbugs": 2442,
      "Ġwhistle": 2443,
      "Ġstep": 2444,
      "Ġleaf": 2445,
      "Ġtightly": 2446,
      "Ġcannot": 2447,
      "Ġtaste": 2448,
      "Ġwore": 2449,
      "Ġgen": 2450,
      "ungle": 2451,
      "Ġnet": 2452,
      "Ġstring": 2453,
      "Ġselfish": 2454,
      "getable": 2455,
      "Ġstir": 2456,
      "ult": 2457,
      "Ġgrew": 2458,
      "Ġcreative": 2459,
      "Ġjungle": 2460,
      "Ġvegetable": 2461,
      "Ġmeadow": 2462,
      "Ġsave": 2463,
      "iger": 2464,
      "Ġstone": 2465,
      "Ġchocolate": 2466,
      "ĠSometimes": 2467,
      "ĠJake": 2468,
      "box": 2469,
      "arm": 2470,
      "Ġtrust": 2471,
      "Ġwip": 2472,
      "My": 2473,
      "Ġcrab": 2474,
      "Ġplate": 2475,
      "Ġsparkly": 2476,
      "den": 2477,
      "Ġdisappo": 2478,
      "Ġtea": 2479,
      "Ġdeter": 2480,
      "umpy": 2481,
      "dge": 2482,
      "Ġdeterm": 2483,
      "ground": 2484,
      "ĠLisa": 2485,
      "Ġspicy": 2486,
      "Ġknocked": 2487,
      "Ġ'": 2488,
      "Ġsheep": 2489,
      "Now": 2490,
      "Ġneckl": 2491,
      "ird": 2492,
      "Please": 2493,
      "Ġsour": 2494,
      "ĠOn": 2495,
      "Ġmeant": 2496,
      "Ġshelf": 2497,
      "most": 2498,
      "Ġmaybe": 2499,
      "Dad": 2500,
      "Ġwash": 2501,
      "Ġlem": 2502,
      "Ġjumping": 2503,
      "ned": 2504,
      "Ġmoon": 2505,
      "Ġlegs": 2506,
      "elly": 2507,
      "Ġhidden": 2508,
      "Ġhours": 2509,
      "Ġwhis": 2510,
      "Ġalmost": 2511,
      "airs": 2512,
      "Ġlanded": 2513,
      "Ġdecor": 2514,
      "ustr": 2515,
      "Ġhonest": 2516,
      "ying": 2517,
      "ĠMum": 2518,
      "Ġknowing": 2519,
      "Ġmissed": 2520,
      "Ġdisappointed": 2521,
      "To": 2522,
      "Ġstood": 2523,
      "Ġav": 2524,
      "'d": 2525,
      "aking": 2526,
      "Ġpri": 2527,
      "ano": 2528,
      "Ġline": 2529,
      "Ġgun": 2530,
      "dle": 2531,
      "Ġnut": 2532,
      "Ġfear": 2533,
      "Ġpin": 2534,
      "Ġbreath": 2535,
      "ĠPlease": 2536,
      "ĠSome": 2537,
      "Ġsharing": 2538,
      "Ġcarried": 2539,
      "Ġpizz": 2540,
      "kin": 2541,
      "ĠEven": 2542,
      "Ġscre": 2543,
      "Mama": 2544,
      "Ġhears": 2545,
      "Ġprince": 2546,
      "Ġgener": 2547,
      "ĠLe": 2548,
      "Ġsnacks": 2549,
      "Ġgroup": 2550,
      "ĠTV": 2551,
      "Ġgray": 2552,
      "Ġtells": 2553,
      "ian": 2554,
      "Ġsplash": 2555,
      "Ġcro": 2556,
      "Ġfrustr": 2557,
      "Ġshore": 2558,
      "erp": 2559,
      "Ġreturned": 2560,
      "Ġscar": 2561,
      "Ġpay": 2562,
      "erry": 2563,
      "Ġunderstood": 2564,
      "Ġthankful": 2565,
      "Ġmysterious": 2566,
      "ĠTheir": 2567,
      "Ġfancy": 2568,
      "gly": 2569,
      "Ġgold": 2570,
      "Ġstanding": 2571,
      "Ġbal": 2572,
      "Ġplants": 2573,
      "ony": 2574,
      "Ġmessy": 2575,
      "Ġwhisp": 2576,
      "Ġsticks": 2577,
      "Ġnecklace": 2578,
      "Be": 2579,
      "Ġugly": 2580,
      "ĠTeddy": 2581,
      "obby": 2582,
      "Ġsuccess": 2583,
      "ĠTogether": 2584,
      "orry": 2585,
      "Ġseed": 2586,
      "Ġsandwich": 2587,
      "Ġsleepy": 2588,
      "lower": 2589,
      "vous": 2590,
      "Ġfrustrated": 2591,
      "Ġjew": 2592,
      "Ġbedroom": 2593,
      "Ġyelled": 2594,
      "Ġvan": 2595,
      "era": 2596,
      "Ġtest": 2597,
      "Ġdrew": 2598,
      "Ġpizza": 2599,
      "Ġtaught": 2600,
      "Ġgathered": 2601,
      "Ġtwirl": 2602,
      "Ġpuzzle": 2603,
      "Ġblow": 2604,
      "Ġcirc": 2605,
      "ital": 2606,
      "Ġgas": 2607,
      "Ġspoil": 2608,
      "Ġwolf": 2609,
      "usie": 2610,
      "Ġpowerful": 2611,
      "ĠAnn": 2612,
      "Ġburn": 2613,
      "ork": 2614,
      "Ġfig": 2615,
      "Ġdetermined": 2616,
      "Ġmot": 2617,
      "ser": 2618,
      "Ġsna": 2619,
      "Ġhosp": 2620,
      "itter": 2621,
      "Ġpolice": 2622,
      "sist": 2623,
      "Ġwaves": 2624,
      "Ġhospital": 2625,
      "hin": 2626,
      "Ġcomfortable": 2627,
      "Ġpillow": 2628,
      "pack": 2629,
      "Ġmummy": 2630,
      "Ġexcite": 2631,
      "Ġeasy": 2632,
      "Ġner": 2633,
      "llie": 2634,
      "There": 2635,
      "Ġashamed": 2636,
      "Ġgenerous": 2637,
      "ual": 2638,
      "Sarah": 2639,
      "ensive": 2640,
      "Ġhur": 2641,
      "Ġrad": 2642,
      "ĠWhy": 2643,
      "iff": 2644,
      "Ġclass": 2645,
      "Ġfil": 2646,
      "Ġdeer": 2647,
      "Ġpassed": 2648,
      "Ġexpensive": 2649,
      "ĠZ": 2650,
      "Jane": 2651,
      "Ġpoor": 2652,
      "ĠPeter": 2653,
      "Ġhel": 2654,
      "Ġnervous": 2655,
      "Ġthese": 2656,
      "osaur": 2657,
      "Ġcaterp": 2658,
      "Ġcaterpill": 2659,
      "Ġminutes": 2660,
      "Ġdancing": 2661,
      "Ġtick": 2662,
      "Ġoften": 2663,
      "izzy": 2664,
      "Ġlit": 2665,
      "ĠJohnny": 2666,
      "Stop": 2667,
      "Ġexcitement": 2668,
      "Ġesc": 2669,
      "light": 2670,
      "Ġgate": 2671,
      "Ġtaken": 2672,
      "Ġreg": 2673,
      "uce": 2674,
      "Ġcries": 2675,
      "Ġbridge": 2676,
      "ĠDon": 2677,
      "work": 2678,
      "Ġspend": 2679,
      "Ġexam": 2680,
      "Ġpleased": 2681,
      "mb": 2682,
      "Ġseek": 2683,
      "iddle": 2684,
      "Ġknight": 2685,
      "Ġnods": 2686,
      "oop": 2687,
      "Ġpacked": 2688,
      "Ġship": 2689,
      "Ġpir": 2690,
      "iness": 2691,
      "Ġfeed": 2692,
      "Ġpolite": 2693,
      "arl": 2694,
      "Ġsold": 2695,
      "Ġdinosaur": 2696,
      "Ġcri": 2697,
      "Ġbone": 2698,
      "Ġscr": 2699,
      "Ġsighed": 2700,
      "illed": 2701,
      "Ġvase": 2702,
      "ote": 2703,
      "Ġbored": 2704,
      "ĠBe": 2705,
      "af": 2706,
      "ina": 2707,
      "Ġsaved": 2708,
      "Ġnumber": 2709,
      "Ġflag": 2710,
      "ĠBr": 2711,
      "Ġvegetables": 2712,
      "ete": 2713,
      "Ġrelax": 2714,
      "Ġtent": 2715,
      "Ġleg": 2716,
      "Ġanswered": 2717,
      "Ġchest": 2718,
      "Ġglass": 2719,
      "Ġtrue": 2720,
      "Ġcaterpillar": 2721,
      "Ġwander": 2722,
      "Ġweak": 2723,
      "Ġflut": 2724,
      "Ġworking": 2725,
      "ecially": 2726,
      "Where": 2727,
      "Ġjelly": 2728,
      "Ġcloset": 2729,
      "issors": 2730,
      "Ġfinger": 2731,
      "Ġhopping": 2732,
      "Ġcontent": 2733,
      "Ġsmelly": 2734,
      "Ġboring": 2735,
      "Ġstuff": 2736,
      "Ġclown": 2737,
      "Ġgrumpy": 2738,
      "Ġchew": 2739,
      "Ġscissors": 2740,
      "Ġasking": 2741,
      "Ġgar": 2742,
      "selves": 2743,
      "oof": 2744,
      "Ġmiddle": 2745,
      "Ġhang": 2746,
      "ushed": 2747,
      "pecially": 2748,
      "Ġscarf": 2749,
      "Ġmatch": 2750,
      "Ġespecially": 2751,
      "Ġyourself": 2752,
      "body": 2753,
      "Ġcrawl": 2754,
      "Ġteam": 2755,
      "Ġdrum": 2756,
      "Ġgiggled": 2757,
      "Ġplayground": 2758,
      "Ġwagged": 2759,
      "Ġwis": 2760,
      "Ġmedic": 2761,
      "Ġsight": 2762,
      "ets": 2763,
      "Ġlazy": 2764,
      "que": 2765,
      "Ġkissed": 2766,
      "Ġlemon": 2767,
      "Jimmy": 2768,
      "Ġcand": 2769,
      "Ġdistance": 2770,
      "Ġtears": 2771,
      "ggs": 2772,
      "Ġmic": 2773,
      "Ġsailed": 2774,
      "Ġeggs": 2775,
      "Ġdrawing": 2776,
      "ates": 2777,
      "ĠBl": 2778,
      "Ġdest": 2779,
      "Ġmov": 2780,
      "Ġshoot": 2781,
      "Ġmedicine": 2782,
      "Ġlead": 2783,
      "Ġpray": 2784,
      "ĠEnd": 2785,
      "Ġmistake": 2786,
      "Ġmir": 2787,
      "Ġbecome": 2788,
      "Ġlying": 2789,
      "ating": 2790,
      "ĠRex": 2791,
      "Ġfis": 2792,
      "Ġballs": 2793,
      "Ġsplashed": 2794,
      "Sorry": 2795,
      "ĠOK": 2796,
      "Ġtie": 2797,
      "Ġlock": 2798,
      "aged": 2799,
      "alous": 2800,
      "ella": 2801,
      "Ġdrop": 2802,
      "Ġadd": 2803,
      "Ġstones": 2804,
      "Ġones": 2805,
      "Ġquestions": 2806,
      "Ġext": 2807,
      "Ġjealous": 2808,
      "Ġclap": 2809,
      "Ġeld": 2810,
      "Ġok": 2811,
      "Ġwalks": 2812,
      "ĠLeo": 2813,
      "Ġrid": 2814,
      "Ġbathroom": 2815,
      "ror": 2816,
      "Ġgets": 2817,
      "Ġcrown": 2818,
      "Ġwheel": 2819,
      "Ġboss": 2820,
      "Ġfruits": 2821,
      "Ġfluffy": 2822,
      "Ġfeathers": 2823,
      "Ġskipped": 2824,
      "Ġglow": 2825,
      "Ġcrack": 2826,
      "Ġdisappeared": 2827,
      "Are": 2828,
      "Ġmap": 2829,
      "Ġcross": 2830,
      "Ġchange": 2831,
      "Ġweek": 2832,
      "Ġruined": 2833,
      "Jill": 2834,
      "Ġmoving": 2835,
      "Ġqueen": 2836,
      "Ġcalling": 2837,
      "Ġdiscovered": 2838,
      "Ġextra": 2839,
      "Ġcage": 2840,
      "imp": 2841,
      "Ġwrote": 2842,
      "Ġbake": 2843,
      "Ġfake": 2844,
      "Ġjuicy": 2845,
      "Ġcap": 2846,
      "Ġthick": 2847,
      "Ġbody": 2848,
      "Their": 2849,
      "ĠAt": 2850,
      "Ġgarage": 2851,
      "Ġfather": 2852,
      "Ġeye": 2853,
      "Sally": 2854,
      "ym": 2855,
      "Ġincred": 2856,
      "ination": 2857,
      "Ġunus": 2858,
      "Ġjoke": 2859,
      "ots": 2860,
      "Ġind": 2861,
      "Ġsoap": 2862,
      "Ġlose": 2863,
      "Ġsweetie": 2864,
      "Ġsell": 2865,
      "Ġbrush": 2866,
      "Ġcolourful": 2867,
      "Ġunusual": 2868,
      "cept": 2869,
      "enny": 2870,
      "Ġroar": 2871,
      "Ġdogs": 2872,
      "elp": 2873,
      "Ġglue": 2874,
      "uggest": 2875,
      "Ġmeasure": 2876,
      "Billy": 2877,
      "Ġsuggest": 2878,
      "Ġcover": 2879,
      "Ġcovered": 2880,
      "Who": 2881,
      "ha": 2882,
      "Ġdish": 2883,
      "keep": 2884,
      "Ġord": 2885,
      "Ġrealised": 2886,
      "Ġfamous": 2887,
      "yal": 2888,
      "asing": 2889,
      "Ġnoisy": 2890,
      "port": 2891,
      "Ġboard": 2892,
      "Ġboys": 2893,
      "Ġlicked": 2894,
      "ĠIf": 2895,
      "Ġdrank": 2896,
      "Ġbranches": 2897,
      "Ġpicks": 2898,
      "Ġadventur": 2899,
      "Ġsug": 2900,
      "umbled": 2901,
      "Ġtag": 2902,
      "Ġcost": 2903,
      "Ġelderly": 2904,
      "Ġmirror": 2905,
      "Ġonce": 2906,
      "Ġeager": 2907,
      "Ġclear": 2908,
      "Me": 2909,
      "Ġhappening": 2910,
      "Sp": 2911,
      "Ġcheck": 2912,
      "Ġincredible": 2913,
      "Ġdig": 2914,
      "ured": 2915,
      "Ġcleaned": 2916,
      "Ġmighty": 2917,
      "Ġtiger": 2918,
      "Ġadventurous": 2919,
      "Ġsugar": 2920,
      "Ġtape": 2921,
      "ately": 2922,
      "Ġtowel": 2923,
      "Ġbanana": 2924,
      "Ġed": 2925,
      "Ġcraw": 2926,
      "Ġmotor": 2927,
      "Ġsil": 2928,
      "cil": 2929,
      "Ġbubbles": 2930,
      "Ġpencil": 2931,
      "Ġfigure": 2932,
      "Ġcrawled": 2933,
      "illi": 2934,
      "Ġfine": 2935,
      "Ġborrow": 2936,
      "Ġhorn": 2937,
      "Ġknife": 2938,
      "Help": 2939,
      "hip": 2940,
      "Ġoffered": 2941,
      "Ġstraw": 2942,
      "fast": 2943,
      "Ġtwist": 2944,
      "ĠBlue": 2945,
      "Ġang": 2946,
      "Ġloyal": 2947,
      "Ġdecide": 2948,
      "Ġyours": 2949,
      "Ġbottom": 2950,
      "ti": 2951,
      "?\".": 2952,
      "ĠSusie": 2953,
      "ache": 2954,
      "Ġbreakfast": 2955,
      "ique": 2956,
      "ĠKitty": 2957,
      "Ġaw": 2958,
      "Ġshows": 2959,
      "Ġword": 2960,
      "ory": 2961,
      "Ġfavour": 2962,
      "Ġlouder": 2963,
      "keeper": 2964,
      "ĠLittle": 2965,
      "land": 2966,
      "Ġunique": 2967,
      "Ġorganized": 2968,
      "Ġtoug": 2969,
      "Ġrare": 2970,
      "Ġmanaged": 2971,
      "Ġenjoying": 2972,
      "Ġnod": 2973,
      "Ġbloom": 2974,
      "fic": 2975,
      "Ġwand": 2976,
      "Ġwhale": 2977,
      "Ġmod": 2978,
      "imed": 2979,
      "Ġegg": 2980,
      "Ġfavourite": 2981,
      "Ġboxes": 2982,
      "uggled": 2983,
      "Ġagainst": 2984,
      "rag": 2985,
      "lies": 2986,
      "Ġgoat": 2987,
      "Ġkindness": 2988,
      "Ġimpressed": 2989,
      "Ġadded": 2990,
      "Ġpump": 2991,
      "Ġfridge": 2992,
      "ipp": 2993,
      "Ġlamp": 2994,
      "Ġdizzy": 2995,
      "Ġdiffic": 2996,
      "Ġwrapped": 2997,
      "Ġsword": 2998,
      "Ġfright": 2999,
      "Ġspun": 3000,
      "Ġgiving": 3001,
      "Ġfool": 3002,
      "Ġwagon": 3003,
      "Ġpee": 3004,
      "Ġsquee": 3005,
      "Ġguess": 3006,
      "olog": 3007,
      "Ġcher": 3008,
      "Ġshake": 3009,
      "ĠMark": 3010,
      "ĠBrown": 3011,
      "Ġarg": 3012,
      "Ġcoins": 3013,
      "Ġdifficult": 3014,
      "Ġham": 3015,
      "Ġhappiness": 3016,
      "Ġsafely": 3017,
      "Ġhero": 3018,
      "Ġbarn": 3019,
      "Ġloudly": 3020,
      "Ġbelonged": 3021,
      "Ġtough": 3022,
      "Ġapolog": 3023,
      "emo": 3024,
      "ilt": 3025,
      "Al": 3026,
      "anged": 3027,
      "Ġgrace": 3028,
      "Ġchicken": 3029,
      "Ġballoons": 3030,
      "ery": 3031,
      "Ġfrown": 3032,
      "ready": 3033,
      "arry": 3034,
      "Ġnorm": 3035,
      "Mummy": 3036,
      "zed": 3037,
      "Gra": 3038,
      "Ġhunt": 3039,
      "Ġjewel": 3040,
      "Amy": 3041,
      "Ġbald": 3042,
      "Ġtunn": 3043,
      "ĠNo": 3044,
      "Ġgrown": 3045,
      "Ġlearning": 3046,
      "Ġneeds": 3047,
      "Ġrich": 3048,
      "Ġaccept": 3049,
      "Ġfat": 3050,
      "Ġmelt": 3051,
      "Ġshark": 3052,
      "Ġalready": 3053,
      "Ġcircles": 3054,
      "edient": 3055,
      "Ġharm": 3056,
      "Ġweird": 3057,
      "rage": 3058,
      "Ġdepend": 3059,
      "ages": 3060,
      "Ġrecord": 3061,
      "Ġcheerful": 3062,
      "Ġfoolish": 3063,
      "Ġcam": 3064,
      "Ġbalance": 3065,
      "Sue": 3066,
      "head": 3067,
      "Ġpointing": 3068,
      "Ġchase": 3069,
      "Ġflash": 3070,
      "Ġslipped": 3071,
      "Ġmixed": 3072,
      "Ġhurts": 3073,
      "Ġbrothers": 3074,
      "Ġbuttons": 3075,
      "Ġpainting": 3076,
      "Ġsmoke": 3077,
      "ipper": 3078,
      "Ġsearch": 3079,
      "Ġstrawber": 3080,
      "Ġnormal": 3081,
      "Well": 3082,
      "Ġmarket": 3083,
      "How": 3084,
      "Ġisland": 3085,
      "Ġlog": 3086,
      "Ġrough": 3087,
      "Joe": 3088,
      "Ġears": 3089,
      "Ġhose": 3090,
      "omed": 3091,
      "Ġjack": 3092,
      "ject": 3093,
      "Ġstream": 3094,
      "ĠPete": 3095,
      "arth": 3096,
      "Ġtrucks": 3097,
      "Ġmovie": 3098,
      "bborn": 3099,
      "Ġturt": 3100,
      "Ġcity": 3101,
      "Ġchoose": 3102,
      "Ġkinds": 3103,
      "Ġfour": 3104,
      "alk": 3105,
      "Ġmeans": 3106,
      "Ġdreams": 3107,
      "Ġstubborn": 3108,
      "Ġter": 3109,
      "ature": 3110,
      "Ġcompet": 3111,
      "Ġobedient": 3112,
      "Ġnosy": 3113,
      "ĠBobby": 3114,
      "Ġswan": 3115,
      "Ġlifted": 3116,
      "Ġfrightened": 3117,
      "Ġweal": 3118,
      "Ġref": 3119,
      "Ġbrilli": 3120,
      "ĠMrs": 3121,
      "Ġgrap": 3122,
      "oot": 3123,
      "Ġmoms": 3124,
      "Ġclay": 3125,
      "Ġicy": 3126,
      "Ġsaying": 3127,
      "iable": 3128,
      "Ġdreamed": 3129,
      "Ġbrilliant": 3130,
      "Ġmagn": 3131,
      "Ġedge": 3132,
      "gy": 3133,
      "und": 3134,
      "Ġtwig": 3135,
      "Ġusing": 3136,
      "Ġscare": 3137,
      "Ġskin": 3138,
      "Ġproudly": 3139,
      "Ġunl": 3140,
      "Ġbitter": 3141,
      "Ġoffice": 3142,
      "Ġsounded": 3143,
      "Ġreliable": 3144,
      "Ġwalls": 3145,
      "Ġvalu": 3146,
      "wards": 3147,
      "Ġlibr": 3148,
      "Ġuseful": 3149,
      "Ġescape": 3150,
      "Ġpil": 3151,
      "atter": 3152,
      "Ġabove": 3153,
      "Ġstronger": 3154,
      "Ġber": 3155,
      "Ġcircle": 3156,
      "Ġdolp": 3157,
      "Ġwrap": 3158,
      "cient": 3159,
      "Ġguit": 3160,
      "Ġrat": 3161,
      "Ġthoughtful": 3162,
      "Ġtrack": 3163,
      "Ġberries": 3164,
      "laimed": 3165,
      "Ġjoined": 3166,
      "Ġtools": 3167,
      "Ġcompetit": 3168,
      "Ġtoast": 3169,
      "Ġlean": 3170,
      "Ġfier": 3171,
      "ĠDucky": 3172,
      "ĠWhenever": 3173,
      "Ġinvited": 3174,
      "Ġexclaimed": 3175,
      "Ġhats": 3176,
      "Ġfalls": 3177,
      "Ġdependable": 3178,
      "Ġfre": 3179,
      "ĠToday": 3180,
      "iv": 3181,
      "Ġsuit": 3182,
      "Ġtank": 3183,
      "Ġcrayon": 3184,
      "Ġjam": 3185,
      "Ġgrandpa": 3186,
      "Ġtrunk": 3187,
      "Ġspoiled": 3188,
      "Ġbossy": 3189,
      "Ġexplored": 3190,
      "Ġindepend": 3191,
      "Ġgem": 3192,
      "Ġroof": 3193,
      "Ġcleaning": 3194,
      "bin": 3195,
      "Ġancient": 3196,
      "Ġtummy": 3197,
      "Ġenorm": 3198,
      "Ġbushes": 3199,
      "Ġshells": 3200,
      "Ġreminded": 3201,
      "Ġfierce": 3202,
      "Ġharder": 3203,
      "Ġenormous": 3204,
      "oppy": 3205,
      "ye": 3206,
      "Ġtimes": 3207,
      "Ġfrag": 3208,
      "Ġthu": 3209,
      "Ġswe": 3210,
      "ĠFred": 3211,
      "Ġchose": 3212,
      "Spot": 3213,
      "Ġyog": 3214,
      "Ġstumbled": 3215,
      "Ġperform": 3216,
      "Ġlaughs": 3217,
      "Ġshape": 3218,
      "Ġcabin": 3219,
      "Ġdesign": 3220,
      "ention": 3221,
      "ÅĵLet": 3222,
      "ext": 3223,
      "Ġfountain": 3224,
      "ola": 3225,
      "ĠBu": 3226,
      "Ġyarn": 3227,
      "Ġterri": 3228,
      "Ġsuggested": 3229,
      "Ġwake": 3230,
      "amond": 3231,
      "Ġspace": 3232,
      "Here": 3233,
      "ress": 3234,
      "Ġhelps": 3235,
      "Ġmem": 3236,
      "Ġturtle": 3237,
      "Ġvaluable": 3238,
      "Ġguitar": 3239,
      "Ġmarble": 3240,
      "Ġdelighted": 3241,
      "orge": 3242,
      "Ġsmaller": 3243,
      "irp": 3244,
      "ipe": 3245,
      "Ġbeet": 3246,
      "Ġnotice": 3247,
      "Ġdiamond": 3248,
      "ĠU": 3249,
      "ĠMy": 3250,
      "Ġrode": 3251,
      "Ġlaw": 3252,
      "Ġjog": 3253,
      "Ġraced": 3254,
      "Ġcudd": 3255,
      "ĠNemo": 3256,
      "ĠElla": 3257,
      "ouses": 3258,
      "Ġindependent": 3259,
      "Ġparrot": 3260,
      "Ġshone": 3261,
      "Ġcounted": 3262,
      "Ġseem": 3263,
      "Ġexcitedly": 3264,
      "Ġshowing": 3265,
      "Ġfragile": 3266,
      "Ġbuilt": 3267,
      "Ġlow": 3268,
      "anut": 3269,
      "Ġknows": 3270,
      "Ġcamera": 3271,
      "Ġson": 3272,
      "Ġcostum": 3273,
      "uring": 3274,
      "Ġbrightly": 3275,
      "Ġwealthy": 3276,
      "dom": 3277,
      "kn": 3278,
      "Ġcere": 3279,
      "Ġsuccessful": 3280,
      "inary": 3281,
      "Ġbounce": 3282,
      "Ġfingers": 3283,
      "Ġadmired": 3284,
      "Ġangel": 3285,
      "Ġcop": 3286,
      "anger": 3287,
      "Ġways": 3288,
      "ĠRose": 3289,
      "Ġstudy": 3290,
      "Em": 3291,
      "Ġchanged": 3292,
      "Ġbags": 3293,
      "Ġbirdie": 3294,
      "Ġbatter": 3295,
      "Ġstamp": 3296,
      "Ġsolve": 3297,
      "Ġthirst": 3298,
      "Ġbull": 3299,
      "Ġhouses": 3300,
      "gest": 3301,
      "Ġstri": 3302,
      "Ġarrow": 3303,
      "Ġmole": 3304,
      "Ġpainted": 3305,
      "umbers": 3306,
      "Ġtunnel": 3307,
      "inal": 3308,
      "Ġrushed": 3309,
      "iew": 3310,
      "Ġpicking": 3311,
      "Ġtele": 3312,
      "Ġlights": 3313,
      "Ġprize": 3314,
      "Ġthemselves": 3315,
      "Ġbiggest": 3316,
      "Ġdove": 3317,
      "Ġkicked": 3318,
      "Ġpractice": 3319,
      "Ġmarch": 3320,
      "eorge": 3321,
      "com": 3322,
      "iginal": 3323,
      "Ġfresh": 3324,
      "Ġtooth": 3325,
      "Ġgoose": 3326,
      "Ġview": 3327,
      "Ġpost": 3328,
      "Ġsauce": 3329,
      "Ġlab": 3330,
      "Ġenvel": 3331,
      "cod": 3332,
      "Ġcomput": 3333,
      "known": 3334,
      "ado": 3335,
      "Ġsunf": 3336,
      "Ġsearching": 3337,
      "Ġhay": 3338,
      "Ġcone": 3339,
      "Ġresc": 3340,
      "Ġpoured": 3341,
      "Ġpumpkin": 3342,
      "Ġspinning": 3343,
      "corn": 3344,
      "Ġyet": 3345,
      "Ġgrand": 3346,
      "ĠFin": 3347,
      "Ġsalad": 3348,
      "Ġoriginal": 3349,
      "Ġcheap": 3350,
      "Ġstove": 3351,
      "Ġcereal": 3352,
      "Ġenc": 3353,
      "upid": 3354,
      "Ġclum": 3355,
      "Ġpeanut": 3356,
      "Ġdreaming": 3357,
      "anny": 3358,
      "Ġshadow": 3359,
      "Ġscrat": 3360,
      "Ġbeetle": 3361,
      "Ġbeak": 3362,
      "Ġdull": 3363,
      "uth": 3364,
      "Ġforth": 3365,
      "ĠMar": 3366,
      "Ġunknown": 3367,
      "Ġmetal": 3368,
      "ĠAlice": 3369,
      "Ġthirsty": 3370,
      "Ġcompass": 3371,
      "Ġserious": 3372,
      "Ġcrocod": 3373,
      "Ġnurse": 3374,
      "Ġpopcorn": 3375,
      "Ġsteal": 3376,
      "Ġdough": 3377,
      "Ġreward": 3378,
      "illie": 3379,
      "Ġpant": 3380,
      "Ġplayful": 3381,
      "Ġhandle": 3382,
      "Ġstupid": 3383,
      "ĠDave": 3384,
      "Ġclock": 3385,
      "Ġending": 3386,
      "âĤ¬âĢ": 3387,
      "Ġpup": 3388,
      "Ġpersist": 3389,
      "vice": 3390,
      "tern": 3391,
      "Ġwiped": 3392,
      "Ġprep": 3393,
      "ilty": 3394,
      "Ġnumbers": 3395,
      "Ġguilty": 3396,
      "Ġfinding": 3397,
      "Ġdelicate": 3398,
      "Ġbean": 3399,
      "Ġdesk": 3400,
      "Ġwire": 3401,
      "ither": 3402,
      "Ġumb": 3403,
      "Ġstairs": 3404,
      "Ġlocked": 3405,
      "Ġflute": 3406,
      "Ġflashlight": 3407,
      "Ġclumsy": 3408,
      "Ġumbre": 3409,
      "Ġgraceful": 3410,
      "Ġcareless": 3411,
      "Ġtelling": 3412,
      "apped": 3413,
      "Ġhoop": 3414,
      "Ġsniff": 3415,
      "Ġwhispered": 3416,
      "Ġfork": 3417,
      "Ġnicely": 3418,
      "Ġhairy": 3419,
      "Ġtrap": 3420,
      "Ġcarrying": 3421,
      "Ġpeeked": 3422,
      "Ġallowed": 3423,
      "Ġdead": 3424,
      "ience": 3425,
      "Ġmoder": 3426,
      "Ġmis": 3427,
      "ĠMummy": 3428,
      "Ġleaving": 3429,
      "Ġchar": 3430,
      "Ġboats": 3431,
      "Ġthunder": 3432,
      "Ġow": 3433,
      "Ġpotato": 3434,
      "Ġing": 3435,
      "Ġmel": 3436,
      "Ġthose": 3437,
      "Ġshel": 3438,
      "time": 3439,
      "Ġsnee": 3440,
      "Ġterrible": 3441,
      "Ġsudden": 3442,
      "Ġnote": 3443,
      "!\".": 3444,
      "Ġpasta": 3445,
      "Ġimagined": 3446,
      "Ġcompassion": 3447,
      "Ġbump": 3448,
      "ray": 3449,
      "redient": 3450,
      "Ġsparkled": 3451,
      "Ġavo": 3452,
      "Ġscreen": 3453,
      "Ġregular": 3454,
      "Ġingredient": 3455,
      "Ġwashed": 3456,
      "ĠBella": 3457,
      "Ġtomato": 3458,
      "While": 3459,
      "Ġstranger": 3460,
      "Ġwarned": 3461,
      "Ġenvelope": 3462,
      "Ġhalf": 3463,
      "Ġjolly": 3464,
      "ement": 3465,
      "Ġpattern": 3466,
      "Ġpopular": 3467,
      "Ġjacket": 3468,
      "Ġmodern": 3469,
      "ines": 3470,
      "Ġprint": 3471,
      "Ġmailbox": 3472,
      "ĠTweety": 3473,
      "Ġpirate": 3474,
      "Ġearth": 3475,
      "Ġcomputer": 3476,
      "Ġpow": 3477,
      "Ġfriendship": 3478,
      "ĠWhile": 3479,
      "oomy": 3480,
      "comfort": 3481,
      "Ġgrowing": 3482,
      "Ġhammer": 3483,
      "Ġstat": 3484,
      "Ġshiver": 3485,
      "Ġsne": 3486,
      "Ġimpress": 3487,
      "Ġliz": 3488,
      "Ġmeal": 3489,
      "Ġdeliver": 3490,
      "Ġacorn": 3491,
      "ĠBobo": 3492,
      "Ġseeds": 3493,
      "ision": 3494,
      "robe": 3495,
      "Ġuncomfort": 3496,
      "Ġaunt": 3497,
      "isk": 3498,
      "ugged": 3499,
      "Ġuncomfortable": 3500,
      "Ġcur": 3501,
      "Ġbees": 3502,
      "ĠEllie": 3503,
      "Ġdoesn": 3504,
      "Ġrubb": 3505,
      "Ġmissing": 3506,
      "tter": 3507,
      "illa": 3508,
      "Ġscatter": 3509,
      "Ġzip": 3510,
      "ations": 3511,
      "Ġrefused": 3512,
      "Ġenv": 3513,
      "Ġdriving": 3514,
      "Ġpige": 3515,
      "Ġtied": 3516,
      "Ġflex": 3517,
      "Ġcrocodile": 3518,
      "Ġspilled": 3519,
      "Ġorder": 3520,
      "Ġguard": 3521,
      "Ġpenny": 3522,
      "Ġrubbed": 3523,
      "Ġstops": 3524,
      "Ġcomplet": 3525,
      "Ġtwirled": 3526,
      "See": 3527,
      "Ġer": 3528,
      "Ġwing": 3529,
      "Ġingredients": 3530,
      "Ġadvice": 3531,
      "Ġattic": 3532,
      "Ġpersistent": 3533,
      "Ġtrump": 3534,
      "ÅĵWhat": 3535,
      "Ġthinking": 3536,
      "Ġwitch": 3537,
      "ellig": 3538,
      "Ġhelm": 3539,
      "ÅĵLetÃ¢": 3540,
      "Ġload": 3541,
      "Ġintellig": 3542,
      "Ġhanded": 3543,
      "Ġtravel": 3544,
      "Ġperm": 3545,
      "Ġsink": 3546,
      "Ġdust": 3547,
      "Ġsorts": 3548,
      "arsh": 3549,
      "Ġumbrella": 3550,
      "het": 3551,
      "ĠYour": 3552,
      "Ġjug": 3553,
      "ÅĵIt": 3554,
      "Ġrub": 3555,
      "Ġbarber": 3556,
      "Ġotter": 3557,
      "Ġanx": 3558,
      "Ġpatch": 3559,
      "Ġearly": 3560,
      "Ġbent": 3561,
      "uddy": 3562,
      "Ġsquash": 3563,
      "Ġsleeping": 3564,
      "Ġquestion": 3565,
      "Ġcreate": 3566,
      "Ġchasing": 3567,
      "Ġsurf": 3568,
      "Ġcooking": 3569,
      "Ġdestro": 3570,
      "Ġtask": 3571,
      "Ġscale": 3572,
      "Ġrose": 3573,
      "aghet": 3574,
      "Ġplaced": 3575,
      "Ġflexible": 3576,
      "aghetti": 3577,
      "awn": 3578,
      "ict": 3579,
      "Ġcelebrate": 3580,
      "Ġshut": 3581,
      "Ġuncle": 3582,
      "fa": 3583,
      "Ġcounting": 3584,
      "Ġanxious": 3585,
      "Ġnature": 3586,
      "Ġbrace": 3587,
      "Ġdiscover": 3588,
      "Ġslides": 3589,
      "Ġgasped": 3590,
      "Ġstage": 3591,
      "Ġspaghetti": 3592,
      "Ġcrazy": 3593,
      "Ġhumble": 3594,
      "Ġharmless": 3595,
      "Ġrug": 3596,
      "Ġscoot": 3597,
      "Ġsunflower": 3598,
      "llip": 3599,
      "Ġeng": 3600,
      "Ġbeauty": 3601,
      "Ġbutterflies": 3602,
      "Ġcreatures": 3603,
      "llipop": 3604,
      "Ġmask": 3605,
      "Ġresist": 3606,
      "ĠAlex": 3607,
      "Ġlibrary": 3608,
      "io": 3609,
      "Ġblueber": 3610,
      "Ġencou": 3611,
      "Ġimpressive": 3612,
      "Ġshocked": 3613,
      "Ġtruth": 3614,
      "Ġsnuggled": 3615,
      "Ġlizard": 3616,
      "Ġtor": 3617,
      "ince": 3618,
      "Ġknock": 3619,
      "Ġsquare": 3620,
      "Ġsett": 3621,
      "Ġordinary": 3622,
      "iches": 3623,
      "ĠcouldnÃ¢": 3624,
      "Ġpale": 3625,
      "Ġshield": 3626,
      "Ġlollipop": 3627,
      "Ġtrumpet": 3628,
      "Ġvol": 3629,
      "cano": 3630,
      "ĠMandy": 3631,
      "Ġrece": 3632,
      "ud": 3633,
      "loo": 3634,
      "Ġcush": 3635,
      "ĠMike": 3636,
      "Ġdisg": 3637,
      "Ġspring": 3638,
      "orant": 3639,
      "Ġspeed": 3640,
      "Ġcricket": 3641,
      "Ġhung": 3642,
      "Ġmill": 3643,
      "Ġgum": 3644,
      "ĠSn": 3645,
      "ric": 3646,
      "Ġtowers": 3647,
      "Ġbrighter": 3648,
      "ĠKim": 3649,
      "ophie": 3650,
      "Ġpants": 3651,
      "used": 3652,
      "host": 3653,
      "Ġdisgust": 3654,
      "Ġimpat": 3655,
      "Ġbadly": 3656,
      "uper": 3657,
      "Ġchance": 3658,
      "Ġattract": 3659,
      "Ġdolphin": 3660,
      "Ġitself": 3661,
      "ĠFr": 3662,
      "Ġreading": 3663,
      "ĠToby": 3664,
      "Ġcrane": 3665,
      "Ġobject": 3666,
      "Ġcharming": 3667,
      "Ġahead": 3668,
      "arian": 3669,
      "Ġpepper": 3670,
      "Ġholds": 3671,
      "Ġenth": 3672,
      "Ġneat": 3673,
      "Ġspoke": 3674,
      "noon": 3675,
      "Ġafternoon": 3676,
      "Ġstickers": 3677,
      "Ġopens": 3678,
      "Ġmath": 3679,
      "Ġghost": 3680,
      "Ġsadly": 3681,
      "ĠLook": 3682,
      "Ġcomb": 3683,
      "htub": 3684,
      "Ġanywhere": 3685,
      "Ġwheels": 3686,
      "Ġphot": 3687,
      "Ġcourage": 3688,
      "Ġstatue": 3689,
      "Ġwindows": 3690,
      "Ġbathtub": 3691,
      "Ġignorant": 3692,
      "Ġstretched": 3693,
      "Ġimpatient": 3694,
      "Ġdug": 3695,
      "Ġstation": 3696,
      "Ġcact": 3697,
      "ebra": 3698,
      "Ġmagnet": 3699,
      "Ġenthus": 3700,
      "Ġintelligent": 3701,
      "Ġtem": 3702,
      "Ġcarp": 3703,
      "Ġdrawer": 3704,
      "Ġsandwiches": 3705,
      "Ġsend": 3706,
      "Ġleop": 3707,
      "Ġmeas": 3708,
      "Ġtrick": 3709,
      "Ġled": 3710,
      "Ġgifted": 3711,
      "coa": 3712,
      "Ġshoe": 3713,
      "Ġcartoon": 3714,
      "Ġfearful": 3715,
      "Ġvolcano": 3716,
      "aid": 3717,
      "Ġpiano": 3718,
      "Ġletters": 3719,
      "Ġmelon": 3720,
      "Ġcocoa": 3721,
      "Ġcupboard": 3722,
      "aurant": 3723,
      "Ġnail": 3724,
      "Ġflour": 3725,
      "Ġzebra": 3726,
      "Ġsplit": 3727,
      "Ġcollar": 3728,
      "cu": 3729,
      "Ġrestaurant": 3730,
      "Ġfurther": 3731,
      "Ġnames": 3732,
      "Ġbase": 3733,
      "aches": 3734,
      "Ġcompassionate": 3735,
      "Ġgloomy": 3736,
      "bled": 3737,
      "Ġpebble": 3738,
      "Ġcompetitive": 3739,
      "Ġcactus": 3740,
      "Ġmay": 3741,
      "stri": 3742,
      "aby": 3743,
      "gu": 3744,
      "iest": 3745,
      "ĠHere": 3746,
      "ices": 3747,
      "Ġimpro": 3748,
      "Ġnuts": 3749,
      "Ġdestroy": 3750,
      "Go": 3751,
      "ĠPat": 3752,
      "Ġnowhere": 3753,
      "Ġjeep": 3754,
      "Ġpracticed": 3755,
      "Ġcamp": 3756,
      "Ġseal": 3757,
      "Ġjet": 3758,
      "ÅĵYes": 3759,
      "Ġrestless": 3760,
      "Ġhurry": 3761,
      "Ġpigeon": 3762,
      "ikes": 3763,
      "Ġshine": 3764,
      "ĠEverything": 3765,
      "Ġfirework": 3766,
      "Ġengine": 3767,
      "Ġtire": 3768,
      "Ġpurse": 3769,
      "Ġgir": 3770,
      "Ġyawn": 3771,
      "Ġener": 3772,
      "ibb": 3773,
      "Ġhipp": 3774,
      "Ġpretending": 3775,
      "Ġadmire": 3776,
      "Mary": 3777,
      "oe": 3778,
      "ĠSm": 3779,
      "Ġsofa": 3780,
      "Ġpackage": 3781,
      "Ġhunter": 3782,
      "Ġshaking": 3783,
      "ĠWh": 3784,
      "Ġtrash": 3785,
      "Ġdisgusting": 3786,
      "ips": 3787,
      "Ġsupport": 3788,
      "Ġjumps": 3789,
      "Ġenvious": 3790,
      "Ow": 3791,
      "Ġpony": 3792,
      "Ġanyway": 3793,
      "Ġdeaf": 3794,
      "aff": 3795,
      "Ġtap": 3796,
      "opus": 3797,
      "ctopus": 3798,
      "ĠJoey": 3799,
      "Ġcooked": 3800,
      "Ġtur": 3801,
      "ĠLola": 3802,
      "Ġraven": 3803,
      "Ġhuman": 3804,
      "ĠEventually": 3805,
      "Ġvalue": 3806,
      "Ġstack": 3807,
      "Ġspell": 3808,
      "Ġcompl": 3809,
      "Yay": 3810,
      "Ġmush": 3811,
      "Ġcandle": 3812,
      "Ġattractive": 3813,
      "Ġcarpet": 3814,
      "gn": 3815,
      "Ġbri": 3816,
      "erable": 3817,
      "ĠGrandpa": 3818,
      "Ġwheat": 3819,
      "Ġoctopus": 3820,
      "Ġswitch": 3821,
      "Ġbandage": 3822,
      "Ġcards": 3823,
      "Ġnobody": 3824,
      "Ġcats": 3825,
      "Ġmiserable": 3826,
      "ccol": 3827,
      "ĠPaul": 3828,
      "ccoli": 3829,
      "ceed": 3830,
      "ief": 3831,
      "Ġunpack": 3832,
      "ophone": 3833,
      "Ġtorn": 3834,
      "Ġsuper": 3835,
      "ĠCl": 3836,
      "Ġbracelet": 3837,
      "Ġleopard": 3838,
      "par": 3839,
      "Ġsepar": 3840,
      "Ġlaser": 3841,
      "Ġsalt": 3842,
      "Ġdecorate": 3843,
      "Ġsweater": 3844,
      "Ġbet": 3845,
      "Ġhelpless": 3846,
      "Ġwaff": 3847,
      "Ġsoar": 3848,
      "Ġreco": 3849,
      "Ġcryst": 3850,
      "Ġdistant": 3851,
      "cream": 3852,
      "Ġostri": 3853,
      "Ġrice": 3854,
      "ĠPe": 3855,
      "hood": 3856,
      "shed": 3857,
      "Ġdess": 3858,
      "Ġrules": 3859,
      "Alice": 3860,
      "ffe": 3861,
      "Ġalert": 3862,
      "Ġhedge": 3863,
      "aroo": 3864,
      "angaroo": 3865,
      "Ġfilthy": 3866,
      "Ġturkey": 3867,
      "Ġstarts": 3868,
      "ĠTweetie": 3869,
      "ffee": 3870,
      "year": 3871,
      "Ġax": 3872,
      "Ġol": 3873,
      "Ġgor": 3874,
      "Ġbackpack": 3875,
      "Ġclub": 3876,
      "Ġpengu": 3877,
      "ses": 3878,
      "Benny": 3879,
      "Ġsym": 3880,
      "ummer": 3881,
      "Ġolder": 3882,
      "Ġexplain": 3883,
      "uct": 3884,
      "ÅĵThat": 3885,
      "Ġthread": 3886,
      "Ġcows": 3887,
      "Ġgiggle": 3888,
      "zzy": 3889,
      "ĠAndy": 3890,
      "Ġbroccoli": 3891,
      "iron": 3892,
      "Ġstared": 3893,
      "Ġkangaroo": 3894,
      "Ġpressed": 3895,
      "Ġelev": 3896,
      "Ġfootball": 3897,
      "Ġhippo": 3898,
      "Ġtray": 3899,
      "Ġclapping": 3900,
      "cycle": 3901,
      "Ġparade": 3902,
      "Ġlively": 3903,
      "aked": 3904,
      "ailable": 3905,
      "Ġsucceed": 3906,
      "Ġpaws": 3907,
      "Ġsize": 3908,
      "Ġbicy": 3909,
      "Ġrolling": 3910,
      "Ġsticker": 3911,
      "gging": 3912,
      "Ġgolf": 3913,
      "Ġleash": 3914,
      "Ġchain": 3915,
      "ubby": 3916,
      "Ġbeep": 3917,
      "Ġgoal": 3918,
      "bol": 3919,
      "Ġmushroom": 3920,
      "Re": 3921,
      "Ġcurt": 3922,
      "orable": 3923,
      "Ġhappier": 3924,
      "Ġelevator": 3925,
      "cut": 3926,
      "Ġaxe": 3927,
      "Ġsymbol": 3928,
      "Ġcurtain": 3929,
      "Ġhook": 3930,
      "Ġhive": 3931,
      "Ġpun": 3932,
      "urb": 3933,
      "Ġavailable": 3934,
      "Ġhelmet": 3935,
      "Ġvine": 3936,
      "apa": 3937,
      "Ġdisturb": 3938,
      "Ġmicr": 3939,
      "Ġsilver": 3940,
      "Ġmug": 3941,
      "Ġquite": 3942,
      "Ġdessert": 3943,
      "If": 3944,
      "Ġoy": 3945,
      "Ġjokes": 3946,
      "Ġbounced": 3947,
      "aulif": 3948,
      "Ġharsh": 3949,
      "Ġtrop": 3950,
      "ĠPolly": 3951,
      "Ġrod": 3952,
      "Ġcountry": 3953,
      "Ġscooter": 3954,
      "Ġsoldier": 3955,
      "Ġavoc": 3956,
      "ĠBear": 3957,
      "Ġcoffee": 3958,
      "Ġcolours": 3959,
      "Ġexper": 3960,
      "Everyone": 3961,
      "heart": 3962,
      "inking": 3963,
      "ĠBuddy": 3964,
      "Ġskip": 3965,
      "Ġneedle": 3966,
      "Ġadorable": 3967,
      "Ġmessage": 3968,
      "Ġpushing": 3969,
      "Ġtreasures": 3970,
      "Ġstirred": 3971,
      "ĠBill": 3972,
      "ĠWhere": 3973,
      "Ġpainter": 3974,
      "Ġsecond": 3975,
      "Ġneighbour": 3976,
      "Ġorganize": 3977,
      "Ġroared": 3978,
      "Ġframe": 3979,
      "Ġmicrophone": 3980,
      "Ġcord": 3981,
      "Ġur": 3982,
      "Ġsomewhere": 3983,
      "Ġsteps": 3984,
      "Ġrecogn": 3985,
      "Ġostrich": 3986,
      "Ġtrophy": 3987,
      "Ġfu": 3988,
      "Ġcaulif": 3989,
      "Ġhall": 3990,
      "ĠGive": 3991,
      "Ġriding": 3992,
      "Ġcushion": 3993,
      "ĠSmith": 3994,
      "Ġgorilla": 3995,
      "ef": 3996,
      "ipping": 3997,
      "Ġsent": 3998,
      "Ġbin": 3999,
      "Ġstarting": 4000,
      "ĠGeorge": 4001,
      "Ġbarrel": 4002,
      "Ġrepe": 4003,
      "Ġwishes": 4004,
      "Ġmodest": 4005,
      "ws": 4006,
      "Ġoat": 4007,
      "ĠSh": 4008,
      "Little": 4009,
      "Ġmuff": 4010,
      "Ġchubby": 4011,
      "Ġuniver": 4012,
      "Ġpolish": 4013,
      "ĠGrace": 4014,
      "Ġradio": 4015,
      "ĠAre": 4016,
      "stairs": 4017,
      "Ġshouts": 4018,
      "Ġforgave": 4019,
      "Ġcooler": 4020,
      "Ġpilot": 4021,
      "Ġsle": 4022,
      "elery": 4023,
      "Ġvi": 4024,
      "Ġgiven": 4025,
      "iskers": 4026,
      "night": 4027,
      "ĠdidnÃ¢": 4028,
      "Ġart": 4029,
      "Ġholes": 4030,
      "Ġeras": 4031,
      "Ġluck": 4032,
      "Ġonion": 4033,
      "Ġthief": 4034,
      "Ġspir": 4035,
      "Ġpaid": 4036,
      "Ġvisited": 4037,
      "Ġzoomed": 4038,
      "ĠBrownie": 4039,
      "Ġlear": 4040,
      "Ġlistening": 4041,
      "Ġbehave": 4042,
      "Ġtriang": 4043,
      "Ġcostume": 4044,
      "Ġbicycle": 4045,
      "stic": 4046,
      "Ġscold": 4047,
      "Ġbarking": 4048,
      "Ġstretch": 4049,
      "Ġlearnt": 4050,
      "Ġshort": 4051,
      "Ġpulls": 4052,
      "Ġcrystal": 4053,
      "az": 4054,
      "ube": 4055,
      "aled": 4056,
      "Ġlightning": 4057,
      "Ġobser": 4058,
      "Ġspeak": 4059,
      "ci": 4060,
      "render": 4061,
      "Ġcase": 4062,
      "Ġlip": 4063,
      "Ġended": 4064,
      "ebook": 4065,
      "ooped": 4066,
      "Ġkay": 4067,
      "ĠJerry": 4068,
      "Give": 4069,
      "eer": 4070,
      "Ġnotebook": 4071,
      "Ġbreat": 4072,
      "Ġtroubled": 4073,
      "hino": 4074,
      "Ġten": 4075,
      "Ġpor": 4076,
      "Ġhadn": 4077,
      "Ġsort": 4078,
      "Ġswinging": 4079,
      "Ġmixer": 4080,
      "Ġshopkeeper": 4081,
      "Ġsummer": 4082,
      "astic": 4083,
      "iastic": 4084,
      "Ġhoping": 4085,
      "olin": 4086,
      "Ġshrimp": 4087,
      "Ġshelter": 4088,
      "Ġenthusiastic": 4089,
      "Ġcauliflower": 4090,
      "ĠRed": 4091,
      "Ġfive": 4092,
      "kelet": 4093,
      "Ġprov": 4094,
      "Ġfilm": 4095,
      "Daisy": 4096,
      "Ġpeach": 4097,
      "Ġcomet": 4098,
      "iling": 4099,
      "ĠSandy": 4100,
      "ucked": 4101,
      "Ġdishes": 4102,
      "arlie": 4103,
      "Ġfrowned": 4104,
      "reci": 4105,
      "Ġtripped": 4106,
      "Ġpoint": 4107,
      "Ġrespectful": 4108,
      "Ġenergy": 4109,
      "Bye": 4110,
      "Ġcelery": 4111,
      "Ġpipe": 4112,
      "Ġstrugg": 4113,
      "Ġmonkeys": 4114,
      "Ġquar": 4115,
      "Ġpair": 4116,
      "Ġmarched": 4117,
      "Ġsailor": 4118,
      "Ġrepair": 4119,
      "happy": 4120,
      "Ġtube": 4121,
      "Ġrhino": 4122,
      "Ġreind": 4123,
      "Ġwallet": 4124,
      "Ġspirit": 4125,
      "keleton": 4126,
      "Ġdive": 4127,
      "Ġpad": 4128,
      "Ġgro": 4129,
      "Ġbuzz": 4130,
      "Ġevening": 4131,
      "Ġappreci": 4132,
      "Ġfireman": 4133,
      "Ġairport": 4134,
      "Ġgrapes": 4135,
      "Ġeither": 4136,
      "Ġyach": 4137,
      "Ġclimbing": 4138,
      "Ġants": 4139,
      "Ġfort": 4140,
      "Ġpushes": 4141,
      "Ġrescue": 4142,
      "Ġtrains": 4143,
      "Ġdrawings": 4144,
      "Ġunlock": 4145,
      "Ġeraser": 4146,
      "azz": 4147,
      "Ġtax": 4148,
      "Ġtemp": 4149,
      "Ġped": 4150,
      "agg": 4151,
      "anda": 4152,
      "Ġtricks": 4153,
      "Ġraining": 4154,
      "Ġlions": 4155,
      "âĤ¬âĢľ": 4156,
      "Ġribb": 4157,
      "Ġthanks": 4158,
      "ron": 4159,
      "Ġiron": 4160,
      "enry": 4161,
      "Ġreef": 4162,
      "Ġmeat": 4163,
      "Ġbubble": 4164,
      "Ġmild": 4165,
      "Ġchecked": 4166,
      "Ġsurrender": 4167,
      "Ġloop": 4168,
      "Ġincl": 4169,
      "Ġstuffed": 4170,
      "Ġreindeer": 4171,
      "Ġyacht": 4172,
      "Ġskeleton": 4173,
      "Ġboots": 4174,
      "ĠTr": 4175,
      "Ġfinds": 4176,
      "Ġbears": 4177,
      "Ġbikes": 4178,
      "Ġlid": 4179,
      "anic": 4180,
      "Ġstom": 4181,
      "ĠMillie": 4182,
      "Ġcomplete": 4183,
      "ĠWhiskers": 4184,
      "Ġinsist": 4185,
      "chanic": 4186,
      "Ġvest": 4187,
      "Ġunhappy": 4188,
      "Ġstrawberry": 4189,
      "Ġleaned": 4190,
      "Ġtaxi": 4191,
      "Jenny": 4192,
      "ected": 4193,
      "Ġsweetheart": 4194,
      "Ġknot": 4195,
      "Ġvide": 4196,
      "sely": 4197,
      "reeze": 4198,
      "Ġallig": 4199,
      "Ġalive": 4200,
      "Ġchalk": 4201,
      "Ġsunset": 4202,
      "Ġappl": 4203,
      "Ġgrabs": 4204,
      "Ġtheater": 4205,
      "Ġsandbox": 4206,
      "angu": 4207,
      "Ġfle": 4208,
      "Ġlangu": 4209,
      "Ġmechanic": 4210,
      "Ġputting": 4211,
      "Ġskill": 4212,
      "Ġcube": 4213,
      "ĠPapa": 4214,
      "Ġshovel": 4215,
      "Ġsprink": 4216,
      "ĠSnow": 4217,
      "cast": 4218,
      "ccer": 4219,
      "eath": 4220,
      "ĠWould": 4221,
      "ĠRos": 4222,
      "ĠBunny": 4223,
      "ecause": 4224,
      "Daddy": 4225,
      "Ġsoccer": 4226,
      "icer": 4227,
      "Ġhaircut": 4228,
      "Ġfields": 4229,
      "Ġcable": 4230,
      "Ġbelt": 4231,
      "Ġstrip": 4232,
      "erc": 4233,
      "Ġsock": 4234,
      "Ġmarry": 4235,
      "Ġfisher": 4236,
      "ckey": 4237,
      "ĠLee": 4238,
      "Ġhockey": 4239,
      "Ġclosely": 4240,
      "Ġsaus": 4241,
      "Ġlaund": 4242,
      "Ġglove": 4243,
      "Ġsandcast": 4244,
      "Ġporch": 4245,
      "Ġmen": 4246,
      "ison": 4247,
      "Ġsheet": 4248,
      "Ġlime": 4249,
      "Ġapologized": 4250,
      "Ġlaundry": 4251,
      "Ġbul": 4252,
      "Ġwelcomed": 4253,
      "Ġcreated": 4254,
      "Ġperfectly": 4255,
      "ĠMaria": 4256,
      "Ġpeek": 4257,
      "edy": 4258,
      "play": 4259,
      "mand": 4260,
      "Ġpapers": 4261,
      "icop": 4262,
      "achel": 4263,
      "icopter": 4264,
      "Ha": 4265,
      "stead": 4266,
      "Ġweather": 4267,
      "Ġkitty": 4268,
      "Ġsoftly": 4269,
      "Ġpress": 4270,
      "Ġmama": 4271,
      "Ġrag": 4272,
      "Ġquit": 4273,
      "Ġraft": 4274,
      "Ġdisag": 4275,
      "Ġdiary": 4276,
      "Ġmotorcycle": 4277,
      "Ġkayak": 4278,
      "ĠSophie": 4279,
      "Ġshade": 4280,
      "Ġseeing": 4281,
      "ceros": 4282,
      "Ġoyster": 4283,
      "aggie": 4284,
      "Ġbulb": 4285,
      "any": 4286,
      "ĠRo": 4287,
      "Ġhelicopter": 4288,
      "Ġcrib": 4289,
      "Ġbur": 4290,
      "Ġpoem": 4291,
      "Ġblowing": 4292,
      "ween": 4293,
      "Ġrever": 4294,
      "Ġexerc": 4295,
      "Ġsneak": 4296,
      "Ġnapkin": 4297,
      "Ġattention": 4298,
      "Ġmedal": 4299,
      "Ġbetween": 4300,
      "chair": 4301,
      "Ġmule": 4302,
      "Ġjudge": 4303,
      "Ġtuna": 4304,
      "affe": 4305,
      "Ġwaving": 4306,
      "Ġlend": 4307,
      "ides": 4308,
      "ÅĵYou": 4309,
      "Ġcelebrated": 4310,
      "Grandma": 4311,
      "ories": 4312,
      "Ġdisplay": 4313,
      "Ġfalling": 4314,
      "Ġrhinoceros": 4315,
      "bul": 4316,
      "Ġlie": 4317,
      "seum": 4318,
      "Ġvend": 4319,
      "Ġpastry": 4320,
      "Ġphoto": 4321,
      "Ġpal": 4322,
      "Ġkingdom": 4323,
      "Ġmuseum": 4324,
      "Ġshouldn": 4325,
      "Ġhotel": 4326,
      "Ġchickens": 4327,
      "Ġsoil": 4328,
      "Ġbaking": 4329,
      "gen": 4330,
      "ito": 4331,
      "Ġrot": 4332,
      "Ġpole": 4333,
      "Ġsteak": 4334,
      "Ġarmchair": 4335,
      "Ġcounter": 4336,
      "Ġpetals": 4337,
      "Ġpowder": 4338,
      "Ġaer": 4339,
      "opl": 4340,
      "Ġsmells": 4341,
      "Ġaeropl": 4342,
      "una": 4343,
      "Ġtwink": 4344,
      "Ġbasketball": 4345,
      "Ġpage": 4346,
      "Ġpanda": 4347,
      "Ġfisherman": 4348,
      "Ġfreez": 4349,
      "Ġfishing": 4350,
      "Ġquarrel": 4351,
      "Ġinse": 4352,
      "Ġcane": 4353,
      "rosc": 4354,
      "Ġgolden": 4355,
      "Ġfeelings": 4356,
      "Ġtrail": 4357,
      "Ġminute": 4358,
      "Ġcardboard": 4359,
      "Ġviolin": 4360,
      "Ġgrocer": 4361,
      "Ġalligator": 4362,
      "ges": 4363,
      "unately": 4364,
      "Ġbreaks": 4365,
      "Ġradish": 4366,
      "Ġmicrosc": 4367,
      "Ġgiraffe": 4368,
      "Ġoil": 4369,
      "ense": 4370,
      "ĠWill": 4371,
      "Ġwife": 4372,
      "Ġfrogs": 4373,
      "Ġwinter": 4374,
      "Inside": 4375,
      "Ġglowing": 4376,
      "..": 4377,
      "quito": 4378,
      "Ġshoulder": 4379,
      "Ġpalace": 4380,
      "Ġmicroscope": 4381,
      "Ġstable": 4382,
      "Ġvet": 4383,
      "Ġtear": 4384,
      "Ġpresents": 4385,
      "ĠLilly": 4386,
      "Ġcups": 4387,
      "Ġimagine": 4388,
      "Ġdiscu": 4389,
      "Ġdrops": 4390,
      "Ġvendor": 4391,
      "ait": 4392,
      "eve": 4393,
      "Ġhut": 4394,
      "Ġflies": 4395,
      "Ġpassport": 4396,
      "Ġmemories": 4397,
      "Ġlawy": 4398,
      "Ġslept": 4399,
      "iture": 4400,
      "Ġshakes": 4401,
      "Ġchirp": 4402,
      "Ġflame": 4403,
      "urniture": 4404,
      "Ġheaded": 4405,
      "Ġforgotten": 4406,
      "Ġsailing": 4407,
      "iday": 4408,
      "Ġfauc": 4409,
      "Ġheads": 4410,
      "Ġeagerly": 4411,
      "Ġbananas": 4412,
      "Emma": 4413,
      "Ġfurniture": 4414,
      "Ġmos": 4415,
      "Ġplanet": 4416,
      "Ġrubber": 4417,
      "Ġswung": 4418,
      "Ġjourn": 4419,
      "Ġimagination": 4420,
      "Ġtoil": 4421,
      "aud": 4422,
      "Ġmaze": 4423,
      "Ġcherries": 4424,
      "inarian": 4425,
      "Ġoffer": 4426,
      "Ġtrave": 4427,
      "Ġambul": 4428,
      "eterinarian": 4429,
      "Ġbarks": 4430,
      "Ġmosquito": 4431,
      "ĠHarry": 4432,
      "low": 4433,
      "Ġtub": 4434,
      "ero": 4435,
      "imney": 4436,
      "Ġplayer": 4437,
      "Ġveterinarian": 4438,
      "ĠdonÃ¢": 4439,
      "Ġcrow": 4440,
      "Ġaccepted": 4441,
      "Ġskull": 4442,
      "Ġskirt": 4443,
      "Ġsprayed": 4444,
      "Today": 4445,
      "Ġjellyfish": 4446,
      "Ġfaucet": 4447,
      "Ġbreeze": 4448,
      "place": 4449,
      "Ġshower": 4450,
      "Ġdancer": 4451,
      "Ġceiling": 4452,
      "Ġavocado": 4453,
      "Ġstaff": 4454,
      "Ġchimney": 4455,
      "Ġmystery": 4456,
      "Ġplastic": 4457,
      "izes": 4458,
      "ippery": 4459,
      "ĠUn": 4460,
      "Ġflea": 4461,
      "Ġlanguage": 4462,
      "Ġtoilet": 4463,
      "Eventually": 4464,
      "Ġdressed": 4465,
      "Ġstraight": 4466,
      "Ġtriangle": 4467,
      "Next": 4468,
      "liday": 4469,
      "ues": 4470,
      "Ġholiday": 4471,
      "Ġslippery": 4472,
      "Ġmagaz": 4473,
      "Ġjournal": 4474,
      "Ch": 4475,
      "Ġlives": 4476,
      "urch": 4477,
      "Ġbaseball": 4478,
      "Ġambulance": 4479,
      "tress": 4480,
      "Ġreve": 4481,
      "Ġmattress": 4482,
      "Ġlawyer": 4483,
      "nger": 4484,
      "ĠKate": 4485,
      "elcome": 4486,
      "Ġmop": 4487,
      "Ġshouting": 4488,
      "ngth": 4489,
      "ĠInstead": 4490,
      "Ġstud": 4491,
      "Ġignored": 4492,
      "Ġcheek": 4493,
      "Ġstrength": 4494,
      "Ġinvest": 4495,
      "Ġitch": 4496,
      "Ġink": 4497,
      "ents": 4498,
      "rod": 4499,
      "Ġintrod": 4500,
      "Ġaeroplane": 4501,
      "Ġpine": 4502,
      "bbie": 4503,
      "Ġprevent": 4504,
      "Ġattach": 4505,
      "Ġrelaxed": 4506,
      "Ġseparate": 4507,
      "Ġapplaud": 4508,
      "Ġinvestig": 4509,
      "Ġsince": 4510,
      "Ġseas": 4511,
      "Ġworth": 4512,
      "Ġbury": 4513,
      "Ġcollected": 4514,
      "Ġclassroom": 4515,
      "uby": 4516,
      "Ġble": 4517,
      "Ġlawn": 4518,
      "ĠBaby": 4519,
      "Together": 4520,
      "Ġpirates": 4521,
      "ĠRosie": 4522,
      "Ġinf": 4523,
      "asis": 4524,
      "Ġbouncing": 4525,
      "Ġpuddles": 4526,
      "Ġsurround": 4527,
      "case": 4528,
      "asher": 4529,
      "washer": 4530,
      "Ġhar": 4531,
      "Ġsque": 4532,
      "anges": 4533,
      "Ġpinch": 4534,
      "Ġsung": 4535,
      "Ġfireplace": 4536,
      "Ġmarried": 4537,
      "Ġmeeting": 4538,
      "Ġdishwasher": 4539,
      "Ġyogurt": 4540,
      "lass": 4541,
      "Ġhappens": 4542,
      "Ġfog": 4543,
      "Ġbelongs": 4544,
      "ĠOr": 4545,
      "Ġwool": 4546,
      "Ġweep": 4547,
      "Ġburned": 4548,
      "Ġhanging": 4549,
      "Ġoasis": 4550,
      "Ġwriting": 4551,
      "Ġsquirrels": 4552,
      "Ġmistakes": 4553,
      "Ġwhisper": 4554,
      "ĠAnnie": 4555,
      "Ġpopped": 4556,
      "Ġmoves": 4557,
      "Ġargue": 4558,
      "Ġsniffed": 4559,
      "ives": 4560,
      "Ġaut": 4561,
      "ĠSu": 4562,
      "Ġyield": 4563,
      "Ġcob": 4564,
      "iately": 4565,
      "te": 4566,
      "Ġsir": 4567,
      "Your": 4568,
      "reek": 4569,
      "Ġdoors": 4570,
      "mediately": 4571,
      "Ġnovel": 4572,
      "ssible": 4573,
      "Ġflapped": 4574,
      "Ġgrin": 4575,
      "orses": 4576,
      "Ġfreezer": 4577,
      "Because": 4578,
      "Ġcreek": 4579,
      "ĠTony": 4580,
      "Ġgym": 4581,
      "une": 4582,
      "ĠBun": 4583,
      "Ġimprove": 4584,
      "chie": 4585,
      "Ġinvestigate": 4586,
      "Ġhorses": 4587,
      "ĠSee": 4588,
      "Ġpoke": 4589,
      "Ġward": 4590,
      "Ġsteam": 4591,
      "Ġblankets": 4592,
      "Ġthrowing": 4593,
      "web": 4594,
      "Ġchoice": 4595,
      "Ġscolded": 4596,
      "Ġwardrobe": 4597,
      "Ġpra": 4598,
      "Ġchess": 4599,
      "Thanks": 4600,
      "Ġhopes": 4601,
      "Ġbelow": 4602,
      "Ġparent": 4603,
      "ler": 4604,
      "ising": 4605,
      "Ġknown": 4606,
      "Ġagre": 4607,
      "Ġpoints": 4608,
      "Ġalarm": 4609,
      "Ġnews": 4610,
      "Ġcrawling": 4611,
      "Ġinsect": 4612,
      "ĠIÃ¢": 4613,
      "hero": 4614,
      "Ġzipper": 4615,
      "hic": 4616,
      "Ġpit": 4617,
      "Ġeaten": 4618,
      "Ġdear": 4619,
      "Ġentered": 4620,
      "Ġfolder": 4621,
      "Ġscrew": 4622,
      "Ġsuperhero": 4623,
      "imi": 4624,
      "ĠitÃ¢": 4625,
      "Ġrequ": 4626,
      "Ġquack": 4627,
      "Ġappro": 4628,
      "Ġvehic": 4629,
      "Ġcrossed": 4630,
      "ites": 4631,
      "chor": 4632,
      "Ġgreedy": 4633,
      "Ġsticky": 4634,
      "ÅĵItÃ¢": 4635,
      "Ġpenguin": 4636,
      "Ġcobweb": 4637,
      "right": 4638,
      "Ġwigg": 4639,
      "Ġcomplain": 4640,
      "house": 4641,
      "ĠJul": 4642,
      "Ġfactor": 4643,
      "Ġmustache": 4644,
      "Ġthrows": 4645,
      "lasses": 4646,
      "men": 4647,
      "vision": 4648,
      "Ġig": 4649,
      "Ġamazement": 4650,
      "ĠRachel": 4651,
      "Ġapart": 4652,
      "Ġsunglasses": 4653,
      "Ġigloo": 4654,
      "inked": 4655,
      "Ġchurch": 4656,
      "rs": 4657,
      "Ġstro": 4658,
      "Ġminer": 4659,
      "Ġsqueezed": 4660,
      "Ġherb": 4661,
      "ety": 4662,
      "Ġrake": 4663,
      "Ġopera": 4664,
      "Ġconf": 4665,
      "Ġsplashing": 4666,
      "Ġfactory": 4667,
      "Ġcared": 4668,
      "Ġfiref": 4669,
      "fortunately": 4670,
      "Ġregret": 4671,
      "ĠBet": 4672,
      "Ġairpl": 4673,
      "Ġveil": 4674,
      "Ġshrugged": 4675,
      "Ġfile": 4676,
      "Ġwipe": 4677,
      "mend": 4678,
      "rm": 4679,
      "ĊĠ": 4680,
      "Ġshrink": 4681,
      "Ġtelevision": 4682,
      "sit": 4683,
      "Ġfought": 4684,
      "Ġcell": 4685,
      "ores": 4686,
      "Ġboot": 4687,
      "Ġpear": 4688,
      "ups": 4689,
      "Ġrequest": 4690,
      "Ġbother": 4691,
      "omob": 4692,
      "Ġoak": 4693,
      "aces": 4694,
      "Ġfloat": 4695,
      "ring": 4696,
      "Ġthumb": 4697,
      "Ġswamp": 4698,
      "Ġincre": 4699,
      "Ġautomob": 4700,
      "mm": 4701,
      "ommend": 4702,
      "Ġbookcase": 4703,
      "Ġdemand": 4704,
      "Ġquietly": 4705,
      "ab": 4706,
      "lier": 4707,
      "Ġsuff": 4708,
      "Ġtherm": 4709,
      "Ġcaring": 4710,
      "Ġrecommend": 4711,
      "Ġanchor": 4712,
      "Ġknob": 4713,
      "Ġrail": 4714,
      "Mandy": 4715,
      "ĠJess": 4716,
      "Ġgrill": 4717,
      "Ġrooms": 4718,
      "Ġsparkle": 4719,
      "aw": 4720,
      "Ġsizes": 4721,
      "Ġpur": 4722,
      "atie": 4723,
      "Ġvac": 4724,
      "Ġringing": 4725,
      "Ġsqueeze": 4726,
      "'.": 4727,
      "Ġtucked": 4728,
      "ĠHelp": 4729,
      "Ġraz": 4730,
      "Ġsparkling": 4731,
      "Ġeasily": 4732,
      "Ġyoga": 4733,
      "Ġweigh": 4734,
      "Ġagree": 4735,
      "Sammy": 4736,
      "Ġsupply": 4737,
      "ĠGod": 4738,
      "uckily": 4739,
      "Ġblinked": 4740,
      "Ġthermomet": 4741,
      "amber": 4742,
      "Ġspear": 4743,
      "Ġsurprises": 4744,
      "Ġdelay": 4745,
      "Ġsafety": 4746,
      "ĠCharlie": 4747,
      "Ġrefre": 4748,
      "nam": 4749,
      "Ġhelper": 4750,
      "Ġblackboard": 4751,
      "Ġlemonade": 4752,
      "omes": 4753,
      "Ġmakeup": 4754,
      "Ġhills": 4755,
      "tain": 4756,
      "Ġbravely": 4757,
      "Ġunif": 4758,
      "Ġspending": 4759,
      "ĠTrue": 4760,
      "Ġvideo": 4761,
      "vet": 4762,
      "Ġtrusted": 4763,
      "Ġwandered": 4764,
      "Ġwags": 4765,
      "ĠDanny": 4766,
      "Ġlaught": 4767,
      "Ġmagazine": 4768,
      "Ġtug": 4769,
      "Ġhurting": 4770,
      "Ġteleph": 4771,
      "Ann": 4772,
      "Wait": 4773,
      "raged": 4774,
      "Ġmusician": 4775,
      "Ġvanished": 4776,
      "Ġcherry": 4777,
      "Ġjunk": 4778,
      "Ġearlier": 4779,
      "Ġthermometer": 4780,
      "Ġuniform": 4781,
      "cakes": 4782,
      "Ġreaches": 4783,
      "Ġquiz": 4784,
      "Ġletting": 4785,
      "Ġfallen": 4786,
      "Ġdisappear": 4787,
      "Ġmint": 4788,
      "Ġbattery": 4789,
      "Ġlaughter": 4790,
      "Ġtelephone": 4791,
      "Ġwaste": 4792,
      "ĠTed": 4793,
      "Ġsaving": 4794,
      "icing": 4795,
      "Ġcliff": 4796,
      "bor": 4797,
      "oral": 4798,
      "fume": 4799,
      "Ġprop": 4800,
      "Ġornam": 4801,
      "Ġraise": 4802,
      "Ġkisses": 4803,
      "Ġticket": 4804,
      "Ġtemple": 4805,
      "Ġisn": 4806,
      "Ġfastest": 4807,
      "Ġkeeping": 4808,
      "Ġunderstanding": 4809,
      "Ġapron": 4810,
      "Ġdestination": 4811,
      "Ġrazor": 4812,
      "ived": 4813,
      "Ġport": 4814,
      "Ġspade": 4815,
      "Ġhardly": 4816,
      "Ġflutter": 4817,
      "Ġskills": 4818,
      "Ġtoes": 4819,
      "Ġberry": 4820,
      "Ġyucky": 4821,
      "Ġperfume": 4822,
      "Ġcastles": 4823,
      "Ġbeef": 4824,
      "Ġserve": 4825,
      "Ġstrawberries": 4826,
      "Ġsettled": 4827,
      "ction": 4828,
      "Did": 4829,
      "Ġitem": 4830,
      "Ġrise": 4831,
      "ĠNext": 4832,
      "Ġmailman": 4833,
      "Ġprepare": 4834,
      "Ġinfant": 4835,
      "ĠEach": 4836,
      "Ġpoked": 4837,
      "Ġimmediately": 4838,
      "Ġfollowing": 4839,
      "ggy": 4840,
      "ĠClara": 4841,
      "Ġexperience": 4842,
      "ium": 4843,
      "Ġtong": 4844,
      "Ġdire": 4845,
      "Ġpalm": 4846,
      "Ġchamber": 4847,
      "Ġkneel": 4848,
      "Ġmuffin": 4849,
      "Ġvroom": 4850,
      "Ġchairs": 4851,
      "Ġinstr": 4852,
      "Ġscattered": 4853,
      "Ġharbor": 4854,
      "Ġlotion": 4855,
      "Ġoranges": 4856,
      "Ġremove": 4857,
      "Ġfollows": 4858,
      "Ġcabinet": 4859,
      "Ġdried": 4860,
      "âĤ¬.": 4861,
      "Ġcrash": 4862,
      "Ġhearts": 4863,
      "Ġblueberries": 4864,
      "Ġtut": 4865,
      "Ġweap": 4866,
      "ĠJames": 4867,
      "Ġleak": 4868,
      "Ġdresses": 4869,
      "Ġautomobile": 4870,
      "Ġwine": 4871,
      "ĠIts": 4872,
      "Ġwarmth": 4873,
      "Ġspots": 4874,
      "With": 4875,
      "Will": 4876,
      "Ġcalls": 4877,
      "Ġenter": 4878,
      "ĠSnowy": 4879,
      "Ġpraised": 4880,
      "Ġburied": 4881,
      "Ġgrowled": 4882,
      "Ġreverse": 4883,
      "Ġtrade": 4884,
      "Ġclaws": 4885,
      "ampoo": 4886,
      "Ġsnap": 4887,
      "Ġbeans": 4888,
      "Ġbeamed": 4889,
      "ĠWho": 4890,
      "Ġmatches": 4891,
      "Ġmoments": 4892,
      "Ġadmir": 4893,
      "Ġshooting": 4894,
      "sing": 4895,
      "ĠHenry": 4896,
      "Ġplates": 4897,
      "Ġscooped": 4898,
      "Ġcoal": 4899,
      "Ġpuzzles": 4900,
      "Qu": 4901,
      "ib": 4902,
      "Ġremain": 4903,
      "Ġfloating": 4904,
      "Ġvacation": 4905,
      "Ġpist": 4906,
      "Ġpride": 4907,
      "asp": 4908,
      "izard": 4909,
      "Ġbrain": 4910,
      "Ġpistol": 4911,
      "ah": 4912,
      "Ġdaisy": 4913,
      "lend": 4914,
      "sters": 4915,
      "alley": 4916,
      "Ġpoison": 4917,
      "Ġideas": 4918,
      "Ġexercise": 4919,
      "Ġlumber": 4920,
      "Ġpanic": 4921,
      "Is": 4922,
      "Ġsigh": 4923,
      "aped": 4924,
      "ival": 4925,
      "Welcome": 4926,
      "Ġrow": 4927,
      "ionary": 4928,
      "Ġmass": 4929,
      "osity": 4930,
      "Ġsimp": 4931,
      "anna": 4932,
      "Ġcalend": 4933,
      "Ġignore": 4934,
      "Ġbalan": 4935,
      "Ġcuddled": 4936,
      "ictionary": 4937,
      "Ġshampoo": 4938,
      "Ġdrain": 4939,
      "Ġdestroyed": 4940,
      "Ġcalendar": 4941,
      "Ġpages": 4942,
      "Ġmyself": 4943,
      "Lisa": 4944,
      "Ġachie": 4945,
      "Ġdictionary": 4946,
      "ĠMay": 4947,
      "Ġvalley": 4948,
      "Ġdifferen": 4949,
      "Ġrestore": 4950,
      "Ġyawned": 4951,
      "Ġribbon": 4952,
      "Peter": 4953,
      "big": 4954,
      "Ġga": 4955,
      "Ġrabbits": 4956,
      "Ġtaller": 4957,
      "Ġworms": 4958,
      "Ġcandles": 4959,
      "Ġjewelry": 4960,
      "omeday": 4961,
      "'ve": 4962,
      "osed": 4963,
      "ari": 4964,
      "Ġinclud": 4965,
      "Ġairplane": 4966,
      "Ġjazz": 4967,
      "ĠSpike": 4968,
      "Ġmelted": 4969,
      "Ġwaffle": 4970,
      "Ġinsisted": 4971,
      "Ġequ": 4972,
      "Ġstad": 4973,
      "ĠKing": 4974,
      "Ġapproached": 4975,
      "Ġstadium": 4976,
      "Ġdigg": 4977,
      "Ġgear": 4978,
      "Ġsnapped": 4979,
      "Ġcaptain": 4980,
      "Ġwashing": 4981,
      "Ġlicks": 4982,
      "ission": 4983,
      "Ġdigging": 4984,
      "Jen": 4985,
      "ls": 4986,
      "Ġsty": 4987,
      "Ġstruc": 4988,
      "Ġpermission": 4989,
      "bigail": 4990,
      "Ġstructure": 4991,
      "Ġbill": 4992,
      "Ġhomes": 4993,
      "Ġfest": 4994,
      "ĠJoy": 4995,
      "ĠCo": 4996,
      "Ġmissile": 4997,
      "Ġpatiently": 4998,
      "nies": 4999,
      "riger": 5000,
      "ĠMiss": 5001,
      "ĠMimi": 5002,
      "xture": 5003,
      "Ġfloated": 5004,
      "Ġinvite": 5005,
      "Ġrefriger": 5006,
      "Ġmeasured": 5007,
      "Ġrefrigerator": 5008,
      "Ġwizard": 5009,
      "ishing": 5010,
      "Ġsandcastle": 5011,
      "Ġsomeday": 5012,
      "Ġbegged": 5013,
      "Ġshot": 5014,
      "ĠDan": 5015,
      "antly": 5016,
      "Ġplanes": 5017,
      "Ġsub": 5018,
      "ĠBefore": 5019,
      "Ġweeks": 5020,
      "Ġvehicle": 5021,
      "Ġcrunch": 5022,
      "ĠRuby": 5023,
      "Ġbelieved": 5024,
      "ĠFreddy": 5025,
      "Ġsetting": 5026,
      "Ġsigns": 5027,
      "Ġreceived": 5028,
      "Ġres": 5029,
      "Ġalright": 5030,
      "ĠSteve": 5031,
      "Ġtongue": 5032,
      "Ġtutor": 5033,
      "Yuck": 5034,
      "Ġnone": 5035,
      "Ġexamine": 5036,
      "Ġfuel": 5037,
      "Ġstruggling": 5038,
      "All": 5039,
      "Ġsport": 5040,
      "Ġblood": 5041,
      "Ġteaching": 5042,
      "Ġsolved": 5043,
      "Ġsneeze": 5044,
      "Ġbumped": 5045,
      "Ġolive": 5046,
      "ops": 5047,
      "inky": 5048,
      "Ġmodel": 5049,
      "Ġscratch": 5050,
      "Fl": 5051,
      "Ġhers": 5052,
      "Ġblouse": 5053,
      "Ġparts": 5054,
      "Ġencouraged": 5055,
      "Ġbreathe": 5056,
      "Ġdiscuss": 5057,
      "Ġshed": 5058,
      "Ġchores": 5059,
      "Ġthrilled": 5060,
      "ĠRe": 5061,
      "Ġcoats": 5062,
      "Ġjewels": 5063,
      "Ġgrape": 5064,
      "Ġappreciate": 5065,
      "Ġtide": 5066,
      "Ġinvit": 5067,
      "ĠV": 5068,
      "Ġtore": 5069,
      "Ġlily": 5070,
      "Ġmention": 5071,
      "Ġplays": 5072,
      "Ġhits": 5073,
      "Ġbuzzing": 5074,
      "Ġchirping": 5075,
      "fy": 5076,
      "Ġdare": 5077,
      "Ġscore": 5078,
      "ĠPenny": 5079,
      "Ġpaused": 5080,
      "Ġpulling": 5081,
      "Johnny": 5082,
      "Ġbookshe": 5083,
      "Ġdeeper": 5084,
      "Ġbathe": 5085,
      "Ġcollecting": 5086,
      "Ġmarbles": 5087,
      "Ġbleed": 5088,
      "Ġbang": 5089,
      "Ġgust": 5090,
      "Ġunite": 5091,
      "Ġsparkles": 5092,
      "Ġstomach": 5093,
      "Ġnation": 5094,
      "Ġupstairs": 5095,
      "Ġprovide": 5096,
      "Ġsew": 5097,
      "Ġsupposed": 5098,
      "Ġburning": 5099,
      "Ġpunish": 5100,
      "Ġsausage": 5101,
      "Ġdifference": 5102,
      "Mark": 5103,
      "Ġjail": 5104,
      "Ġcub": 5105,
      "Ġclimbs": 5106,
      "iers": 5107,
      "htray": 5108,
      "Ġashtray": 5109,
      "Ġsunlight": 5110,
      "ĠEveryday": 5111,
      "Ġglowed": 5112,
      "ÅĵNo": 5113,
      "Ġattached": 5114,
      "Ġneighborhood": 5115,
      "fied": 5116,
      "uggage": 5117,
      "Ġlabel": 5118,
      "Ġtornado": 5119,
      "Ġfestival": 5120,
      "Not": 5121,
      "Ġluggage": 5122,
      "Ġwhip": 5123,
      "Ġnewsp": 5124,
      "ĠBuzz": 5125,
      "ĠPeople": 5126,
      "Ġreplace": 5127,
      "Ġwhistling": 5128,
      "Ġnewspap": 5129,
      "ĠHave": 5130,
      "allen": 5131,
      "Ġgirls": 5132,
      "Ġmanage": 5133,
      "ĠFo": 5134,
      "Ġjogging": 5135,
      "Ġteasp": 5136,
      "Ġwarning": 5137,
      "Ġteaspoon": 5138,
      "Ġhesit": 5139,
      "Ġeff": 5140,
      "These": 5141,
      "Ġlic": 5142,
      "ĠMaggie": 5143,
      "umble": 5144,
      "Ġbirdc": 5145,
      "Ġfasc": 5146,
      "Ġgifts": 5147,
      "Ġdiscovery": 5148,
      "Ġroot": 5149,
      "emember": 5150,
      "Ġtwisted": 5151,
      "Ġbookshelf": 5152,
      "Ġbirdcage": 5153,
      "act": 5154,
      "eed": 5155,
      "Ġmeowed": 5156,
      "Ġchallen": 5157,
      "Ġweapon": 5158,
      "Ġsip": 5159,
      "ĠTina": 5160,
      "Ġlaid": 5161,
      "Ġoper": 5162,
      "Ġcollection": 5163,
      "Ġcomfy": 5164,
      "Ġguy": 5165,
      "xy": 5166,
      "ĠLuna": 5167,
      "Ġdrinking": 5168,
      "Ġsafari": 5169,
      "Ġrush": 5170,
      "Ġsoldiers": 5171,
      "Ġbricks": 5172,
      "Ġrepeat": 5173,
      "Ġfut": 5174,
      "Ġemer": 5175,
      "ĠIs": 5176,
      "Ġranch": 5177,
      "Ġelephants": 5178,
      "Ġactually": 5179,
      "ities": 5180,
      "Ġstitch": 5181,
      "Ġremained": 5182,
      "Ġfuture": 5183,
      "Ġhanger": 5184,
      "Ġlick": 5185,
      "Ġchir": 5186,
      "Before": 5187,
      "bers": 5188,
      "Ġmall": 5189,
      "Ġgain": 5190,
      "Ġbeg": 5191,
      "Ġwatered": 5192,
      "Ġgrey": 5193,
      "ĠGood": 5194,
      "Ġsits": 5195,
      "Ġdecorations": 5196,
      "Ġawe": 5197,
      "Ġblueberry": 5198,
      "Ġmassage": 5199,
      "Ġfascin": 5200,
      "Ġchirped": 5201,
      "rise": 5202,
      "ĠLater": 5203,
      "Ġmeasuring": 5204,
      "do": 5205,
      "Ġscur": 5206,
      "Ġflood": 5207,
      "Ġcurled": 5208,
      "Ġurge": 5209,
      "Ġsprinkles": 5210,
      "Ġgrocery": 5211,
      "nie": 5212,
      "Ġbak": 5213,
      "Ġrhy": 5214,
      "Ġprayed": 5215,
      "allow": 5216,
      "Ġdecision": 5217,
      "ĠChirp": 5218,
      "Ġpatterns": 5219,
      "mother": 5220,
      "bbled": 5221,
      "ipment": 5222,
      "Ġwherever": 5223,
      "Ġcontain": 5224,
      "Ġbites": 5225,
      "Ġlicense": 5226,
      "Ġsore": 5227,
      "Ġwatches": 5228,
      "Ġfixing": 5229,
      "Ġsatis": 5230,
      "Ġbuildings": 5231,
      "Ġproblems": 5232,
      "Ġequipment": 5233,
      "oved": 5234,
      "Ġprice": 5235,
      "walk": 5236,
      "Ġtoe": 5237,
      "Ġfireworks": 5238,
      "Ġobserve": 5239,
      "Ok": 5240,
      "Ġcrunchy": 5241,
      "Ġfed": 5242,
      "Ġlect": 5243,
      "Ġworse": 5244,
      "Ġtease": 5245,
      "Ġraised": 5246,
      "Ġcrashed": 5247,
      "Ġeasier": 5248,
      "sity": 5249,
      "utty": 5250,
      "Ġsunrise": 5251,
      "Ġzero": 5252,
      "Ġvel": 5253,
      "Emily": 5254,
      "Ġnewspaper": 5255,
      "Ġcakes": 5256,
      "Ġsoared": 5257,
      "Ġinvitation": 5258,
      "Ġlecture": 5259,
      "Ġvelvet": 5260,
      "Mmm": 5261,
      "ude": 5262,
      "Ġduring": 5263,
      "Ġpigs": 5264,
      "Ġwhistled": 5265,
      "Ġsliding": 5266,
      "Ġmemory": 5267,
      "Ġsuffer": 5268,
      "\",": 5269,
      "Ġracing": 5270,
      "Ġpeanuts": 5271,
      "Ġreceive": 5272,
      "Ġgrinned": 5273,
      "Ġeffort": 5274,
      "!'": 5275,
      "ging": 5276,
      "Ġflav": 5277,
      "thm": 5278,
      "Ġsidewalk": 5279,
      "Ġbathrobe": 5280,
      "Ġstrang": 5281,
      "Ġclearing": 5282,
      "ÅĵThatÃ¢": 5283,
      "Ġrefreshed": 5284,
      "Ġmitten": 5285,
      "seek": 5286,
      "Ġtremb": 5287,
      "Ġpeered": 5288,
      "Ġzipped": 5289,
      "Ġplanted": 5290,
      "Ġearthqu": 5291,
      "Ġrecognized": 5292,
      "Ouch": 5293,
      "Ġbes": 5294,
      "Ġbeat": 5295,
      "Ġsocks": 5296,
      "Ġdoggy": 5297,
      "Ġskipping": 5298,
      "Ġappear": 5299,
      "Ġmarching": 5300,
      "ĠOllie": 5301,
      "Ġwre": 5302,
      "Ġwid": 5303,
      "Ġremem": 5304,
      "Ġturning": 5305,
      "Ġchewed": 5306,
      "Ġcartoons": 5307,
      "Ġsurrounded": 5308,
      "cles": 5309,
      "uing": 5310,
      "Ġwarn": 5311,
      "Ġbrick": 5312,
      "Ġsimple": 5313,
      "Ġbillboard": 5314,
      "cious": 5315,
      "Ġcompany": 5316,
      "Ġrespons": 5317,
      "Ġtracks": 5318,
      "Ġremembers": 5319,
      "Jake": 5320,
      "son": 5321,
      "Ġrust": 5322,
      "ĠMat": 5323,
      "Ġspit": 5324,
      "Ġbrus": 5325,
      "Ġhated": 5326,
      "Ġpastel": 5327,
      "ÅĵIÃ¢": 5328,
      "Ġhurric": 5329,
      "Ġrhythm": 5330,
      "oming": 5331,
      "Ġonwards": 5332,
      "aded": 5333,
      "Ġpossible": 5334,
      "Ġrested": 5335,
      "Ġbuckle": 5336,
      "Ġsnail": 5337,
      "Ġfirefight": 5338,
      "Ġheat": 5339,
      "Ġescaped": 5340,
      "Ġdinosaurs": 5341,
      "Ġadmiring": 5342,
      "Ġstrangers": 5343,
      "Ġleather": 5344,
      "Ġslice": 5345,
      "Ġordered": 5346,
      "Ġuniverse": 5347,
      "Ġoperation": 5348,
      "Ġhurricane": 5349,
      "Ġworks": 5350,
      "Ġlands": 5351,
      "Ġmountains": 5352,
      "Ġtomatoes": 5353,
      "Ġuniversity": 5354,
      "Ġmineral": 5355,
      "Ġpitch": 5356,
      "Ġhappiest": 5357,
      "Ġwanting": 5358,
      "!\",": 5359,
      "Ġours": 5360,
      "Ġcontinue": 5361,
      "Ġtwigs": 5362,
      "Ġdisagreed": 5363,
      "Ġbeside": 5364,
      "ĠMilly": 5365,
      "Ġhurried": 5366,
      "Moral": 5367,
      "Ġhate": 5368,
      "atch": 5369,
      "Ġnavy": 5370,
      "amie": 5371,
      "ĠMe": 5372,
      "Ġweren": 5373,
      "Ġrevealed": 5374,
      "Ġstyle": 5375,
      "loe": 5376,
      "Ġrained": 5377,
      "Ġperched": 5378,
      "Ġseats": 5379,
      "unday": 5380,
      "apping": 5381,
      "Ġobe": 5382,
      "Ġspaces": 5383,
      "Ġserved": 5384,
      "Ġfolded": 5385,
      "Ġprepared": 5386,
      "Ġoats": 5387,
      "Ġreminder": 5388,
      "Ġmenu": 5389,
      "ases": 5390,
      "Ġshopping": 5391,
      "Ġmouths": 5392,
      "Ġselling": 5393,
      "Ġagreement": 5394,
      "Ġearthquake": 5395,
      "cc": 5396,
      "adly": 5397,
      "Ġweight": 5398,
      "Ġpoppy": 5399,
      "Ġbrand": 5400,
      "Ġcrept": 5401,
      "Ġpracticing": 5402,
      "Would": 5403,
      "ĠSunday": 5404,
      "Ġkeeper": 5405,
      "Ġbringing": 5406,
      "Ġpupil": 5407,
      "hest": 5408,
      "Ġevent": 5409,
      "ddy": 5410,
      "ĠLiz": 5411,
      "Ġpaints": 5412,
      "Ġsecrets": 5413,
      "Ġcircus": 5414,
      "Ġwisdom": 5415,
      "Ġsings": 5416,
      "Ġfash": 5417,
      "Ġkindly": 5418,
      "Ġmonsters": 5419,
      "Ġanswers": 5420,
      "mble": 5421,
      "enty": 5422,
      "Ġeveryday": 5423,
      "Ġslip": 5424,
      "Ġpetted": 5425,
      "Ġdrinks": 5426,
      "Ġsettle": 5427,
      "Ġmister": 5428,
      "amb": 5429,
      "indy": 5430,
      "ĠFro": 5431,
      "Ġfamil": 5432,
      "ÅĵWe": 5433,
      "Ġspoons": 5434,
      "Sh": 5435,
      "Tweet": 5436,
      "Yum": 5437,
      "dam": 5438,
      "ĠAbigail": 5439,
      "Ġcopper": 5440,
      "Ġanytime": 5441,
      "Ġimage": 5442,
      "ĠNutty": 5443,
      "Ġcuriosity": 5444,
      "Ġswims": 5445,
      "Ġprecious": 5446,
      "Ġsneezed": 5447,
      "Ġobey": 5448,
      "Susie": 5449,
      "Ġbrings": 5450,
      "Ġrang": 5451,
      "Ġmuddy": 5452,
      "Ġtalent": 5453,
      "Ġguessed": 5454,
      "igz": 5455,
      "Ġspill": 5456,
      "Ġtrapped": 5457,
      "Ġcomple": 5458,
      "Ġvisiting": 5459,
      "len": 5460,
      "Ġbare": 5461,
      "Ġtremble": 5462,
      "Ġgotten": 5463,
      "Ġcutting": 5464,
      "Ġvillag": 5465,
      "Ġapologize": 5466,
      "Ġscratched": 5467,
      "Ġpotatoes": 5468,
      "Ġbeneath": 5469,
      "ĠSomeone": 5470,
      "Ro": 5471,
      "ĠTiny": 5472,
      "Ġpedal": 5473,
      "ĠBetsy": 5474,
      "Ġsubway": 5475,
      "Le": 5476,
      "tory": 5477,
      "Ġhistory": 5478,
      "Ġweighed": 5479,
      "Ġstruggled": 5480,
      "ĠZoe": 5481,
      "Ġpermit": 5482,
      "Ġolives": 5483,
      "Ready": 5484,
      "Ġitems": 5485,
      "Ex": 5486,
      "Ġx": 5487,
      "ĠJe": 5488,
      "Ġknelt": 5489,
      "Ġmeow": 5490,
      "Ġflap": 5491,
      "Ġbeds": 5492,
      "Ġwaits": 5493,
      "ĠKatie": 5494,
      "Ġfashion": 5495,
      "Ġcal": 5496,
      "Ġglitter": 5497,
      "Ġcreation": 5498,
      "ĠNot": 5499,
      "Ġpillows": 5500,
      "ding": 5501,
      "ley": 5502,
      "ĠHoppy": 5503,
      "Ġofficer": 5504,
      "ĠLetÃ¢": 5505,
      "Ġwaffles": 5506,
      "Really": 5507,
      "ĠChirpy": 5508,
      "terday": 5509,
      "anta": 5510,
      "izing": 5511,
      "Ġcatching": 5512,
      "Ġactiv": 5513,
      "Ġargued": 5514,
      "Ġsucceeded": 5515,
      "Ġcostumes": 5516,
      "Ġpadd": 5517,
      "neath": 5518,
      "Ġsix": 5519,
      "Ġbones": 5520,
      "Ġmice": 5521,
      "riage": 5522,
      "ĠCat": 5523,
      "Ġgrandmother": 5524,
      "Ġornament": 5525,
      "First": 5526,
      "Ġscoop": 5527,
      "Ġbowed": 5528,
      "Ġscreams": 5529,
      "Ġzooming": 5530,
      "Ġneighbourhood": 5531,
      "Ġfascinated": 5532,
      "Ġvillagers": 5533,
      "Dave": 5534,
      "uke": 5535,
      "Ġbun": 5536,
      "Ġarea": 5537,
      "ĠFirst": 5538,
      "Ġexamined": 5539,
      "looking": 5540,
      "Ġlips": 5541,
      "Fluffy": 5542,
      "Ġexact": 5543,
      "Ġlets": 5544,
      "Ġstudied": 5545,
      "Ġpeel": 5546,
      "Ġglo": 5547,
      "ĠCla": 5548,
      "joyed": 5549,
      "Ġshadows": 5550,
      "rin": 5551,
      "Ġsoaring": 5552,
      "Ġoverjoyed": 5553,
      "ÅĵThank": 5554,
      "Ġcomforted": 5555,
      "Ġpinched": 5556,
      "xygen": 5557,
      "Ġbegin": 5558,
      "Ġwaist": 5559,
      "etch": 5560,
      "Ġwhatever": 5561,
      "Ġpets": 5562,
      "Ġfreeze": 5563,
      "ĠHowever": 5564,
      "igzag": 5565,
      "Ġsitu": 5566,
      "Ġlemons": 5567,
      "Ġspaceship": 5568,
      "Ġgained": 5569,
      "Ġrides": 5570,
      "Ġencourage": 5571,
      "kins": 5572,
      "Ġdecides": 5573,
      "Ġvowed": 5574,
      "Ġtune": 5575,
      "ĠRemy": 5576,
      "omething": 5577,
      "Ġbrushed": 5578,
      "Ġsadness": 5579,
      "Ġdisturbed": 5580,
      "ĠSuzy": 5581,
      "Ġwreck": 5582,
      "Luckily": 5583,
      "ears": 5584,
      "gers": 5585,
      "Ġtip": 5586,
      "icorn": 5587,
      "Ġunicorn": 5588,
      "Ġbunnies": 5589,
      "Ġstruck": 5590,
      "ĠPoppy": 5591,
      "avid": 5592,
      "Andy": 5593,
      "Ġsting": 5594,
      "Ġoutdo": 5595,
      "Ġwooden": 5596,
      "Ġdrift": 5597,
      "Ġpancakes": 5598,
      "ien": 5599,
      "ĠOnce": 5600,
      "Ġallow": 5601,
      "Ġwond": 5602,
      "Ġaccidents": 5603,
      "Ġmarkers": 5604,
      "Ġeagle": 5605,
      "Ġsatisfied": 5606,
      "Ġlines": 5607,
      "Ġoxygen": 5608,
      "ays": 5609,
      "Ġneighbors": 5610,
      "ĠChr": 5611,
      "Ġrecognize": 5612,
      "Sometimes": 5613,
      "Ġripped": 5614,
      "ĠAm": 5615,
      "Ġaccom": 5616,
      "Ġspiders": 5617,
      "Ġnails": 5618,
      "ĠSharing": 5619,
      "Ġstripes": 5620,
      "ĠCoco": 5621,
      "Ġbleeding": 5622,
      "Ġgloves": 5623,
      "Ġbrid": 5624,
      "isten": 5625,
      "Ġpretti": 5626,
      "Ġunderground": 5627,
      "Ġguns": 5628,
      "Ġprettiest": 5629,
      "ales": 5630,
      "Ġtour": 5631,
      "ĠBeth": 5632,
      "Ġslapped": 5633,
      "Ġunderneath": 5634,
      "Ġrocked": 5635,
      "ĠBubbles": 5636,
      "Ġintroduc": 5637,
      "Ġexactly": 5638,
      "ĠAn": 5639,
      "Ġowned": 5640,
      "ĠSpark": 5641,
      "Ġdecorated": 5642,
      "Ġcaut": 5643,
      "ĠItÃ¢": 5644,
      "Ġloving": 5645,
      "Ġprune": 5646,
      "Ġdownstairs": 5647,
      "Ġbeha": 5648,
      "Ġtravell": 5649,
      "Ġinstruct": 5650,
      "Ġrele": 5651,
      "Ġlandsc": 5652,
      "Ġprotected": 5653,
      "Ġcuddle": 5654,
      "Ġacorns": 5655,
      "Ġbarely": 5656,
      "Ġrealize": 5657,
      "Ġvoices": 5658,
      "Ġprinter": 5659,
      "Ġtugged": 5660,
      "ÅĵDon": 5661,
      "Ġstretching": 5662,
      "Ġtwirling": 5663,
      "Ġstealing": 5664,
      "Ġemergen": 5665,
      "Ġdied": 5666,
      "Ġloose": 5667,
      "Ġsuitc": 5668,
      "Ġmission": 5669,
      "Ġbouncy": 5670,
      "Ġunlocked": 5671,
      "Ġpiles": 5672,
      "annah": 5673,
      "Ġaccompl": 5674,
      "Ġbridges": 5675,
      "zie": 5676,
      "ica": 5677,
      "Ġbye": 5678,
      "ÅĵLook": 5679,
      "Ġparked": 5680,
      "Ġsolut": 5681,
      "Ġtickets": 5682,
      "ĠUncle": 5683,
      "Ġchallenge": 5684,
      "Un": 5685,
      "Ġnicer": 5686,
      "Ġvict": 5687,
      "Ġfoods": 5688,
      "Ġyelling": 5689,
      "Ġladyb": 5690,
      "Ġplanned": 5691,
      "ĠFloppy": 5692,
      "âĤ¬âĢĿ": 5693,
      "ĠJulie": 5694,
      "Ġcompleted": 5695,
      "Ġbank": 5696,
      "ilo": 5697,
      "Ġsoak": 5698,
      "Ġexit": 5699,
      "ffic": 5700,
      "Ġtraffic": 5701,
      "Ġpupp": 5702,
      "Ġwinning": 5703,
      "Ġloaded": 5704,
      "Ġmater": 5705,
      "Ġmittens": 5706,
      "ĠBig": 5707,
      "ĠPip": 5708,
      "Ġmateri": 5709,
      "ashed": 5710,
      "Ġvent": 5711,
      "Ġbudge": 5712,
      "ÅĵCan": 5713,
      "Ġwrites": 5714,
      "Ġbreaking": 5715,
      "ĠOl": 5716,
      "Ġsights": 5717,
      "Ġbloomed": 5718,
      "Ġincrease": 5719,
      "Ġmentioned": 5720,
      "Ġlandscape": 5721,
      "edding": 5722,
      "Ġpearl": 5723,
      "thank": 5724,
      "Ġsteel": 5725,
      "Ġtastes": 5726,
      "Ġmuscles": 5727,
      "Ġdoctors": 5728,
      "ĠFrank": 5729,
      "Ġproperly": 5730,
      "Or": 5731,
      "Ġago": 5732,
      "ĠLucky": 5733,
      "bert": 5734,
      "ulu": 5735,
      "George": 5736,
      "Rex": 5737,
      "Joey": 5738,
      "Ġcontro": 5739,
      "Ġbottles": 5740,
      "Ġstirring": 5741,
      "Ġstamps": 5742,
      "Ġscurried": 5743,
      "zing": 5744,
      "ĠThese": 5745,
      "Ġbend": 5746,
      "Ġkeeps": 5747,
      "ĠAnne": 5748,
      "Ġpowers": 5749,
      "Happy": 5750,
      "Ġwonders": 5751,
      "Paul": 5752,
      "mare": 5753,
      "Ġdent": 5754,
      "Ġstair": 5755,
      "Ġpears": 5756,
      "Ġopin": 5757,
      "Ġjogged": 5758,
      "aster": 5759,
      "Ġshoulders": 5760,
      "Ġfiremen": 5761,
      "Ġprinted": 5762,
      "Ġpunished": 5763,
      "Ġoutdoors": 5764,
      "Ġinstructions": 5765,
      "ury": 5766,
      "Ġchef": 5767,
      "Ġwondering": 5768,
      "uesday": 5769,
      "ux": 5770,
      "ĠSomething": 5771,
      "Ġstole": 5772,
      "Ġwinner": 5773,
      "Bobby": 5774,
      "Mar": 5775,
      "die": 5776,
      "shing": 5777,
      "Ġpies": 5778,
      "ĠTw": 5779,
      "imy": 5780,
      "Ġcrumb": 5781,
      "Ġzigzag": 5782,
      "Ġruin": 5783,
      "iggy": 5784,
      "Ġgiggling": 5785,
      "Ġgathering": 5786,
      "Ġpouring": 5787,
      "Ġfigured": 5788,
      "bric": 5789,
      "nes": 5790,
      "oed": 5791,
      "Ġlux": 5792,
      "ishes": 5793,
      "Ġfabric": 5794,
      "Ġnightmare": 5795,
      "Ġburrow": 5796,
      "Ġincluded": 5797,
      "rr": 5798,
      "Ġtwinkling": 5799,
      "ednes": 5800,
      "ĠSanta": 5801,
      "Ġcones": 5802,
      "ĠKe": 5803,
      "Ġplanets": 5804,
      "Ġapplauded": 5805,
      "ednesday": 5806,
      "Ġwagging": 5807,
      "ĠTuesday": 5808,
      "Ġeast": 5809,
      "Ġyouth": 5810,
      "usan": 5811,
      "Ġseason": 5812,
      "Teddy": 5813,
      "zen": 5814,
      "ĠQu": 5815,
      "Ġwest": 5816,
      "Ġtonight": 5817,
      "Ġdam": 5818,
      "Ġlied": 5819,
      "Ġstrings": 5820,
      "though": 5821,
      "Ġbuckets": 5822,
      "Ġkeys": 5823,
      "Ġentire": 5824,
      "Ġsupplies": 5825,
      "Ġshivered": 5826,
      "Ġurged": 5827,
      "uly": 5828,
      "Ġwedding": 5829,
      "Ġgrant": 5830,
      "ĠCar": 5831,
      "Afterwards": 5832,
      "Ġhonk": 5833,
      "Ġsilence": 5834,
      "Ġemergency": 5835,
      "Ġinch": 5836,
      "Ġbeard": 5837,
      "Ġweb": 5838,
      "ĠBir": 5839,
      "Ġtexture": 5840,
      "ĠCarl": 5841,
      "ledge": 5842,
      "Ġforgi": 5843,
      "Ġguest": 5844,
      "uctantly": 5845,
      "Ġpurred": 5846,
      "Ġroaring": 5847,
      "ĠWednesday": 5848,
      "ĠDid": 5849,
      "Ġpebbles": 5850,
      "Ġteasing": 5851,
      "ÅĵThis": 5852,
      "Ġmarriage": 5853,
      "Ġrainbows": 5854,
      "Ġintroduce": 5855,
      "bies": 5856,
      "Ġknowledge": 5857,
      "avi": 5858,
      "lowly": 5859,
      "Ġconfident": 5860,
      "Ġintroduced": 5861,
      "Bella": 5862,
      "Pete": 5863,
      "uzz": 5864,
      "Ġsi": 5865,
      "omas": 5866,
      "Ġsoaked": 5867,
      "Ġbabies": 5868,
      "Ġtouching": 5869,
      "Ġsnowball": 5870,
      "Ġsurface": 5871,
      "Ġresponsible": 5872,
      "Ġsorting": 5873,
      "Ġeats": 5874,
      "Ġrocking": 5875,
      "Ġfrosting": 5876,
      "Ġacted": 5877,
      "Ġbrushes": 5878,
      ".'": 5879,
      "ora": 5880,
      "Ġsneaked": 5881,
      "Ġreleased": 5882,
      "Remember": 5883,
      "lee": 5884,
      "Ġclick": 5885,
      "Ġourselves": 5886,
      "Ġsteep": 5887,
      "Ġfrozen": 5888,
      "ĠChloe": 5889,
      "Ġclaps": 5890,
      "Ġcontrol": 5891,
      "hins": 5892,
      "aky": 5893,
      "ĠJosh": 5894,
      "ĠletÃ¢": 5895,
      "Ġcontest": 5896,
      "izzie": 5897,
      "exp": 5898,
      "Ġtickle": 5899,
      "Ġmovies": 5900,
      "Ġrubbing": 5901,
      "Cl": 5902,
      "Ġsides": 5903,
      "Ġeight": 5904,
      "Ġpeaches": 5905,
      "Ġpockets": 5906,
      "Ġfart": 5907,
      "Ġann": 5908,
      "Ġdragged": 5909,
      "Ġstorekeeper": 5910,
      "Ġreluctantly": 5911,
      "Ġmatching": 5912,
      "Ġsisters": 5913,
      "Ġexpected": 5914,
      "Ġpoliceman": 5915,
      "Ġhorns": 5916,
      "Ella": 5917,
      "Ġbunch": 5918,
      "Ġcape": 5919,
      "ĠSunny": 5920,
      "Ġshock": 5921,
      "inda": 5922,
      "ĠJan": 5923,
      "bbing": 5924,
      "Ġgreet": 5925,
      "Ġpaintings": 5926,
      "Ġdragons": 5927,
      "Ġscreaming": 5928,
      "Ġmixing": 5929,
      "Ġspraying": 5930,
      "Ġcompetition": 5931,
      "Ġdemanded": 5932,
      "ody": 5933,
      "va": 5934,
      "ira": 5935,
      "Ġplenty": 5936,
      "Ġbecoming": 5937,
      "Ġsorted": 5938,
      "ĠRa": 5939,
      "Ġsinger": 5940,
      "Ġproject": 5941,
      "Ġinterest": 5942,
      "ĠStop": 5943,
      "Ġshivering": 5944,
      "expected": 5945,
      "ĠHop": 5946,
      "ason": 5947,
      "Ġbravery": 5948,
      "Ġunexpected": 5949,
      "Ġdeser": 5950,
      "Ġresult": 5951,
      "Ġsituation": 5952,
      "Lola": 5953,
      "Ġruler": 5954,
      "Ġmachines": 5955,
      "Ġcrowd": 5956,
      "Ġsolution": 5957,
      "Mr": 5958,
      "ĠLike": 5959,
      "Ġowners": 5960,
      "ĠJohnson": 5961,
      "Ġdolphins": 5962,
      "Ġpoking": 5963,
      "Ġtruly": 5964,
      "Ġdraws": 5965,
      "Ġzookeeper": 5966,
      "Goodbye": 5967,
      "ĠSure": 5968,
      "Ġchat": 5969,
      "Ġwritten": 5970,
      "Ġprints": 5971,
      "Ġmatched": 5972,
      "Ġshelves": 5973,
      "Ġdiscovering": 5974,
      "Ġcountryside": 5975,
      "ÅĵDonÃ¢": 5976,
      "Ġsuitcase": 5977,
      "Ġluxury": 5978,
      "vin": 5979,
      "Ġsway": 5980,
      "reen": 5981,
      "Ġrelease": 5982,
      "usted": 5983,
      "ĠAlways": 5984,
      "Ġda": 5985,
      "ayla": 5986,
      "Ġgoals": 5987,
      "Ġgoodnight": 5988,
      "Ġexpect": 5989,
      "Ġpassing": 5990,
      "Ġchewing": 5991,
      "Ġcrackers": 5992,
      "Ġblooming": 5993,
      "Ġbalancing": 5994,
      "Ġachieve": 5995,
      "Ġcautious": 5996,
      "Ġvictory": 5997,
      "James": 5998,
      "fit": 5999,
      "iar": 6000,
      "you": 6001,
      "ern": 6002,
      "Ġpout": 6003,
      "irm": 6004,
      "Ġhugging": 6005,
      "Ġslimy": 6006,
      "Ġwaiter": 6007,
      "Ġcurtains": 6008,
      "Ye": 6009,
      "Ġfetch": 6010,
      "vers": 6011,
      "Ġblink": 6012,
      "ults": 6013,
      "Ġhighest": 6014,
      "Ġcheering": 6015,
      "ĠBuzzy": 6016,
      "Ġmuffins": 6017,
      "lowers": 6018,
      "Ġdirection": 6019,
      "Ġguys": 6020,
      "Ġtrembling": 6021,
      "Ġdentist": 6022,
      "jam": 6023,
      "rance": 6024,
      "hell": 6025,
      "ĠAdam": 6026,
      "ĠJamie": 6027,
      "Ġranger": 6028,
      "ĠLulu": 6029,
      "Ġkicking": 6030,
      "Ġmotion": 6031,
      "Ġrecorded": 6032,
      "Ġcamping": 6033,
      "Ġstruggle": 6034,
      "Ġsiren": 6035,
      "icky": 6036,
      "Ġsweets": 6037,
      "Ġcreating": 6038,
      "Ġhealed": 6039,
      "Ġdusty": 6040,
      "int": 6041,
      "iles": 6042,
      "Ġoutfit": 6043,
      "Ġhomework": 6044,
      "ÅĵHello": 6045,
      "Ġpolishing": 6046,
      "Ġpastries": 6047,
      "Ġrelief": 6048,
      "Ġdesp": 6049,
      "Ġroads": 6050,
      "ĠMatt": 6051,
      "ĠJeff": 6052,
      "Kitty": 6053,
      "appy": 6054,
      "cers": 6055,
      "udy": 6056,
      "itely": 6057,
      "ĠcanÃ¢": 6058,
      "oline": 6059,
      "Ġmarker": 6060,
      "Ġlibrarian": 6061,
      "ĠUnfortunately": 6062,
      "Ġcent": 6063,
      "Ġstaring": 6064,
      "ĠDavid": 6065,
      "Ġprayer": 6066,
      "Ġstudying": 6067,
      "Ġsausages": 6068,
      "Ġladybug": 6069,
      "Ġventured": 6070,
      "Mike": 6071,
      "Ġspike": 6072,
      "Ġexha": 6073,
      "Ġchips": 6074,
      "Ġbroom": 6075,
      "Ġpastels": 6076,
      "Grace": 6077,
      "Ġcurly": 6078,
      "Ġcompletely": 6079,
      "Ġdisagree": 6080,
      "ivery": 6081,
      "Ġti": 6082,
      "Ġstare": 6083,
      "agull": 6084,
      "Ġchases": 6085,
      "ÅĵOh": 6086,
      "Ġimportance": 6087,
      "Ġbaked": 6088,
      "...": 6089,
      "Yeah": 6090,
      "Maggie": 6091,
      "Ġtim": 6092,
      "Ġwound": 6093,
      "ĠFor": 6094,
      "ĠRob": 6095,
      "Ġdrives": 6096,
      "Millie": 6097,
      "Ġ1": 6098,
      "Ġworries": 6099,
      "asm": 6100,
      "essie": 6101,
      "ĠCindy": 6102,
      "Ġsweeties": 6103,
      "Ġarrive": 6104,
      "Ġdesert": 6105,
      "Ġscru": 6106,
      "However": 6107,
      "Ġpenguins": 6108,
      "Ġkneeled": 6109,
      "Ġfirm": 6110,
      "immer": 6111,
      "ĠBy": 6112,
      "Ġseagull": 6113,
      "ĠJones": 6114,
      "Ġscra": 6115,
      "Ġscales": 6116,
      "Ġprun": 6117,
      "Ġpartic": 6118,
      "Ġthreat": 6119,
      "ĠTilly": 6120,
      "Ġthro": 6121,
      "Ġshined": 6122,
      "Ġsnugg": 6123,
      "Ġnetwork": 6124,
      "Ġrescued": 6125,
      "Ġrepeated": 6126,
      "Ġgazed": 6127,
      "Ġactivities": 6128,
      "Ġexhausted": 6129,
      "Ah": 6130,
      "Alex": 6131,
      "Fr": 6132,
      "Ġfreed": 6133,
      "iding": 6134,
      "esome": 6135,
      "opes": 6136,
      "Ġcaused": 6137,
      "Ġentrance": 6138,
      "Ġarguing": 6139,
      "Ġthroat": 6140,
      "Ġcash": 6141,
      "Ġheel": 6142,
      "irts": 6143,
      "Ġtheirs": 6144,
      "Ġslap": 6145,
      "Ġfoc": 6146,
      "Ġunited": 6147,
      "Ġpatted": 6148,
      "Ġtrips": 6149,
      "Ġsnakes": 6150,
      "Ġwandering": 6151,
      "Ġleader": 6152,
      "Ġinclude": 6153,
      "Mittens": 6154,
      "Ġast": 6155,
      "ĠSadly": 6156,
      "ĠSusan": 6157,
      "igi": 6158,
      "Ġtowels": 6159,
      "Ġsticking": 6160,
      "ĠwasnÃ¢": 6161,
      "Ġpeeking": 6162,
      "Ġribbons": 6163,
      "Ġregretted": 6164,
      "Ġfarther": 6165,
      "jamas": 6166,
      "go": 6167,
      "Ġwink": 6168,
      "Ġfara": 6169,
      "Ġlamb": 6170,
      "Ġheav": 6171,
      "Ġboom": 6172,
      "ĠLou": 6173,
      "Ġcomm": 6174,
      "Ġdelivery": 6175,
      "Ġseesaw": 6176,
      "Ġpatience": 6177,
      "Ġobserved": 6178,
      "Ġquacked": 6179,
      "Ġparticular": 6180,
      "Ġfaraway": 6181,
      "ik": 6182,
      "hello": 6183,
      "Ġbead": 6184,
      "alph": 6185,
      "Ġrolls": 6186,
      "Ġreaching": 6187,
      "Grandpa": 6188,
      "Ġseems": 6189,
      "Mrs": 6190,
      "Ġstartled": 6191,
      "Ġlearns": 6192,
      "Ġcatches": 6193,
      "Ġusual": 6194,
      "Ġsingle": 6195,
      "Ġpolished": 6196,
      "Ġawesome": 6197,
      "ĠĊĠ": 6198,
      "ĠJon": 6199,
      "Ġfault": 6200,
      "Ġhowever": 6201,
      "ÅĵWhy": 6202,
      "ĠGr": 6203,
      "Sophie": 6204,
      "ne": 6205,
      "ĠyouÃ¢": 6206,
      "acob": 6207,
      "Ġsafer": 6208,
      "Ġorganizing": 6209,
      "Ġcrabs": 6210,
      "ĠZoom": 6211,
      "Ġreveal": 6212,
      "Ġsquealed": 6213,
      "Ġfirefighters": 6214,
      "Ġcrumbs": 6215,
      "Bun": 6216,
      "Harry": 6217,
      "Ġdared": 6218,
      "Ġflat": 6219,
      "Ġremoved": 6220,
      "Ġmarks": 6221,
      "ĠOut": 6222,
      "Ġtraveled": 6223,
      "ĠChrist": 6224,
      "dies": 6225,
      "Ġliqu": 6226,
      "Ġleap": 6227,
      "ĠMomo": 6228,
      "ÅĵMommy": 6229,
      "Ġrestored": 6230,
      "Ġdarkness": 6231,
      "Ġinviting": 6232,
      "Ġvanish": 6233,
      "Ġsandcastles": 6234,
      "ĠSuzie": 6235,
      "Ġherbs": 6236,
      "Ġdirect": 6237,
      "Ġopinion": 6238,
      "Ġliquid": 6239,
      "Ġboo": 6240,
      "ĠSlowly": 6241,
      "Ġstolen": 6242,
      "Ġstrike": 6243,
      "cuse": 6244,
      "Henry": 6245,
      "mas": 6246,
      "njoy": 6247,
      "ĠBye": 6248,
      "umm": 6249,
      "aced": 6250,
      "Ġpajamas": 6251,
      "Ġcuts": 6252,
      "Ġvalued": 6253,
      "Ġcoloured": 6254,
      "Ġtickled": 6255,
      "Ġwiggled": 6256,
      "ĠClaire": 6257,
      "Fred": 6258,
      "pe": 6259,
      "ords": 6260,
      "ĠMart": 6261,
      "Ġroots": 6262,
      "ĠLizzy": 6263,
      "Ġstroll": 6264,
      "Ġgaze": 6265,
      "Leo": 6266,
      "Ġpaddled": 6267,
      "ences": 6268,
      "ĠLuke": 6269,
      "Ġchuck": 6270,
      "Ġresting": 6271,
      "Ġgrowl": 6272,
      "Ġadding": 6273,
      "Annie": 6274,
      "ĠFollow": 6275,
      "Excuse": 6276,
      "Ġinterested": 6277,
      "ĠChristmas": 6278,
      "ĠYes": 6279,
      "Ġcause": 6280,
      "ently": 6281,
      "Ġfaced": 6282,
      "ĠEarth": 6283,
      "Ġswooped": 6284,
      "Ġeverybody": 6285,
      "Ġworker": 6286,
      "Ġusually": 6287,
      "Ġgrowling": 6288,
      "Ġpencils": 6289,
      "Ġsighs": 6290,
      "Ġprunes": 6291,
      "Ġbumpy": 6292,
      "Ġlined": 6293,
      "Ġnect": 6294,
      "Ġsomebody": 6295,
      "Ġlap": 6296,
      "Ġforehead": 6297,
      "coat": 6298,
      "Ġtallest": 6299,
      "Ġbuying": 6300,
      "Ġknights": 6301,
      "Ġitchy": 6302,
      "Ġnectar": 6303,
      "elia": 6304,
      "Ġopening": 6305,
      "boat": 6306,
      "angled": 6307,
      "Ġpots": 6308,
      "Ġfuzzy": 6309,
      "Ġgroceries": 6310,
      "Rose": 6311,
      "Ġstem": 6312,
      "Ġcans": 6313,
      "ĠJenna": 6314,
      "Ġweeping": 6315,
      "Ġbeads": 6316,
      "lings": 6317,
      "rious": 6318,
      "Ġflames": 6319,
      "Ġprincesses": 6320,
      "Ġmisses": 6321,
      "ĠBeing": 6322,
      "Ġflags": 6323,
      "Ġcracked": 6324,
      "Ġwires": 6325,
      "Ġsneaky": 6326,
      "Ġfamilies": 6327,
      "rops": 6328,
      "ĠMany": 6329,
      "aren": 6330,
      "ĠLarry": 6331,
      "Ġraind": 6332,
      "Ġraincoat": 6333,
      "Ġcovers": 6334,
      "Ġawake": 6335,
      "oh": 6336,
      "Ġty": 6337,
      "Ġcott": 6338,
      "Ġden": 6339,
      "Ġrisk": 6340,
      "Ġrumble": 6341,
      "ĠEls": 6342,
      "Ġpretends": 6343,
      "Ġyesterday": 6344,
      "Ġcelebration": 6345,
      "Ġimproved": 6346,
      "Uh": 6347,
      "Ġpause": 6348,
      "armer": 6349,
      "ana": 6350,
      "Ġripe": 6351,
      "ĠBoth": 6352,
      "Ġmane": 6353,
      "ĠLinda": 6354,
      "ĠThomas": 6355,
      "Ġteaches": 6356,
      "abel": 6357,
      "Ġbaker": 6358,
      "Unfortunately": 6359,
      "Sandy": 6360,
      "Ġdipped": 6361,
      "Ġopp": 6362,
      "Ġglee": 6363,
      "Ġstern": 6364,
      "ĠMilo": 6365,
      "oys": 6366,
      "Ġwrist": 6367,
      "Ġpacking": 6368,
      "hog": 6369,
      "Ġmiles": 6370,
      "Ġleading": 6371,
      "Ġmelting": 6372,
      "Ġmagnets": 6373,
      "ÅĵWhatÃ¢": 6374,
      "Ġtasks": 6375,
      "Ġprovided": 6376,
      "Ġtwinkle": 6377,
      "Ġbalanced": 6378,
      "Ġcashier": 6379,
      "Ġhi": 6380,
      "reat": 6381,
      "Ġbelly": 6382,
      "opsy": 6383,
      "bbly": 6384,
      "Ġsnuck": 6385,
      "brush": 6386,
      "Ġphotos": 6387,
      "Ġunpacked": 6388,
      "Ġaff": 6389,
      "Ġwasted": 6390,
      "ppers": 6391,
      "ĠLuckily": 6392,
      "Ġsnat": 6393,
      "Ġunf": 6394,
      "Ġreplaced": 6395,
      "Ġworkers": 6396,
      "Ġdef": 6397,
      "Ġreads": 6398,
      "ĠEmmy": 6399,
      "Ġnaps": 6400,
      "Ġrockets": 6401,
      "Ġraindrops": 6402,
      "Ġlung": 6403,
      "ena": 6404,
      "ĠBird": 6405,
      "ĠLizzie": 6406,
      "Ġstaying": 6407,
      "Ġsmiley": 6408,
      "Ġuses": 6409,
      "Ġwinked": 6410,
      "Ġprotecting": 6411,
      "Ġreply": 6412,
      "ĠJessie": 6413,
      "ĠRabbit": 6414,
      "ĠY": 6415,
      "hee": 6416,
      "Ġwow": 6417,
      "Ġpiggy": 6418,
      "arling": 6419,
      "Ġmarked": 6420,
      "Ġactions": 6421,
      "Ġdetermination": 6422,
      "Ġbeginning": 6423,
      "Ġaccomplish": 6424,
      "Ġcautiously": 6425,
      "Ġbars": 6426,
      "Ġswirl": 6427,
      "Ġcolored": 6428,
      "Ġbedtime": 6429,
      "Ġradishes": 6430,
      "Charlie": 6431,
      "Ġagrees": 6432,
      "ĠBetty": 6433,
      "Ġrecommended": 6434,
      "eke": 6435,
      "Ġlower": 6436,
      "Ġhissed": 6437,
      "ĠPipp": 6438,
      "Ġfilling": 6439,
      "Ġsecure": 6440,
      "Ġtalented": 6441,
      "boo": 6442,
      "ĠHannah": 6443,
      "ĠMad": 6444,
      "ĠAunt": 6445,
      "Ġtwin": 6446,
      "ĠPut": 6447,
      "Ġexplorers": 6448,
      "Ġspeaking": 6449,
      "Ġpaddle": 6450,
      "Ġtemper": 6451,
      "ĠJessica": 6452,
      "wk": 6453,
      "Ġtodd": 6454,
      "Ġcough": 6455,
      "Ġseven": 6456,
      "Ġtreehouse": 6457,
      "Ġtricked": 6458,
      "Ġsplashes": 6459,
      "Ġglasses": 6460,
      "Ġrecording": 6461,
      "Ġdirections": 6462,
      "ossible": 6463,
      "vest": 6464,
      "ĠMon": 6465,
      "Ġchoo": 6466,
      "Ġimpossible": 6467,
      "Ġparties": 6468,
      "Ġdarker": 6469,
      "Ġattack": 6470,
      "Ġcelebrating": 6471,
      "ĠLeave": 6472,
      "Ġgiraff": 6473,
      "Ġhedgehog": 6474,
      "Ġseashell": 6475,
      "Ġcalmed": 6476,
      "Ġdrifted": 6477,
      "Ġtimer": 6478,
      "Ġchuckled": 6479,
      "Kate": 6480,
      "Ëľ": 6481,
      "ĠTess": 6482,
      "ido": 6483,
      "Ġhawk": 6484,
      "ĠSqu": 6485,
      "ormed": 6486,
      "?\",": 6487,
      "ĠWater": 6488,
      "âĤ¬Ëľ": 6489,
      "Ġdancers": 6490,
      "ĠPrin": 6491,
      "ĠGigi": 6492,
      "Ġsailboat": 6493,
      "Ġgems": 6494,
      "Ġflavor": 6495,
      "Ġgiraffes": 6496,
      "Days": 6497,
      "ĠJay": 6498,
      "Ġfever": 6499,
      "Ġdiving": 6500,
      "Ġhallway": 6501,
      "ĠSparky": 6502,
      "cited": 6503,
      "Ġlogs": 6504,
      "Ġbacked": 6505,
      "Ġdeal": 6506,
      "Ġsteer": 6507,
      "Ġpleasure": 6508,
      "ophia": 6509,
      "Ġscrubbed": 6510,
      "Polly": 6511,
      "yond": 6512,
      "isies": 6513,
      "ids": 6514,
      "Ġinsp": 6515,
      "Ġbeyond": 6516,
      "rip": 6517,
      "Ġyounger": 6518,
      "ĠBo": 6519,
      "urry": 6520,
      "Ġrobb": 6521,
      "Ġconn": 6522,
      "Ġfairies": 6523,
      "ĠwouldnÃ¢": 6524,
      "ĠOw": 6525,
      "Ġfolding": 6526,
      "Ġpaying": 6527,
      "Ġtricky": 6528,
      "Ġartist": 6529,
      "Ġbakery": 6530,
      "Ġmaterials": 6531,
      "Ġpouted": 6532,
      "no": 6533,
      "Ġsense": 6534,
      "ĠHappy": 6535,
      "ĠMel": 6536,
      "ĠAbbie": 6537,
      "Ġchip": 6538,
      "Ġslices": 6539,
      "ths": 6540,
      "ĠRobby": 6541,
      "Ġrivers": 6542,
      "Ġbowls": 6543,
      "Ġhoriz": 6544,
      "Ġbumps": 6545,
      "Ġlollipops": 6546,
      "Ġobjects": 6547,
      "Ġcheeks": 6548,
      "Ġdaisies": 6549,
      "Ġtipt": 6550,
      "Ġtemperature": 6551,
      "bell": 6552,
      "Ġlun": 6553,
      "aty": 6554,
      "Ġknees": 6555,
      "Ġsquish": 6556,
      "Ġrubs": 6557,
      "Ġsquares": 6558,
      "Ġsnatched": 6559,
      "Ġhorizon": 6560,
      "ners": 6561,
      "arter": 6562,
      "ĠMo": 6563,
      "Ġsmarter": 6564,
      "Ġyourselves": 6565,
      "Ġcoloring": 6566,
      "Ġlistens": 6567,
      "itches": 6568,
      "Ġfroze": 6569,
      "Ġcreamy": 6570,
      "ĠJulia": 6571,
      "Ġfluttered": 6572,
      "Ġachieved": 6573,
      "ĠMaya": 6574,
      "Ġrusty": 6575,
      "Bl": 6576,
      "Fine": 6577,
      "Some": 6578,
      "ippy": 6579,
      "oey": 6580,
      "the": 6581,
      "tle": 6582,
      "Ġscaring": 6583,
      "Ġtractor": 6584,
      "Ġbehavi": 6585,
      "Ġdreamt": 6586,
      "Ġmuscle": 6587,
      "cope": 6588,
      "uzzy": 6589,
      "Ġsib": 6590,
      "Ġdarling": 6591,
      "Ġmi": 6592,
      "Ġsobbed": 6593,
      "Ġchop": 6594,
      "ĠFriend": 6595,
      "Ġcupcakes": 6596,
      "Ġembarrass": 6597,
      "Ġrefle": 6598,
      "Ġpedals": 6599,
      "Ġdiscussed": 6600,
      "Ġinstrum": 6601,
      "zes": 6602,
      "Ġhearing": 6603,
      "Ġlosing": 6604,
      "ĠEnjoy": 6605,
      "Ġgrassy": 6606,
      "Ġhealth": 6607,
      "Ġscarves": 6608,
      "Ġblows": 6609,
      "Ġcandies": 6610,
      "Ġarrows": 6611,
      "Ġdelivered": 6612,
      "Ġmasks": 6613,
      "ĠKeep": 6614,
      "ĠPrincess": 6615,
      "For": 6616,
      "Katie": 6617,
      "oni": 6618,
      "Ġweeke": 6619,
      "Ġaren": 6620,
      "Ġjoking": 6621,
      "ĠChe": 6622,
      "Ġfluttering": 6623,
      "Ġmixture": 6624,
      "Ġweekend": 6625,
      "fl": 6626,
      "urious": 6627,
      "Ġhitting": 6628,
      "Ġwadd": 6629,
      "Ġmes": 6630,
      "ility": 6631,
      "ĠSorry": 6632,
      "Ġrip": 6633,
      "ĠAbby": 6634,
      "ĠDolly": 6635,
      "Ġstays": 6636,
      "ĠPo": 6637,
      "Ġcloses": 6638,
      "Ġafterwards": 6639,
      "ĠAsh": 6640,
      "ĠTodd": 6641,
      "Ġindeed": 6642,
      "Ġrewarded": 6643,
      "Ġseparated": 6644,
      "Ġwidened": 6645,
      "Ġtravelled": 6646,
      "Ġmesmer": 6647,
      "Fin": 6648,
      "Ġdots": 6649,
      "Ġthird": 6650,
      "Ġnoon": 6651,
      "icked": 6652,
      "Ġmeals": 6653,
      "Ġhandful": 6654,
      "ĠPl": 6655,
      "ĠGet": 6656,
      "Ġsigned": 6657,
      "Ġwipes": 6658,
      "Ġhesitated": 6659,
      "ĠNothing": 6660,
      "Ġbehaved": 6661,
      "itched": 6662,
      "Ġcous": 6663,
      "iled": 6664,
      "Ġgobbled": 6665,
      "Ġroses": 6666,
      "ĠFarmer": 6667,
      "ÅĵDo": 6668,
      "ĠNick": 6669,
      "Ġpotion": 6670,
      "Ġneighbours": 6671,
      "Ġcowb": 6672,
      "Ġsalty": 6673,
      "Ġscrews": 6674,
      "Ġminerals": 6675,
      "May": 6676,
      "band": 6677,
      "rig": 6678,
      "ĠĠĊ": 6679,
      "eds": 6680,
      "ĠHoot": 6681,
      "igers": 6682,
      "ntil": 6683,
      "Ġwears": 6684,
      "Ġrefu": 6685,
      "Ġflapping": 6686,
      "using": 6687,
      "ĠEverybody": 6688,
      "aker": 6689,
      "Ġyells": 6690,
      "ments": 6691,
      "Ġkicks": 6692,
      "Ġshrinking": 6693,
      "Toby": 6694,
      "Ġvideos": 6695,
      "Ġforgiven": 6696,
      "Danny": 6697,
      "Time": 6698,
      "Ġaud": 6699,
      "ĠTara": 6700,
      "Ġonions": 6701,
      "Ġshirts": 6702,
      "ĠJazz": 6703,
      "Ġexperien": 6704,
      "Ġburst": 6705,
      "Ġornaments": 6706,
      "An": 6707,
      "Ġrising": 6708,
      "Ġbeam": 6709,
      "itted": 6710,
      "sequ": 6711,
      "ickey": 6712,
      "iece": 6713,
      "Ġslam": 6714,
      "Ġdrawn": 6715,
      "Ġamong": 6716,
      "Ġlighter": 6717,
      "Ġrequested": 6718,
      "ĠAmelia": 6719,
      "?'": 6720,
      "Ellie": 6721,
      "Milly": 6722,
      "Ġtangled": 6723,
      "Ġcoup": 6724,
      "ades": 6725,
      "Ġfact": 6726,
      "ept": 6727,
      "Ġbadge": 6728,
      "Ġconsequ": 6729,
      "Ġbeloved": 6730,
      "ĠKayla": 6731,
      "Ġknocks": 6732,
      "ded": 6733,
      "Ġcust": 6734,
      "Ġech": 6735,
      "ĠEl": 6736,
      "Ġswept": 6737,
      "Ġneedles": 6738,
      "ÅĵWow": 6739,
      "ĠPam": 6740,
      "umbling": 6741,
      "Bobo": 6742,
      "Ġclowns": 6743,
      "Ġgracefully": 6744,
      "Ġsnowballs": 6745,
      "eal": 6746,
      "jo": 6747,
      "ouch": 6748,
      "Ġkites": 6749,
      "ĠJacob": 6750,
      "Ġnoses": 6751,
      "Ġgrandp": 6752,
      "Ġwilling": 6753,
      "ĠJacky": 6754,
      "Ġblocking": 6755,
      "Ġprinting": 6756,
      "ĠDoggy": 6757,
      "Ġpointy": 6758,
      "Ġpassen": 6759,
      "Ġtunnels": 6760,
      "Ġcopy": 6761,
      "Ġcomplaining": 6762,
      "Ġcouple": 6763,
      "Ġcustom": 6764,
      "Ducky": 6765,
      "Run": 6766,
      "Ġdet": 6767,
      "atul": 6768,
      "igning": 6769,
      "ĠWatch": 6770,
      "ĠLi": 6771,
      "ĠPinky": 6772,
      "Ġperformance": 6773,
      "ronaut": 6774,
      "Ġstomped": 6775,
      "Ġincluding": 6776,
      "Ġastronaut": 6777,
      "iki": 6778,
      "Ġsiblings": 6779,
      "Ġconsequences": 6780,
      "Ġteased": 6781,
      "Ġpans": 6782,
      "Ġjackets": 6783,
      "Ġannoy": 6784,
      "Ġcenter": 6785,
      "Ġafford": 6786,
      "Ġgrandpare": 6787,
      "Ġcor": 6788,
      "ans": 6789,
      "llen": 6790,
      "Ġarr": 6791,
      "Ġhandsome": 6792,
      "Ġchoices": 6793,
      "Ġforgetting": 6794,
      "Ġdrums": 6795,
      "Ġtiptoed": 6796,
      "Ġaudience": 6797,
      "Dan": 6798,
      "Wh": 6799,
      "aa": 6800,
      "ky": 6801,
      "atur": 6802,
      "obody": 6803,
      "ĠPandy": 6804,
      "ĠwonÃ¢": 6805,
      "Ġplans": 6806,
      "ĠFlopsy": 6807,
      "Ġsource": 6808,
      "Ġscratches": 6809,
      "Ġsurroundings": 6810,
      "Ġstroked": 6811,
      "rigued": 6812,
      "Ew": 6813,
      "Tina": 6814,
      "aired": 6815,
      "tuce": 6816,
      "Ġhus": 6817,
      "Ġhour": 6818,
      "Ġmast": 6819,
      "ados": 6820,
      "Ġcond": 6821,
      "ĠFido": 6822,
      "Ġpeppers": 6823,
      "Those": 6824,
      "Ġlettuce": 6825,
      "Ġcreations": 6826,
      "Ġrule": 6827,
      "Ġpeacefully": 6828,
      "Ġspoonful": 6829,
      "Ġwrapping": 6830,
      "Ġrepaired": 6831,
      "Ġwraps": 6832,
      "Ġavocados": 6833,
      "Ġpoems": 6834,
      "Ġgranted": 6835,
      "immering": 6836,
      "come": 6837,
      "mallow": 6838,
      "Ġtigers": 6839,
      "Ġlimes": 6840,
      "Ġropes": 6841,
      "Ġplayers": 6842,
      "Ġhelpers": 6843,
      "retty": 6844,
      "iley": 6845,
      "Ġbully": 6846,
      "Ġadult": 6847,
      "Ġwindy": 6848,
      "Ġzipping": 6849,
      "Ġbows": 6850,
      "Ġsnowmen": 6851,
      "Ġstarfish": 6852,
      "ĠOwl": 6853,
      "ivity": 6854,
      "Ġforks": 6855,
      "Ġavoid": 6856,
      "Ġhelmets": 6857,
      "arshmallow": 6858,
      "Ġtempt": 6859,
      "ĠRover": 6860,
      "Ġsports": 6861,
      "Ġwarnings": 6862,
      "Ġswimsuit": 6863,
      "Ġlungs": 6864,
      "Ġreass": 6865,
      "ĠMa": 6866,
      "Ġtramp": 6867,
      "ÅĵCome": 6868,
      "Ġremote": 6869,
      "Ġconcer": 6870,
      "Ġuns": 6871,
      "Ġheading": 6872,
      "Ġplanning": 6873,
      "Ġwishing": 6874,
      "Ġleaning": 6875,
      "Ġseconds": 6876,
      "Ġsprinkled": 6877,
      "Shh": 6878,
      "Ġtoddler": 6879,
      "By": 6880,
      "Ġrings": 6881,
      "ĠBessie": 6882,
      "ĠJune": 6883,
      "Ġfears": 6884,
      "Ġhider": 6885,
      "Ġsilent": 6886,
      "Ġcomplained": 6887,
      "ĠFox": 6888,
      "Ġhesitant": 6889,
      "ĠGoodbye": 6890,
      "ccoon": 6891,
      "Ġgreeted": 6892,
      "Ġdeserve": 6893,
      "Ġheavier": 6894,
      "Bad": 6895,
      "arrow": 6896,
      "river": 6897,
      "step": 6898,
      "Ġflas": 6899,
      "Ġgrabbing": 6900,
      "Ġtwice": 6901,
      "Ġraccoon": 6902,
      "Ġwarri": 6903,
      "ĠRemember": 6904,
      "Ġcreativity": 6905,
      "ĠWithout": 6906,
      "Ġspreading": 6907,
      "Ġborrowed": 6908,
      "Ġpumpkins": 6909,
      "Ġdesigned": 6910,
      "ĠOlive": 6911,
      "Maria": 6912,
      "ĠQuack": 6913,
      "Ġhusband": 6914,
      "Ġtrampoline": 6915,
      "Pat": 6916,
      "cl": 6917,
      "fall": 6918,
      "Ġmerry": 6919,
      "ĠSun": 6920,
      "esp": 6921,
      "Ġrus": 6922,
      "Ġskunk": 6923,
      "ÅĵHi": 6924,
      "ĠZoey": 6925,
      "Ġcuddly": 6926,
      "Ġinsects": 6927,
      "Ġfirefighter": 6928,
      "ĠTwo": 6929,
      "Great": 6930,
      "yes": 6931,
      "ĠQ": 6932,
      "Ġwins": 6933,
      "Ġbodies": 6934,
      "Ġspong": 6935,
      "Ġnapkins": 6936,
      "Ġimagining": 6937,
      "ĠZip": 6938,
      "Ġseeker": 6939,
      "ĠBluey": 6940,
      "Ġresisted": 6941,
      "ĠMouse": 6942,
      "Ġbackwards": 6943,
      "ongr": 6944,
      "Ġdollhouse": 6945,
      "Ġruining": 6946,
      "Ġslower": 6947,
      "anging": 6948,
      "Ġrecipe": 6949,
      "Ġgenie": 6950,
      "Ġdecorating": 6951,
      "Ġneatly": 6952,
      "ĠRobert": 6953,
      "Ġpuppies": 6954,
      "Ġdamage": 6955,
      "ĠSquirrel": 6956,
      "Nina": 6957,
      "weed": 6958,
      "Ġmer": 6959,
      "inger": 6960,
      "Ġnood": 6961,
      "ĠBinky": 6962,
      "ĠJudy": 6963,
      "Ġfeast": 6964,
      "Ġpeck": 6965,
      "Ġcrew": 6966,
      "ĠGreen": 6967,
      "ĠNina": 6968,
      "Ġsailors": 6969,
      "Ġtails": 6970,
      "Ġacting": 6971,
      "Ġaccomplishment": 6972,
      "Ġsquishy": 6973,
      "ongratul": 6974,
      "Nemo": 6975,
      "tier": 6976,
      "Ġgross": 6977,
      "anes": 6978,
      "ĠListen": 6979,
      "Ġprettier": 6980,
      "Ġsnowfl": 6981,
      "ĠZero": 6982,
      "Ġpraying": 6983,
      "Ġdelivering": 6984,
      "ÅĵYouÃ¢": 6985,
      "ĠFrog": 6986,
      "Ġfamiliar": 6987,
      "Clara": 6988,
      "Whee": 6989,
      "ael": 6990,
      "Ġtouc": 6991,
      "Ġsale": 6992,
      "Ġplucked": 6993,
      "Ġscamp": 6994,
      "ongo": 6995,
      "Ġworn": 6996,
      "plash": 6997,
      "ueen": 6998,
      "Ġwobbled": 6999,
      "Ġpromises": 7000,
      "ichael": 7001,
      "Ġexpress": 7002,
      "Ġbasement": 7003,
      "Ġwiggle": 7004,
      "Roar": 7005,
      "Ġsnuggle": 7006,
      "Ġsponge": 7007,
      "eese": 7008,
      "itude": 7009,
      "ĠTuna": 7010,
      "Ġsofter": 7011,
      "Ġspices": 7012,
      "ĠAng": 7013,
      "Ġcoc": 7014,
      "Ġpecked": 7015,
      "Ġthroughout": 7016,
      "Ġdropping": 7017,
      "Ġjoyful": 7018,
      "Meow": 7019,
      "Ġbreathed": 7020,
      "Tweety": 7021,
      "Ġguests": 7022,
      "Have": 7023,
      "iel": 7024,
      "Ġsan": 7025,
      "Ġwept": 7026,
      "choo": 7027,
      "child": 7028,
      "Ġneither": 7029,
      "ĠMira": 7030,
      "Ġalien": 7031,
      "Ġage": 7032,
      "ÅĵMy": 7033,
      "Ġconvers": 7034,
      "Ġseaweed": 7035,
      "Ġvanilla": 7036,
      "ĠUntil": 7037,
      "Ġgrandchild": 7038,
      "Ġenthusi": 7039,
      "Ġbuzzed": 7040,
      "ĠRobbie": 7041,
      "Ġconfl": 7042,
      "Ġincreased": 7043,
      "ably": 7044,
      "ĠQueen": 7045,
      "Baby": 7046,
      "lves": 7047,
      "erate": 7048,
      "Ġocc": 7049,
      "Ġrout": 7050,
      "ĠMickey": 7051,
      "Ġblast": 7052,
      "arac": 7053,
      "Ġdollars": 7054,
      "Ġthrown": 7055,
      "uggles": 7056,
      "ĠThanks": 7057,
      "Ġgasp": 7058,
      "Ġpostman": 7059,
      "Ġsurrendered": 7060,
      "Ġyielded": 7061,
      "Ġenthusiasm": 7062,
      "Br": 7063,
      "Tw": 7064,
      "iment": 7065,
      "Ġstain": 7066,
      "Ġstung": 7067,
      "Ġchos": 7068,
      "Ġexplo": 7069,
      "Ġhops": 7070,
      "Ġgrowls": 7071,
      "Ġignoring": 7072,
      "ĠSnuggles": 7073,
      "Ġmushrooms": 7074,
      "Ġcubes": 7075,
      "Ġrustling": 7076,
      "Ġfocused": 7077,
      "Ġchosen": 7078,
      "Boo": 7079,
      "Ġmarshmallow": 7080,
      "Ġgeese": 7081,
      "ĠSophia": 7082,
      "Ġthorn": 7083,
      "Ġstool": 7084,
      "Ġneare": 7085,
      "Ġleast": 7086,
      "Ġflight": 7087,
      "ĠEx": 7088,
      "Ġintrigued": 7089,
      "aura": 7090,
      "Ġexplorer": 7091,
      "Ġache": 7092,
      "athan": 7093,
      "Ġamount": 7094,
      "Ġshops": 7095,
      "Ġhopeful": 7096,
      "Ġmatters": 7097,
      "Ġhonked": 7098,
      "Ġpaths": 7099,
      "ertain": 7100,
      "Ġtoaster": 7101,
      "years": 7102,
      "Ġscraped": 7103,
      "Ġpassengers": 7104,
      "Fo": 7105,
      "Pe": 7106,
      "Surpr": 7107,
      "abby": 7108,
      "yan": 7109,
      "Ġplain": 7110,
      "allowed": 7111,
      "Ġswallowed": 7112,
      "Ġsmallest": 7113,
      "ĠRalph": 7114,
      "Ġcuriously": 7115,
      "Ġsails": 7116,
      "Ġrespond": 7117,
      "Ġlifting": 7118,
      "Ġbatteries": 7119,
      "Ġappreciation": 7120,
      "Ġwaddled": 7121,
      "Ruby": 7122,
      "while": 7123,
      "Ġais": 7124,
      "Ġdie": 7125,
      "ĠSque": 7126,
      "Ġspins": 7127,
      "Ġcharac": 7128,
      "Ġpuff": 7129,
      "ĠThose": 7130,
      "Ġdrawers": 7131,
      "Ġtalks": 7132,
      "Ġshaped": 7133,
      "Ġhealing": 7134,
      "Ġrespected": 7135,
      "Ġtested": 7136,
      "Ġsunflowers": 7137,
      "Ġencourag": 7138,
      "Ġtriangles": 7139,
      "Ġtrembled": 7140,
      "Ġwider": 7141,
      "Ġchefs": 7142,
      "ĠFriends": 7143,
      "Ġcousin": 7144,
      "Ġscampered": 7145,
      "Ġsank": 7146,
      "Ġcharacter": 7147,
      "Kim": 7148,
      "Yummy": 7149,
      "rey": 7150,
      "ition": 7151,
      "Ġnibb": 7152,
      "Ġkittens": 7153,
      "Ġglued": 7154,
      "Ġremembering": 7155,
      "Ġhides": 7156,
      "Ġstreets": 7157,
      "ĠOur": 7158,
      "ĠStella": 7159,
      "Ġcushions": 7160,
      "Ġsymbols": 7161,
      "Ġbehaving": 7162,
      "Blue": 7163,
      "Ġrushing": 7164,
      "cake": 7165,
      "unched": 7166,
      "ĠJax": 7167,
      "Ġscient": 7168,
      "Ġdads": 7169,
      "Ġtrot": 7170,
      "Ġgardener": 7171,
      "ÅĵNow": 7172,
      "Ġdances": 7173,
      "Ġwrink": 7174,
      "ĠRock": 7175,
      "Ġcausing": 7176,
      "ĠStan": 7177,
      "Ġfeeding": 7178,
      "Ġstudents": 7179,
      "Ġscrewd": 7180,
      "Ġproper": 7181,
      "Ġunsure": 7182,
      "Ġtouches": 7183,
      "Ġscientist": 7184,
      "Jul": 7185,
      "Lilly": 7186,
      "Tr": 7187,
      "ĊĊ": 7188,
      "Ġdod": 7189,
      "Ġscored": 7190,
      "Ġflown": 7191,
      "Ġdresser": 7192,
      "Ġcrashing": 7193,
      "Ġedges": 7194,
      "Quick": 7195,
      "ĠBirthday": 7196,
      "Ġfreedom": 7197,
      "--": 7198,
      "Back": 7199,
      "Even": 7200,
      "fire": 7201,
      "Ġdaring": 7202,
      "Ġnine": 7203,
      "Ġnotes": 7204,
      "Ġreason": 7205,
      "Ġmanag": 7206,
      "Ġposs": 7207,
      "emma": 7208,
      "ĠJoan": 7209,
      "Ġprove": 7210,
      "Ġcorners": 7211,
      "Ġwiping": 7212,
      "Ġtwisty": 7213,
      "Ġthud": 7214,
      "Ġrefreshing": 7215,
      "Ġfirmly": 7216,
      "Ġdefin": 7217,
      "Ġnoodles": 7218,
      "Ġscrewdriver": 7219,
      "During": 7220,
      "Sadly": 7221,
      "Ġtuck": 7222,
      "Ġsy": 7223,
      "Ġmunch": 7224,
      "Ġoh": 7225,
      "stick": 7226,
      "endy": 7227,
      "aula": 7228,
      "Ġadults": 7229,
      "Ġfinal": 7230,
      "Ġfinishing": 7231,
      "acles": 7232,
      "Ġnearly": 7233,
      "Ġstrongest": 7234,
      "ĠNobody": 7235,
      "Ġdived": 7236,
      "Ġcrossing": 7237,
      "Ġheroes": 7238,
      "Ġswans": 7239,
      "Ġperforming": 7240,
      "Ġsurfing": 7241,
      "Ġzebras": 7242,
      "Ġsuperheroes": 7243,
      "Ġmarshmallows": 7244,
      "Jerry": 7245,
      "Ġcoral": 7246,
      "Ġmoo": 7247,
      "Ġsadd": 7248,
      "Ġonward": 7249,
      "ĠBongo": 7250,
      "Ġspikes": 7251,
      "Ġswords": 7252,
      "Ġposter": 7253,
      "ĠCra": 7254,
      "Ġwobbly": 7255,
      "Ġdefe": 7256,
      "Ġchopped": 7257,
      "Ġjoining": 7258,
      "Ġforgets": 7259,
      "Ġexamining": 7260,
      "Ġsuggestion": 7261,
      "Ġsneezing": 7262,
      "Ġsurfboard": 7263,
      "Ġsuffered": 7264,
      "Su": 7265,
      "Woof": 7266,
      "eel": 7267,
      "fia": 7268,
      "Ġaimed": 7269,
      "Ġfaded": 7270,
      "Ġmaster": 7271,
      "Ġpens": 7272,
      "aying": 7273,
      "Ġgest": 7274,
      "Ġreun": 7275,
      "Ġroars": 7276,
      "Ġcosy": 7277,
      "ÅĵWell": 7278,
      "ĠJaney": 7279,
      "Ġmagician": 7280,
      "Ġsteady": 7281,
      "Ġperformed": 7282,
      "Ġtables": 7283,
      "Steve": 7284,
      "Ġbells": 7285,
      "Ġcoop": 7286,
      "Ġfishes": 7287,
      "Ġpresses": 7288,
      "Ġsqueak": 7289,
      "Ġfirefly": 7290,
      "ĠLouise": 7291,
      "Ġreflection": 7292,
      "Ġdefinitely": 7293,
      "Ġwag": 7294,
      "ĠTake": 7295,
      "ĠSc": 7296,
      "imon": 7297,
      "cky": 7298,
      "sty": 7299,
      "Ġplaytime": 7300,
      "idey": 7301,
      "ĠWally": 7302,
      "Ġsled": 7303,
      "Ġraces": 7304,
      "Ġsending": 7305,
      "Ġmesmerized": 7306,
      "Ġencouraging": 7307,
      "Miss": 7308,
      "Oops": 7309,
      "hew": 7310,
      "Ġcertain": 7311,
      "Ġdip": 7312,
      "Ġgears": 7313,
      "ening": 7314,
      "anwhile": 7315,
      "lle": 7316,
      "Ġshown": 7317,
      "Ġscen": 7318,
      "ĠElly": 7319,
      "Ġbravest": 7320,
      "Whenever": 7321,
      "Ġcolder": 7322,
      "ounce": 7323,
      "attered": 7324,
      "Ġloading": 7325,
      "Ġburying": 7326,
      "ĠBirdy": 7327,
      "Ġslammed": 7328,
      "Ġechoed": 7329,
      "Ġwarrior": 7330,
      "espite": 7331,
      "Ġfant": 7332,
      "Ġhen": 7333,
      "onse": 7334,
      "onna": 7335,
      "Ġinj": 7336,
      "Ġease": 7337,
      "Ġund": 7338,
      "Ġplayroom": 7339,
      "ugs": 7340,
      "Ġcharge": 7341,
      "roken": 7342,
      "ĠFuzzy": 7343,
      "Ġslips": 7344,
      "otten": 7345,
      "Ġfits": 7346,
      "Ġresponse": 7347,
      "ĠStay": 7348,
      "Ġnecklaces": 7349,
      "Ġdesigns": 7350,
      "Ġpreparing": 7351,
      "Ġefforts": 7352,
      "Ġpupils": 7353,
      "Ġtravelling": 7354,
      "Frank": 7355,
      "Ġoccas": 7356,
      "Ġfantastic": 7357,
      "Like": 7358,
      "Ġtossed": 7359,
      "Ġgonna": 7360,
      "elvet": 7361,
      "Ġbraver": 7362,
      "Ġmonths": 7363,
      "Ġlessons": 7364,
      "ĠKelly": 7365,
      "Ġbaths": 7366,
      "Ġstands": 7367,
      "Ġbaskets": 7368,
      "Ġlifts": 7369,
      "Ġpuzzled": 7370,
      "ĠAlthough": 7371,
      "Ġpays": 7372,
      "Ġawo": 7373,
      "Ġsuits": 7374,
      "Ġgrandd": 7375,
      "Ġstacked": 7376,
      "Ġresults": 7377,
      "Ġpunishment": 7378,
      "Ġleapt": 7379,
      "ĠAshley": 7380,
      "Ġgrandparents": 7381,
      "Ġmate": 7382,
      "Ġpours": 7383,
      "Ġnapping": 7384,
      "Ġnuzz": 7385,
      "onies": 7386,
      "lets": 7387,
      "Ġev": 7388,
      "Ġearn": 7389,
      "Ġrotten": 7390,
      "rian": 7391,
      "chy": 7392,
      "Ġaside": 7393,
      "ĠWell": 7394,
      "Ġchanging": 7395,
      "Ġrainy": 7396,
      "Ġduckling": 7397,
      "ĠThatÃ¢": 7398,
      "Ġantic": 7399,
      "ĠUnder": 7400,
      "Ġhumans": 7401,
      "Ġlending": 7402,
      "Ġlicking": 7403,
      "ĠQuick": 7404,
      "Car": 7405,
      "Very": 7406,
      "found": 7407,
      "Ġstitches": 7408,
      "Ġbelts": 7409,
      "Ġtablet": 7410,
      "Ġdrivers": 7411,
      "Ġaction": 7412,
      "Ġnervously": 7413,
      "Ġfrowning": 7414,
      "Ġstreamers": 7415,
      "Ġcampfire": 7416,
      "Ġtwinkled": 7417,
      "Ġsewed": 7418,
      "Ġdespite": 7419,
      "Ġ10": 7420,
      "Ġrobber": 7421,
      "Ġconnected": 7422,
      "Ġarranged": 7423,
      "Ġconflict": 7424,
      "Rachel": 7425,
      "mates": 7426,
      "ĠX": 7427,
      "rect": 7428,
      "Ġponies": 7429,
      "ĠSw": 7430,
      "Ġelf": 7431,
      "unity": 7432,
      "ĠMabel": 7433,
      "fus": 7434,
      "nap": 7435,
      "Ġtapped": 7436,
      "Ġwaterfall": 7437,
      "Ġwobble": 7438,
      "Ġwrigg": 7439,
      "Ġpolar": 7440,
      "meal": 7441,
      "Ġpennies": 7442,
      "Ġtidied": 7443,
      "Ġpanicked": 7444,
      "Ġwhispers": 7445,
      "ĠUp": 7446,
      "ĠFinn": 7447,
      "Ġoatmeal": 7448,
      "Ġcorrect": 7449,
      "Tony": 7450,
      "now": 7451,
      "Ġ2": 7452,
      "Ġcongratul": 7453,
      "ĠHolly": 7454,
      "utter": 7455,
      "adie": 7456,
      "ĠSpidey": 7457,
      "Ġwarmer": 7458,
      "Ġblocked": 7459,
      "Ġpolitely": 7460,
      "Ġmailed": 7461,
      "Ġbattle": 7462,
      "ĠStitch": 7463,
      "Ġappreciated": 7464,
      "Ġwhispering": 7465,
      "Ġflavors": 7466,
      "Ġbehavior": 7467,
      "Ġreunited": 7468,
      "Bill": 7469,
      "bage": 7470,
      "bird": 7471,
      "Ġwoof": 7472,
      "innie": 7473,
      "Ġnewfound": 7474,
      "Ġwhose": 7475,
      "ĠDr": 7476,
      "Ġovercome": 7477,
      "Ġsurprising": 7478,
      "Ġtoward": 7479,
      "Ġforests": 7480,
      "Ġcollap": 7481,
      "Ġgarbage": 7482,
      "Ġleads": 7483,
      "Ġotters": 7484,
      "Ġreversed": 7485,
      "rrr": 7486,
      "ĠGranny": 7487,
      "Ġmasterp": 7488,
      "Jamie": 7489,
      "broken": 7490,
      "eedy": 7491,
      "munk": 7492,
      "sers": 7493,
      "Ġtying": 7494,
      "erm": 7495,
      "Ġnur": 7496,
      "ooking": 7497,
      "ighing": 7498,
      "ĠBee": 7499,
      "Ġbru": 7500,
      "Ġprob": 7501,
      "ection": 7502,
      "Ġcleaner": 7503,
      "ĠPr": 7504,
      "Ġdisob": 7505,
      "Ġsweetest": 7506,
      "Ġcalmly": 7507,
      "Ġdriveway": 7508,
      "Ġmaterial": 7509,
      "Ġcottage": 7510,
      "Ġevil": 7511,
      "Ġprobably": 7512,
      "Our": 7513,
      "Since": 7514,
      "Ġsou": 7515,
      "Ġwakes": 7516,
      "Ġpins": 7517,
      "ĠSmo": 7518,
      "ppies": 7519,
      "ĠthatÃ¢": 7520,
      "ĠLove": 7521,
      "Ġsnort": 7522,
      "Ġteles": 7523,
      "ÅĵOf": 7524,
      "Ġstopping": 7525,
      "Ġrains": 7526,
      "Ġbits": 7527,
      "ĠKaren": 7528,
      "Ġdistract": 7529,
      "ounced": 7530,
      "Ġpops": 7531,
      "Ġlaying": 7532,
      "Ġluckily": 7533,
      "Ġscurry": 7534,
      "ĠElsa": 7535,
      "ĠPippin": 7536,
      "Ġmerma": 7537,
      "Follow": 7538,
      "ĠSqueaky": 7539,
      "Ġawoke": 7540,
      "Ġtelescope": 7541,
      "?!\"": 7542,
      "Ros": 7543,
      "crow": 7544,
      "whe": 7545,
      "Ġheight": 7546,
      "veral": 7547,
      "ading": 7548,
      "Ġseveral": 7549,
      "Ġspook": 7550,
      "ĠFire": 7551,
      "Ġwatering": 7552,
      "Ġoffic": 7553,
      "Ġbeautifully": 7554,
      "ÅĵThe": 7555,
      "ĠPet": 7556,
      "Ġbelieving": 7557,
      "Ġaddress": 7558,
      "Ġrisks": 7559,
      "Ġanticip": 7560,
      "mered": 7561,
      "Ġtiss": 7562,
      "Ġlent": 7563,
      "Ġmaker": 7564,
      "ĠMichael": 7565,
      "ÅĵMom": 7566,
      "Ġconqu": 7567,
      "Ġunderstands": 7568,
      "ĠKiki": 7569,
      "Ġsparks": 7570,
      "Ġcloudy": 7571,
      "Ġplanting": 7572,
      "ĠOnly": 7573,
      "Ġscram": 7574,
      "Ġseller": 7575,
      "ĠDavey": 7576,
      "Ġtravels": 7577,
      "Ġartwork": 7578,
      "Ġcobwebs": 7579,
      "ĠMeg": 7580,
      "Ġseashells": 7581,
      "Ġconversation": 7582,
      "Ġspooky": 7583,
      "cher": 7584,
      "upt": 7585,
      "wise": 7586,
      "worm": 7587,
      "Ġgap": 7588,
      "Ġsoaking": 7589,
      "ĠgirlÃ¢": 7590,
      "Ġcoach": 7591,
      "ĠLaura": 7592,
      "Ġposit": 7593,
      "Ġthoughts": 7594,
      "Ġslither": 7595,
      "Ġuntie": 7596,
      "Ġtricycle": 7597,
      "Ġworrying": 7598,
      "Ġcraft": 7599,
      "Ġgrows": 7600,
      "Ġvegg": 7601,
      "Ġheartbroken": 7602,
      "Ġmints": 7603,
      "ĠAlong": 7604,
      "Ġtires": 7605,
      "Ġoysters": 7606,
      "azing": 7607,
      "Ġloops": 7608,
      "Ġinsisting": 7609,
      "Ġrotting": 7610,
      "Ġadmiration": 7611,
      "Ġbrushing": 7612,
      "Ġcongratulated": 7613,
      "Abigail": 7614,
      "Beth": 7615,
      "Penny": 7616,
      "aven": 7617,
      "cent": 7618,
      "Ġtar": 7619,
      "Ġaim": 7620,
      "Ġsill": 7621,
      "ĠTry": 7622,
      "idence": 7623,
      "Ġni": 7624,
      "rier": 7625,
      "Ġshady": 7626,
      "Ġanger": 7627,
      "Ġpoppies": 7628,
      "bbling": 7629,
      "ĠJojo": 7630,
      "ÅĵOkay": 7631,
      "ÅĵWhere": 7632,
      "Ġbusiness": 7633,
      "Ġfills": 7634,
      "Ġtighter": 7635,
      "Ġsniffs": 7636,
      "Ġpermitted": 7637,
      "Ġpurr": 7638,
      "Ġdiscussing": 7639,
      "Ġresponsib": 7640,
      "Ġdamaged": 7641,
      "Ġforgiving": 7642,
      "Ġchipmunk": 7643,
      "Ġconduct": 7644,
      "Surprise": 7645,
      "Ġmasterpiece": 7646,
      "Ġanticipation": 7647,
      "Adam": 7648,
      "Mad": 7649,
      "isions": 7650,
      "anie": 7651,
      "Ġshoo": 7652,
      "Ġreapp": 7653,
      "Ġexcept": 7654,
      "Ġmemb": 7655,
      "âĤ¬,": 7656,
      "ĠLena": 7657,
      "Ġgoodby": 7658,
      "Ġdoorway": 7659,
      "ĠGary": 7660,
      "Ġbiting": 7661,
      "Ġbelongings": 7662,
      "Ġsurv": 7663,
      "Ġchocolates": 7664,
      "Ġapologised": 7665,
      "Ġdiamonds": 7666,
      "Ġrepeating": 7667,
      "Ġbreathing": 7668,
      "Ġtubes": 7669,
      "ĠVelvet": 7670,
      "Ġpuppet": 7671,
      "citedly": 7672,
      "ĠAngel": 7673,
      "Ġtrotted": 7674,
      "eeling": 7675,
      "Ġveggies": 7676,
      "Ġmembers": 7677,
      "bi": 7678,
      "sm": 7679,
      "Ġmood": 7680,
      "ammy": 7681,
      "ĠIm": 7682,
      "elie": 7683,
      "ĠBow": 7684,
      "Ġknots": 7685,
      "Ġalthough": 7686,
      "Ġflips": 7687,
      "Ġqui": 7688,
      "asty": 7689,
      "Ġcounts": 7690,
      "Ġreminding": 7691,
      "Ġwisely": 7692,
      "Ġcovering": 7693,
      "Ġsniffing": 7694,
      "ĠPatty": 7695,
      "Ġspells": 7696,
      "Ġsqueaked": 7697,
      "Ġvehicles": 7698,
      "Ġsewing": 7699,
      "Ġaccomplished": 7700,
      "ĠMartha": 7701,
      "Ġcowboy": 7702,
      "Ġrefuse": 7703,
      "Ġcocoon": 7704,
      "Ġscrambled": 7705,
      "Ġconductor": 7706,
      "Ġgoodbyes": 7707,
      "pes": 7708,
      "please": 7709,
      "rup": 7710,
      "vant": 7711,
      "Ġdot": 7712,
      "Ġpound": 7713,
      "isc": 7714,
      "ĠSplash": 7715,
      "ĠHallow": 7716,
      "ĠHelen": 7717,
      "Ġyel": 7718,
      "Ġstumble": 7719,
      "ĠWendy": 7720,
      "Ġdecisions": 7721,
      "Ġblinking": 7722,
      "Ġcleared": 7723,
      "ĠCle": 7724,
      "Ġfins": 7725,
      "Ġunw": 7726,
      "acy": 7727,
      "ĠRyan": 7728,
      "Ġsmelling": 7729,
      "Ġpackages": 7730,
      "ÅĵIf": 7731,
      "ĠStar": 7732,
      "Ġpleaded": 7733,
      "Ġtrusting": 7734,
      "undred": 7735,
      "ĠFreddie": 7736,
      "Ġpigeons": 7737,
      "Ġshovels": 7738,
      "manda": 7739,
      "Ġexercises": 7740,
      "Ġquarreling": 7741,
      "Ġpassports": 7742,
      "Ġwiggly": 7743,
      "ĠFroggy": 7744,
      "Ġmermaid": 7745,
      "Ġquieter": 7746,
      "ĠHalloween": 7747,
      "Hannah": 7748,
      "Mimi": 7749,
      "but": 7750,
      "dress": 7751,
      "line": 7752,
      "its": 7753,
      "Ġgerm": 7754,
      "Ġgazing": 7755,
      "ĠMag": 7756,
      "ĠAny": 7757,
      "ighting": 7758,
      "Ġflick": 7759,
      "Ġvines": 7760,
      "antha": 7761,
      "Ġslipping": 7762,
      "Ġhanding": 7763,
      "ĠPin": 7764,
      "Ġsquir": 7765,
      "ĠNana": 7766,
      "Ġhairdress": 7767,
      "Ġvisitor": 7768,
      "Ġteachers": 7769,
      "Ġimages": 7770,
      "Ġhonking": 7771,
      "Ġshrunk": 7772,
      "Ġsolving": 7773,
      "Ġprayers": 7774,
      "Ġfigures": 7775,
      "illiam": 7776,
      "Ġcuddles": 7777,
      "Ġpedaled": 7778,
      "...\"": 7779,
      "Ġannoyed": 7780,
      "Ġreassured": 7781,
      "Ġsyrup": 7782,
      "Ġgesture": 7783,
      "Ġtarget": 7784,
      "Ġyelped": 7785,
      "Listen": 7786,
      "father": 7787,
      "vroom": 7788,
      "rew": 7789,
      "Ġcoug": 7790,
      "Ġrin": 7791,
      "Ġlasers": 7792,
      "Ġdecl": 7793,
      "Ġgoodies": 7794,
      "Ġflip": 7795,
      "Ġthanking": 7796,
      "iona": 7797,
      "Ġjoked": 7798,
      "ilda": 7799,
      "ÅĵBut": 7800,
      "Ġdangers": 7801,
      "ĠGina": 7802,
      "ĠSpeedy": 7803,
      "Ġpaintbrush": 7804,
      "Ġbandages": 7805,
      "Ġgenerosity": 7806,
      "Ġsqueezing": 7807,
      "Ġdiscoveries": 7808,
      "ĠMikey": 7809,
      "Ġspeeding": 7810,
      "Ġdisturbing": 7811,
      "ĠSnowman": 7812,
      "Ġemerged": 7813,
      "belle": 7814,
      "Ġexperienced": 7815,
      "Je": 7816,
      "Ġtumbled": 7817,
      "Ġdump": 7818,
      "Ġnasty": 7819,
      "ĠSl": 7820,
      "str": 7821,
      "Ġspat": 7822,
      "inkle": 7823,
      "Ġuntied": 7824,
      "Ġconvin": 7825,
      "Ġwarmly": 7826,
      "ĠRain": 7827,
      "Ġafar": 7828,
      "ĠAli": 7829,
      "ĠZara": 7830,
      "Ġtwisting": 7831,
      "Ġbracelets": 7832,
      "Tweetie": 7833,
      "asmine": 7834,
      "Ġtype": 7835,
      "Ġinstruments": 7836,
      "Ġconcert": 7837,
      "steps": 7838,
      "Ġhairdresser": 7839,
      "Bet": 7840,
      "Joy": 7841,
      "cie": 7842,
      "da": 7843,
      "gain": 7844,
      "ware": 7845,
      "Ġties": 7846,
      "order": 7847,
      "Ġrays": 7848,
      "Ġweeds": 7849,
      "ĠBecause": 7850,
      "Ġscent": 7851,
      "Ġchilly": 7852,
      "ĠSofia": 7853,
      "Ġcheers": 7854,
      "ctric": 7855,
      "Ġstored": 7856,
      "acle": 7857,
      "Ġdressing": 7858,
      "Ġpresented": 7859,
      "Ġguessing": 7860,
      "Ġargum": 7861,
      "Ġscooters": 7862,
      "Ġsupported": 7863,
      "Ġstomp": 7864,
      "Ġincreasing": 7865,
      "Ġuniforms": 7866,
      "Ġsuffering": 7867,
      "intment": 7868,
      "ĠElsie": 7869,
      "Ġinspired": 7870,
      "Ġforgiveness": 7871,
      "Ġsnowflakes": 7872,
      "Ġnearest": 7873,
      "Ġaisle": 7874,
      "Ġnibbled": 7875,
      "Ġwrinkled": 7876,
      "Ġofficers": 7877,
      "Jess": 7878,
      "Mine": 7879,
      "mies": 7880,
      "pit": 7881,
      "Ġtipped": 7882,
      "ilities": 7883,
      "ĠHoney": 7884,
      "Ġrather": 7885,
      "Ġforce": 7886,
      "Ġflock": 7887,
      "ĠDin": 7888,
      "Ġtrans": 7889,
      "ÅĵHey": 7890,
      "ÅĵPlease": 7891,
      "Ġcons": 7892,
      "Ġunfortunately": 7893,
      "ĠNan": 7894,
      "ĠRay": 7895,
      "issa": 7896,
      "Ġjud": 7897,
      "Ġmarve": 7898,
      "Ġfoxes": 7899,
      "Ġbeeh": 7900,
      "Ġfootsteps": 7901,
      "Ġtoolbox": 7902,
      "Ġrobots": 7903,
      "ĠZoomy": 7904,
      "Ġangels": 7905,
      "Always": 7906,
      "Ġscarecrow": 7907,
      "Ġshorts": 7908,
      "Ġconfidence": 7909,
      "Ġdelayed": 7910,
      "ĠFrosty": 7911,
      "ĠClaus": 7912,
      "Ġswayed": 7913,
      "Ġseagulls": 7914,
      "Ġopport": 7915,
      "Ġoppos": 7916,
      "what": 7917,
      "Ġhundred": 7918,
      "ĠTiger": 7919,
      "ĠIzzy": 7920,
      "Ġwithin": 7921,
      "Ġmanners": 7922,
      "Ġtreated": 7923,
      "ÅĵGood": 7924,
      "Ġswimmer": 7925,
      "Ġcupcake": 7926,
      "ĠFlo": 7927,
      "ordinary": 7928,
      "ails": 7929,
      "ĠOther": 7930,
      "Ġhumming": 7931,
      "Ġfrowns": 7932,
      "Ġsharks": 7933,
      "Ġwealth": 7934,
      "Ġsweat": 7935,
      "Ġgrandson": 7936,
      "Ġgrandfather": 7937,
      "Chloe": 7938,
      "Ġstroke": 7939,
      "Anne": 7940,
      "Ġactivity": 7941,
      "Ġencouragement": 7942,
      "ĠChris": 7943,
      "Ġcotton": 7944,
      "Ġroutine": 7945,
      "Ġgranddaughter": 7946,
      "Ġtissue": 7947,
      "Each": 7948,
      "Ralph": 7949,
      "Watch": 7950,
      "even": 7951,
      "ibbit": 7952,
      "Ġting": 7953,
      "Ġtoss": 7954,
      "Ġsav": 7955,
      "Ġshall": 7956,
      "Ġjars": 7957,
      "artled": 7958,
      "Ġwhoever": 7959,
      "ĠLion": 7960,
      "Ġquilt": 7961,
      "Ġsquished": 7962,
      "Ġelectric": 7963,
      "Ġextraordinary": 7964,
      "Ġtoothbrush": 7965,
      "Ġsimply": 7966,
      "Ġspills": 7967,
      "Ġpeeled": 7968,
      "Ġresponded": 7969,
      "Ġmanager": 7970,
      "iscuit": 7971,
      "Ġopposite": 7972,
      "Am": 7973,
      "Bunny": 7974,
      "Out": 7975,
      "Rob": 7976,
      "Ted": 7977,
      "bank": 7978,
      "ilted": 7979,
      "Ġsmashed": 7980,
      "Ġjugg": 7981,
      "Ġexch": 7982,
      "Ġclues": 7983,
      "ĠElle": 7984,
      "Ġswo": 7985,
      "ĠFighting": 7986,
      "Ġtweet": 7987,
      "Ġjoins": 7988,
      "Ġwinding": 7989,
      "sol": 7990,
      "Ġtasting": 7991,
      "Ġdecoration": 7992,
      "Ġteams": 7993,
      "Meanwhile": 7994,
      "Ġsteering": 7995,
      "Ġcharacters": 7996,
      "Ġnuzzled": 7997,
      "Ġscurrying": 7998,
      "Karen": 7999,
      "Mat": 8000,
      "Take": 8001,
      "hil": 8002,
      "we": 8003,
      "Ġbou": 8004,
      "ĠTaking": 8005,
      "ats": 8006,
      "ĠSimon": 8007,
      "onnie": 8008,
      "Ġbeating": 8009,
      "lyn": 8010,
      "Ġsped": 8011,
      "ĠAva": 8012,
      "ĠWelcome": 8013,
      "quet": 8014,
      "Ġblond": 8015,
      "ĠDespite": 8016,
      "Ġtwenty": 8017,
      "Ġfond": 8018,
      "Ġgardens": 8019,
      "Ġraising": 8020,
      "Ġhardest": 8021,
      "ÅĵWho": 8022,
      "Ġdrown": 8023,
      "Ġdripping": 8024,
      "ugging": 8025,
      "Ġpurpose": 8026,
      "Ġprick": 8027,
      "Ġtentacles": 8028,
      "Ġaware": 8029,
      "Ġsweep": 8030,
      "Ġsweaty": 8031,
      "ĠDaniel": 8032,
      "Ġswaying": 8033,
      "Ġbeaming": 8034,
      "Ġcustomers": 8035,
      "Rosie": 8036,
      "Ġbeehive": 8037,
      "Ġswollen": 8038,
      "Any": 8039,
      "Get": 8040,
      "Tilly": 8041,
      "pen": 8042,
      "ĠOkay": 8043,
      "rest": 8044,
      "Ġgrip": 8045,
      "oration": 8046,
      "Ġramp": 8047,
      "Ġstall": 8048,
      "Ġrely": 8049,
      "Ġbirdhouse": 8050,
      "Ġflipped": 8051,
      "ortunately": 8052,
      "empt": 8053,
      "ĠJoanna": 8054,
      "bee": 8055,
      "ĠGinger": 8056,
      "Ġdisc": 8057,
      "Ġslowed": 8058,
      "spe": 8059,
      "Ġvisits": 8060,
      "Ġjobs": 8061,
      "Ġattempt": 8062,
      "Ġnests": 8063,
      "Ġstorms": 8064,
      "Ġreminds": 8065,
      "Ġmagnif": 8066,
      "Ġencount": 8067,
      "Ġstatues": 8068,
      "Ġmillion": 8069,
      "Ġrepairman": 8070,
      "Ġdisplayed": 8071,
      "Ġnovels": 8072,
      "Ġbothering": 8073,
      "ĠLibby": 8074,
      "Two": 8075,
      "Ġcollapsed": 8076,
      "Ġdeclared": 8077,
      "Ġtransf": 8078,
      "Ġbouquet": 8079,
      "Dear": 8080,
      "Mon": 8081,
      "emy": 8082,
      "oor": 8083,
      "Ġhoo": 8084,
      "Ġdep": 8085,
      "orter": 8086,
      "Ġyumm": 8087,
      "Ġsoot": 8088,
      "storm": 8089,
      "Ġform": 8090,
      "Ġshimmering": 8091,
      "Ġkings": 8092,
      "Ġloc": 8093,
      "Ġnodd": 8094,
      "Ġchanges": 8095,
      "Ġenemy": 8096,
      "Ġwaters": 8097,
      "Ġends": 8098,
      "Ġsnug": 8099,
      "Ġglob": 8100,
      "Ġnights": 8101,
      "ĠRu": 8102,
      "Ġcomforting": 8103,
      "Ġtidying": 8104,
      "Ġrelaxing": 8105,
      "Ġcrowns": 8106,
      "Ġclearly": 8107,
      "Ġquestioned": 8108,
      "Ġlipstick": 8109,
      "Ġmagazines": 8110,
      "Ġinchworm": 8111,
      "Ġflashing": 8112,
      "Ġgerms": 8113,
      "Ġconsid": 8114,
      "Ġglobe": 8115,
      "Boys": 8116,
      "uel": 8117,
      "Ġdarl": 8118,
      "atitude": 8119,
      "ances": 8120,
      "rie": 8121,
      "Ġlies": 8122,
      "ended": 8123,
      "ĠAbi": 8124,
      "romise": 8125,
      "Ġgratitude": 8126,
      "ĠPaula": 8127,
      "athy": 8128,
      "Ġguide": 8129,
      "Ġexpert": 8130,
      "Ġself": 8131,
      "Ġpizzas": 8132,
      "Beep": 8133,
      "Ġcamel": 8134,
      "Ġwindowsill": 8135,
      "Ġvibr": 8136,
      "Ġmosquitoes": 8137,
      "Ġmeowing": 8138,
      "Ġfocus": 8139,
      "ĠPippa": 8140,
      "Ġthorns": 8141,
      "ĠJoanne": 8142,
      "Ġargument": 8143,
      "Ġdarlings": 8144,
      "Cindy": 8145,
      "Too": 8146,
      "ae": 8147,
      "hind": 8148,
      "ulp": 8149,
      "Ġbitten": 8150,
      "Ġwasting": 8151,
      "Ġuna": 8152,
      "ppa": 8153,
      "ĠmomÃ¢": 8154,
      "ĠBrian": 8155,
      "Ġsculp": 8156,
      "ift": 8157,
      "ĠLooking": 8158,
      "Ġtearing": 8159,
      "ĠCurious": 8160,
      "ÅĵSee": 8161,
      "Ġdoorbell": 8162,
      "ĠSpring": 8163,
      "Ġmovements": 8164,
      "Ġriverbank": 8165,
      "Ġsmoking": 8166,
      "Ġpicnics": 8167,
      "ĠAlan": 8168,
      "Ġsoapy": 8169,
      "Ġturtles": 8170,
      "Ġenviron": 8171,
      "Ġbeeped": 8172,
      "Ġprevented": 8173,
      "Ġobeyed": 8174,
      "Ġglittering": 8175,
      "Ġclicked": 8176,
      "Ġattacked": 8177,
      "Ġexpression": 8178,
      "Julie": 8179,
      "Ġmunching": 8180,
      "Ġsadder": 8181,
      "Ġcorrectly": 8182,
      "Ġconvinced": 8183,
      "Ġenvironment": 8184,
      "Mira": 8185,
      "earing": 8186,
      "po": 8187,
      "Ġtumm": 8188,
      "ering": 8189,
      "Ġheaven": 8190,
      "ĠSatur": 8191,
      "Ġrowed": 8192,
      "ĠBarry": 8193,
      "ĠMother": 8194,
      "Ġloses": 8195,
      "Ġscri": 8196,
      "ĠEva": 8197,
      "ĠDory": 8198,
      "anted": 8199,
      "Ġbrains": 8200,
      "Yesterday": 8201,
      "ÅĵSure": 8202,
      "ĠPretty": 8203,
      "ipes": 8204,
      "LetÃ¢": 8205,
      "Ġbrightest": 8206,
      "Ġsquaw": 8207,
      "Ġsandpit": 8208,
      "uffin": 8209,
      "Ġsprout": 8210,
      "Ġwhistles": 8211,
      "Ġgiggles": 8212,
      "Ġminds": 8213,
      "Ġbanged": 8214,
      "Ġcheaper": 8215,
      "Ġlanguages": 8216,
      "Ġsprinkle": 8217,
      "Ġbothered": 8218,
      "Ġpurrs": 8219,
      "Ġinstrument": 8220,
      "Ġnurses": 8221,
      "Ġnibble": 8222,
      "Ġsurvive": 8223,
      "Ġencountered": 8224,
      "Ġtummies": 8225,
      "ĠSaturday": 8226,
      "Ol": 8227,
      "rily": 8228,
      "water": 8229,
      "Ġgall": 8230,
      "ĠSnap": 8231,
      "ĠMina": 8232,
      "ĠAna": 8233,
      "aret": 8234,
      "Ġfailed": 8235,
      "Ġswitched": 8236,
      "usty": 8237,
      "Ġcares": 8238,
      "ĠMomma": 8239,
      "ĠCara": 8240,
      "ĠRavi": 8241,
      "Ġparted": 8242,
      "boards": 8243,
      "Ġvisitors": 8244,
      "Ġcaw": 8245,
      "Ġdesigning": 8246,
      "Goodnight": 8247,
      "Ġrecorder": 8248,
      "Ġclassmates": 8249,
      "Ġships": 8250,
      "Ġcracks": 8251,
      "Ġcheckout": 8252,
      "Ġpepperoni": 8253,
      "ĠRoger": 8254,
      "Leave": 8255,
      "ĠJean": 8256,
      "ĠKevin": 8257,
      "Ġoutfits": 8258,
      "ĠJonny": 8259,
      "Ġastronauts": 8260,
      "Ġexploded": 8261,
      "ĠCrabby": 8262,
      "Bang": 8263,
      "Liz": 8264,
      "opper": 8265,
      "val": 8266,
      "Ġtin": 8267,
      "Ġbuddy": 8268,
      "ative": 8269,
      "ĠShelly": 8270,
      "Ġsheets": 8271,
      "elope": 8272,
      "ittered": 8273,
      "Ġwhoo": 8274,
      "Ġkilled": 8275,
      "Ġbond": 8276,
      "getic": 8277,
      "Ġflashed": 8278,
      "arable": 8279,
      "ĠNora": 8280,
      "Ġfloors": 8281,
      "Ġcompan": 8282,
      "Ġinstantly": 8283,
      "Ġtroubles": 8284,
      "ĠStrip": 8285,
      "Ġhangers": 8286,
      "Alright": 8287,
      "Ġunlo": 8288,
      "Ġrescuing": 8289,
      "ĠPatch": 8290,
      "Ġunpacking": 8291,
      "Ġfilms": 8292,
      "Ġtraveling": 8293,
      "Ġapplauding": 8294,
      "Ġcontainer": 8295,
      "Ġspits": 8296,
      "ĠMegan": 8297,
      "Ġflaps": 8298,
      "Ġtextures": 8299,
      "Ġsternly": 8300,
      "Ġoccasion": 8301,
      "Ġdisobey": 8302,
      "Jeff": 8303,
      "Ke": 8304,
      "Papa": 8305,
      "bu": 8306,
      "Ġfain": 8307,
      "anced": 8308,
      "eline": 8309,
      "ĠMan": 8310,
      "ĠMaisy": 8311,
      "Ġsometime": 8312,
      "ĠFel": 8313,
      "Ġfires": 8314,
      "Ġimaginary": 8315,
      "Ġpractised": 8316,
      "Ġcheerfully": 8317,
      "Ġcomputers": 8318,
      "Ġcrocodiles": 8319,
      "Ġmischie": 8320,
      "udged": 8321,
      "Ġtaped": 8322,
      "Ġinsep": 8323,
      "Ġairplanes": 8324,
      "Ġexpecting": 8325,
      "ĠBobbie": 8326,
      "Someone": 8327,
      "ĠPinchy": 8328,
      "Ġmischievous": 8329,
      "David": 8330,
      "Poppy": 8331,
      "lt": 8332,
      "lied": 8333,
      "oc": 8334,
      "pr": 8335,
      "Ġill": 8336,
      "ita": 8337,
      "erk": 8338,
      "Ġnatur": 8339,
      "ĠSk": 8340,
      "Ġyum": 8341,
      "amma": 8342,
      "Ġsmelt": 8343,
      "Ġseals": 8344,
      "ĠAmanda": 8345,
      "ĠYouÃ¢": 8346,
      "ĠLy": 8347,
      "Ġchin": 8348,
      "bba": 8349,
      "Ġoverhead": 8350,
      "Ġexploration": 8351,
      "Ġdeed": 8352,
      "Ġsquinted": 8353,
      "Ġbuses": 8354,
      "airy": 8355,
      "Ġelbow": 8356,
      "Ġtownspe": 8357,
      "Ġmattered": 8358,
      "Ġbreaths": 8359,
      "Ġtickling": 8360,
      "Ġscrub": 8361,
      "ĠBecky": 8362,
      "Ġcrawls": 8363,
      "Ġwiser": 8364,
      "Ġorders": 8365,
      "ĠFinny": 8366,
      "Ġerase": 8367,
      "Ġexplains": 8368,
      "Ġobserving": 8369,
      "Ġpaddling": 8370,
      "ĠJanie": 8371,
      "Freddy": 8372,
      "Ġparticularly": 8373,
      "Ġconquered": 8374,
      "Ġcompanion": 8375,
      "Ġinseparable": 8376,
      "Ġtownspeople": 8377,
      "Cla": 8378,
      "Honey": 8379,
      "flowers": 8380,
      "hny": 8381,
      "py": 8382,
      "Ġbound": 8383,
      "Ġwaded": 8384,
      "ators": 8385,
      "ĠBer": 8386,
      "Ġrewards": 8387,
      "ĠĊĊ": 8388,
      "Ġspy": 8389,
      "asant": 8390,
      "Ġtraded": 8391,
      "Ġskies": 8392,
      "Momma": 8393,
      "Ġchecks": 8394,
      "ĠPen": 8395,
      "Ġforgives": 8396,
      "Ġsingers": 8397,
      "Ġsets": 8398,
      "Ġzooms": 8399,
      "Ġrobin": 8400,
      "Ġsprays": 8401,
      "ĠAlbert": 8402,
      "Ġrats": 8403,
      "Ġterrified": 8404,
      "Ġghosts": 8405,
      "Ġvests": 8406,
      "ĠMaddie": 8407,
      "Brown": 8408,
      "Ġnodding": 8409,
      "Claire": 8410,
      "Milo": 8411,
      "Zoe": 8412,
      "belt": 8413,
      "five": 8414,
      "lo": 8415,
      "lers": 8416,
      "olp": 8417,
      "rough": 8418,
      "Ġicing": 8419,
      "ĠTy": 8420,
      "Ġhaven": 8421,
      "ĠSadie": 8422,
      "llas": 8423,
      "ĠHope": 8424,
      "otch": 8425,
      "Ġshallow": 8426,
      "Ġclerk": 8427,
      "ĠWilliam": 8428,
      "Ġsurely": 8429,
      "Ġsandy": 8430,
      "ĠDog": 8431,
      "Jacky": 8432,
      "asha": 8433,
      "Ġpetting": 8434,
      "Ġembra": 8435,
      "Ġsupplied": 8436,
      "Stay": 8437,
      "Ġstretches": 8438,
      "Ġpinching": 8439,
      "Ġawful": 8440,
      "Ġawhile": 8441,
      "ivia": 8442,
      "Ġscratching": 8443,
      "ĠMarie": 8444,
      "Ġumbrellas": 8445,
      "udolp": 8446,
      "Ġscolds": 8447,
      "Ġapplause": 8448,
      "ĠSeeing": 8449,
      "Ġfascinating": 8450,
      "ĠFrankie": 8451,
      "Maya": 8452,
      "Ġprickly": 8453,
      "Ġsculpture": 8454,
      "udolph": 8455,
      "Buzz": 8456,
      "Pl": 8457,
      "Put": 8458,
      "free": 8459,
      "oss": 8460,
      "Ġ5": 8461,
      "Ġsens": 8462,
      "Ġbas": 8463,
      "idnight": 8464,
      "immered": 8465,
      "Ġrumbling": 8466,
      "rick": 8467,
      "Ġmommies": 8468,
      "Ġweighing": 8469,
      "ĠBa": 8470,
      "ĠBaa": 8471,
      "ĠBonnie": 8472,
      "Ġshorter": 8473,
      "ĠAlly": 8474,
      "ddie": 8475,
      "ĠLia": 8476,
      "ĠDuck": 8477,
      "ĠFiona": 8478,
      "Ġpeep": 8479,
      "ĠAnnabelle": 8480,
      "Ġdonkey": 8481,
      "ÅĵMaybe": 8482,
      "Ġleaking": 8483,
      "Ġbuckled": 8484,
      "Ġbathing": 8485,
      "Ġreturning": 8486,
      "screen": 8487,
      "Ġseatbelt": 8488,
      "Ġwhisk": 8489,
      "Ġtesting": 8490,
      "Ġchecking": 8491,
      "Ġmodels": 8492,
      "Ġlabels": 8493,
      "Ġknocking": 8494,
      "Ġenergetic": 8495,
      "ĠPepper": 8496,
      "ĠTrust": 8497,
      "Ġpressing": 8498,
      "Ġsirens": 8499,
      "Ġcustomer": 8500,
      "Ġopportunity": 8501,
      "Ġnatural": 8502,
      "Buddy": 8503,
      "Che": 8504,
      "Nice": 8505,
      "Ġsigning": 8506,
      "Ġbless": 8507,
      "Ġfet": 8508,
      "ouched": 8509,
      "Ġwashes": 8510,
      "Ġodd": 8511,
      "Ġnapped": 8512,
      "anish": 8513,
      "Ġsteth": 8514,
      "Ġplugged": 8515,
      "unic": 8516,
      "Ġshin": 8517,
      "elle": 8518,
      "Ġchill": 8519,
      "Ġblown": 8520,
      "Ġtapping": 8521,
      "Ġsunscreen": 8522,
      "Ġwaterm": 8523,
      "Ġstrum": 8524,
      "Ġteap": 8525,
      "Ġglimmering": 8526,
      "Ġconcent": 8527,
      "Ġclosing": 8528,
      "Ġgrassho": 8529,
      "Ġgulp": 8530,
      "Ġbounces": 8531,
      "Ġpreschool": 8532,
      "Ġmysteries": 8533,
      "Ġwildflowers": 8534,
      "Ġdigs": 8535,
      "Ġstamped": 8536,
      "Ġtraps": 8537,
      "Ġdestroying": 8538,
      "Ġexperiment": 8539,
      "Ġweapons": 8540,
      "ĠAnother": 8541,
      "ĠJonathan": 8542,
      "ĠBirdie": 8543,
      "ĠMaddy": 8544,
      "True": 8545,
      "Ġdefeated": 8546,
      "Ġunwra": 8547,
      "Ġstethos": 8548,
      "Ġconcentr": 8549,
      "',": 8550,
      "Aunt": 8551,
      "Arrr": 8552,
      "Co": 8553,
      "fly": 8554,
      "lor": 8555,
      "vince": 8556,
      "Ġ4": 8557,
      "ouraged": 8558,
      "oma": 8559,
      "Ġbea": 8560,
      "Ġplug": 8561,
      "Ġrebu": 8562,
      "ĠwhatÃ¢": 8563,
      "Ġcarries": 8564,
      "ooks": 8565,
      "andra": 8566,
      "ÅĵBe": 8567,
      "ĠPhil": 8568,
      "Ġconvince": 8569,
      "Ġsoundly": 8570,
      "ĠRuth": 8571,
      "Ġdrip": 8572,
      "Ġsnowy": 8573,
      "uggy": 8574,
      "Ġcourt": 8575,
      "Ġyoungest": 8576,
      "Ġactive": 8577,
      "Ġburns": 8578,
      "ippers": 8579,
      "Ġhunting": 8580,
      "Ġlowered": 8581,
      "Ġbackpacks": 8582,
      "Ġfleas": 8583,
      "Ġsqueaky": 8584,
      "Ġquacking": 8585,
      "Ġrows": 8586,
      "amboo": 8587,
      "Ġmeows": 8588,
      "Uncle": 8589,
      "Ġwounds": 8590,
      "Ġcommon": 8591,
      "Ġembarrassing": 8592,
      "Ġcowboys": 8593,
      "whel": 8594,
      "Ġgallop": 8595,
      "pril": 8596,
      "Ġwatermel": 8597,
      "Ġteapot": 8598,
      "Jessie": 8599,
      "Lena": 8600,
      "Pretty": 8601,
      "oard": 8602,
      "rink": 8603,
      "sie": 8604,
      "Ġlar": 8605,
      "Ġcuc": 8606,
      "ĠTime": 8607,
      "ĠTerry": 8608,
      "ĠHopper": 8609,
      "adually": 8610,
      "Ġformed": 8611,
      "ĠBra": 8612,
      "Ġwhales": 8613,
      "icle": 8614,
      "Ġcanv": 8615,
      "Ġbacks": 8616,
      "Ġfunn": 8617,
      "ĠWigg": 8618,
      "Ġfaith": 8619,
      "Ġswat": 8620,
      "Ġswallow": 8621,
      "Ġaboard": 8622,
      "ĠSamantha": 8623,
      "Ġintently": 8624,
      "Ġoverwhel": 8625,
      "ĠPink": 8626,
      "ĠGemma": 8627,
      "Josh": 8628,
      "Ġmesses": 8629,
      "Ġmessages": 8630,
      "Ġcompared": 8631,
      "otte": 8632,
      "Ġprod": 8633,
      "Ġprog": 8634,
      "Ġwelcoming": 8635,
      "Instead": 8636,
      "arlotte": 8637,
      "Ġadds": 8638,
      "Ġgoats": 8639,
      "Ġtanks": 8640,
      "Ġpantry": 8641,
      "faction": 8642,
      "Ġcrystals": 8643,
      "ĠPeep": 8644,
      "ĠPeggy": 8645,
      "Ġburger": 8646,
      "Ġoffering": 8647,
      "Ġfloats": 8648,
      "Ġdemanding": 8649,
      "Ġsatisfaction": 8650,
      "Ġopinions": 8651,
      "ĠTwinkle": 8652,
      "Ġcommunic": 8653,
      "Ġtypes": 8654,
      "ĠTessa": 8655,
      "ĠQuackers": 8656,
      "reya": 8657,
      "ĠRocky": 8658,
      "Ġmatey": 8659,
      "Ġgrasshopper": 8660,
      "Ġstethoscope": 8661,
      "Hold": 8662,
      "Vroom": 8663,
      "iens": 8664,
      "jest": 8665,
      "ris": 8666,
      "Ġtips": 8667,
      "ĠHold": 8668,
      "Ġinter": 8669,
      "Ġshave": 8670,
      "Ġwhimp": 8671,
      "ĠMuffin": 8672,
      "ĠJu": 8673,
      "Ġaliens": 8674,
      "Ġbride": 8675,
      "ĠWin": 8676,
      "roll": 8677,
      "Ġability": 8678,
      "Ġque": 8679,
      "than": 8680,
      "ĠNice": 8681,
      "ĠRudolph": 8682,
      "Ġcompete": 8683,
      "Ġjoyfully": 8684,
      "Ġcreams": 8685,
      "Ġbats": 8686,
      "Ġmedals": 8687,
      "Ġanswering": 8688,
      "Ġthicker": 8689,
      "Ġsqueezes": 8690,
      "Ġapology": 8691,
      "Ġscares": 8692,
      "Ġmember": 8693,
      "Ġcops": 8694,
      "Ġguarding": 8695,
      "Ġimproving": 8696,
      "Ġproviding": 8697,
      "Quack": 8698,
      "Ġrobbers": 8699,
      "ĠPoor": 8700,
      "ĠHootie": 8701,
      "ĠEliz": 8702,
      "Ġdetails": 8703,
      "Ġtemptation": 8704,
      "ĠStanley": 8705,
      "Suzie": 8706,
      "Ġslithered": 8707,
      "Ġresponsibility": 8708,
      "Ġreappeared": 8709,
      "Ġvibrant": 8710,
      "Ġfaint": 8711,
      "Ġwatermelon": 8712,
      "Big": 8713,
      "Feeling": 8714,
      "Jon": 8715,
      "Lizzie": 8716,
      "Mart": 8717,
      "lock": 8718,
      "prin": 8719,
      "well": 8720,
      "Ġtilted": 8721,
      "Ġsipped": 8722,
      "Ġtopp": 8723,
      "omb": 8724,
      "ĠTre": 8725,
      "Ġgroom": 8726,
      "Ġhab": 8727,
      "stand": 8728,
      "stantly": 8729,
      "Ġdolly": 8730,
      "Ġspies": 8731,
      "ĠAgain": 8732,
      "ĠJasmine": 8733,
      "arefully": 8734,
      "Ġroast": 8735,
      "Ġtreas": 8736,
      "Ġlapt": 8737,
      "ĠLots": 8738,
      "Ġgrumbled": 8739,
      "Ġbubbly": 8740,
      "ĠColin": 8741,
      "Thomas": 8742,
      "ÅĵOk": 8743,
      "aste": 8744,
      "Ġcleans": 8745,
      "ĠRight": 8746,
      "Ġamused": 8747,
      "ship": 8748,
      "Ġhotter": 8749,
      "Ġsprang": 8750,
      "Ġprotection": 8751,
      "Ġtunes": 8752,
      "ĠDonÃ¢": 8753,
      "Ġtorto": 8754,
      "Ġcompliment": 8755,
      "ĠPeppa": 8756,
      "Ġbeeping": 8757,
      "Ġgroan": 8758,
      "ĠSnowball": 8759,
      "Ġstudent": 8760,
      "Ġharvest": 8761,
      "Ġsnaps": 8762,
      "Ġspilling": 8763,
      "etchup": 8764,
      "ĠMelissa": 8765,
      "Ġbehaviour": 8766,
      "ĠPlaying": 8767,
      "Ġexperiences": 8768,
      "Ġpossess": 8769,
      "elieve": 8770,
      "Ġdrowned": 8771,
      "Ġdiscouraged": 8772,
      "Ġunable": 8773,
      "Ġcanvas": 8774,
      "Ġqueens": 8775,
      "Abby": 8776,
      "ca": 8777,
      "wing": 8778,
      "ĠYum": 8779,
      "Ġbamboo": 8780,
      "Ġmunched": 8781,
      "ĠSal": 8782,
      "ori": 8783,
      "Ġupside": 8784,
      "ending": 8785,
      "Ġketchup": 8786,
      "ĠMoo": 8787,
      "icking": 8788,
      "ĠDuke": 8789,
      "venir": 8790,
      "Ġench": 8791,
      "Ġlongest": 8792,
      "ĠJoJo": 8793,
      "Ġflowing": 8794,
      "ully": 8795,
      "Ġcheated": 8796,
      "Ġglittered": 8797,
      "Ġwinds": 8798,
      "Ġbluebird": 8799,
      "Ġmeaning": 8800,
      "Ġcrouched": 8801,
      "angle": 8802,
      "idents": 8803,
      "Ġnecks": 8804,
      "Ġservant": 8805,
      "ĠAlison": 8806,
      "Ġhonesty": 8807,
      "Ġcroaked": 8808,
      "Ġsuccessfully": 8809,
      "Ġbeetles": 8810,
      "Ġenvelopes": 8811,
      "Ġmiller": 8812,
      "Ġkayaking": 8813,
      "Ġquarre": 8814,
      "Ġfreezing": 8815,
      "Choo": 8816,
      "Chirp": 8817,
      "ĠVroom": 8818,
      "Ġcubs": 8819,
      "ccidents": 8820,
      "Ġcalmer": 8821,
      "ĠCatty": 8822,
      "ĠLiam": 8823,
      "Which": 8824,
      "Ġdodged": 8825,
      "Ġearned": 8826,
      "Ġsouvenir": 8827,
      "ĠMagic": 8828,
      "ĠNancy": 8829,
      "Ġelectricity": 8830,
      "Brownie": 8831,
      "Ġrebuild": 8832,
      "Ġlarger": 8833,
      "Ġlaptop": 8834,
      "Curious": 8835,
      "Pip": 8836,
      "Â¦": 8837,
      "Ġtheat": 8838,
      "Ġlim": 8839,
      "idi": 8840,
      "Ġhamb": 8841,
      "ĠSleep": 8842,
      "ĠSuper": 8843,
      "ĠweÃ¢": 8844,
      "Ġwhined": 8845,
      "ĠAlf": 8846,
      "âĤ¬Â¦": 8847,
      "ĠDoug": 8848,
      "ĠFuzz": 8849,
      "Ġposes": 8850,
      "Ġbund": 8851,
      "emon": 8852,
      "ĠCro": 8853,
      "ĠPa": 8854,
      "ĠPu": 8855,
      "Ġunco": 8856,
      "ulars": 8857,
      "ĠAllie": 8858,
      "Ġsalon": 8859,
      "ĠStill": 8860,
      "Ġ''": 8861,
      "Ġsnapping": 8862,
      "ĠBruce": 8863,
      "Ġmiracle": 8864,
      "ĠBubba": 8865,
      "Ġintelligence": 8866,
      "Ġcombed": 8867,
      "Ġvolcanoes": 8868,
      "Ġbinoc": 8869,
      "Ġhaircuts": 8870,
      "Ġrags": 8871,
      "Ġrepeats": 8872,
      "ĠIsn": 8873,
      "Ġsituations": 8874,
      "ĠOlivia": 8875,
      "Ġjudges": 8876,
      "Ġlocal": 8877,
      "Ġoverwhelmed": 8878,
      "Ġtreasured": 8879,
      "Ġtheatre": 8880,
      "Ġhambur": 8881,
      "Ġbinoculars": 8882,
      "Gina": 8883,
      "Lizzy": 8884,
      "barrow": 8885,
      "car": 8886,
      "over": 8887,
      "yle": 8888,
      "Ãĥ": 8889,
      "Ġtot": 8890,
      "Ġborn": 8891,
      "Ġbiscuit": 8892,
      "Ġlush": 8893,
      "Ġdashed": 8894,
      "Ġpuck": 8895,
      "Ġpouch": 8896,
      "iliar": 8897,
      "ĠSay": 8898,
      "onest": 8899,
      "oto": 8900,
      "Ġinches": 8901,
      "igger": 8902,
      "amiliar": 8903,
      "Ġshattered": 8904,
      "Ġdoves": 8905,
      "ĠMidnight": 8906,
      "Ġknives": 8907,
      "ĠWil": 8908,
      "ĠWoo": 8909,
      "Ġworst": 8910,
      "ellie": 8911,
      "ĠEver": 8912,
      "Ġbloss": 8913,
      "ĠDra": 8914,
      "Ġhoses": 8915,
      "Ġtrigger": 8916,
      "Ġglided": 8917,
      "Ġracer": 8918,
      "Ġstores": 8919,
      "Ġcris": 8920,
      "Ġcrops": 8921,
      "ĠRicky": 8922,
      "Ġruff": 8923,
      "Ġdrill": 8924,
      "shaped": 8925,
      "Ġtops": 8926,
      "Ġchopping": 8927,
      "Ġdryer": 8928,
      "ĠOf": 8929,
      "ĠOuch": 8930,
      "Everyday": 8931,
      "Ġserving": 8932,
      "Ġpleasant": 8933,
      "Ġhummed": 8934,
      "Ġmoonlight": 8935,
      "Ġshoots": 8936,
      "Ġwheelbarrow": 8937,
      "Ġjogger": 8938,
      "Ġmelody": 8939,
      "Ġexplaining": 8940,
      "ibly": 8941,
      "ĠMatilda": 8942,
      "Ġchatted": 8943,
      "Ġunfamiliar": 8944,
      "Ġswirls": 8945,
      "ĠMonkey": 8946,
      "Ġchoosing": 8947,
      "Ġsnorted": 8948,
      "Ġpositive": 8949,
      "ĠImmediately": 8950,
      "Ġtortoise": 8951,
      "Bu": 8952,
      "Deal": 8953,
      "HE": 8954,
      "Never": 8955,
      "Ollie": 8956,
      "Red": 8957,
      "lish": 8958,
      "off": 8959,
      "edic": 8960,
      "Ġhike": 8961,
      "Ġfade": 8962,
      "Ġlump": 8963,
      "Ġcine": 8964,
      "erg": 8965,
      "Ġdou": 8966,
      "Ġpipes": 8967,
      "enn": 8968,
      "Ġnanny": 8969,
      "ĠSince": 8970,
      "Ġthump": 8971,
      "Ġbeast": 8972,
      "Ġshines": 8973,
      "endant": 8974,
      "Ġnoticing": 8975,
      "Ġank": 8976,
      "ĠAr": 8977,
      "ĠApril": 8978,
      "Ġlevers": 8979,
      "Ġswap": 8980,
      "Ġblushed": 8981,
      "uddles": 8982,
      "Ġrunner": 8983,
      "Ġenem": 8984,
      "Ġglisten": 8985,
      "Ġunderwater": 8986,
      "Ġfinishes": 8987,
      "Ġrealizes": 8988,
      "Ġmajest": 8989,
      "Ġenjoyable": 8990,
      "ĠRich": 8991,
      "shadow": 8992,
      "Ġhatched": 8993,
      "Ġstepping": 8994,
      "Ġpapa": 8995,
      "Ġdrying": 8996,
      "colored": 8997,
      "Ġpasses": 8998,
      "Ġdisappointment": 8999,
      "ĠBehind": 9000,
      "Ġtwists": 9001,
      "Ġhunters": 9002,
      "Ġscattering": 9003,
      "Ġsupporting": 9004,
      "Ġluckiest": 9005,
      "Ġunlocking": 9006,
      "Ġstrips": 9007,
      "Ġburgers": 9008,
      "ÅĵWeÃ¢": 9009,
      "ĠCaroline": 9010,
      "Ġannounced": 9011,
      "ĠMae": 9012,
      "Ġproperty": 9013,
      "Ġbruises": 9014,
      "Ġcinema": 9015,
      "Ġenemies": 9016,
      "!'.": 9017,
      "Friend": 9018,
      "Jacob": 9019,
      "Kayla": 9020,
      "Mabel": 9021,
      "Nick": 9022,
      "Snow": 9023,
      "cus": 9024,
      "ker": 9025,
      "ĠĠ": 9026,
      "Ġicky": 9027,
      "Ġwig": 9028,
      "nded": 9029,
      "Ġbomb": 9030,
      "Ġhood": 9031,
      "Ġlull": 9032,
      "ĠHa": 9033,
      "aming": 9034,
      "Ġforts": 9035,
      "ĠBounce": 9036,
      "ĠBuggy": 9037,
      "alled": 9038,
      "Ġwhir": 9039,
      "ecca": 9040,
      "Ġbold": 9041,
      "Ġexamp": 9042,
      "Ġclut": 9043,
      "ĠLenny": 9044,
      "Ġgoodness": 9045,
      "ĠDe": 9046,
      "ĠJody": 9047,
      "Ġbadger": 9048,
      "Ġdev": 9049,
      "Ġstew": 9050,
      "ĠDoes": 9051,
      "ĠFlora": 9052,
      "Still": 9053,
      "Ġmeadows": 9054,
      "Ġcircled": 9055,
      "Ġcaterpillars": 9056,
      "Ġweaker": 9057,
      "Ġcherish": 9058,
      "Along": 9059,
      "Ġhooks": 9060,
      "Ġmugs": 9061,
      "ĠShare": 9062,
      "Ġwiggling": 9063,
      "Ġthumbs": 9064,
      "Ġrails": 9065,
      "ĠWhoever": 9066,
      "Robbie": 9067,
      "Ġdaily": 9068,
      "Ġrevealing": 9069,
      "ĠMona": 9070,
      "Ġchooses": 9071,
      "Ġwriggled": 9072,
      "Ġpeeped": 9073,
      "Both": 9074,
      "Hmm": 9075,
      "Kids": 9076,
      "Zoom": 9077,
      "gar": 9078,
      "ĠOh": 9079,
      "Ġactor": 9080,
      "Ġgoo": 9081,
      "Ġgates": 9082,
      "Ġnic": 9083,
      "orking": 9084,
      "ĠHurry": 9085,
      "Ġriddle": 9086,
      "Ġplumber": 9087,
      "Ġplayd": 9088,
      "ĠBoo": 9089,
      "Ġboards": 9090,
      "ics": 9091,
      "Ġlevel": 9092,
      "Ġscow": 9093,
      "Ġscores": 9094,
      "Ġroamed": 9095,
      "Ġprank": 9096,
      "Ġpoles": 9097,
      "Ġpeas": 9098,
      "Ġpeak": 9099,
      "Ġtrim": 9100,
      "Ġbud": 9101,
      "ĠNever": 9102,
      "Ġdifferently": 9103,
      "Ġbowing": 9104,
      "Ġhunger": 9105,
      "Ġarmor": 9106,
      "ĠKaty": 9107,
      "Ġroller": 9108,
      "ouncy": 9109,
      "Ġcafe": 9110,
      "ĠStartled": 9111,
      "Ġtests": 9112,
      "keepers": 9113,
      "Spike": 9114,
      "Ġsilently": 9115,
      "Ġangrily": 9116,
      "Ġhamster": 9117,
      "Ġdesigner": 9118,
      "uction": 9119,
      "ĠShow": 9120,
      "Ġpoisonous": 9121,
      "ĠReady": 9122,
      "Ġladybird": 9123,
      "Ġhonks": 9124,
      "Ġannoying": 9125,
      "ĠSunshine": 9126,
      "Ġgasps": 9127,
      "Ġscenery": 9128,
      "Ġinjured": 9129,
      "Ġdistracted": 9130,
      "ĠBernie": 9131,
      "ĠTyler": 9132,
      "Ġbeaver": 9133,
      "Ġnicest": 9134,
      "Lucky": 9135,
      "Santa": 9136,
      "Tara": 9137,
      "jack": 9138,
      "just": 9139,
      "Ġouch": 9140,
      "Ġhudd": 9141,
      "Ġheels": 9142,
      "ĠToto": 9143,
      "ann": 9144,
      "uno": 9145,
      "ĠBad": 9146,
      "Ġlocks": 9147,
      "ĠAccidents": 9148,
      "hings": 9149,
      "Ġblur": 9150,
      "ĠFreya": 9151,
      "Ġmoat": 9152,
      "ucas": 9153,
      "ĠJackÃ¢": 9154,
      "ĠJackie": 9155,
      "berry": 9156,
      "Ġraking": 9157,
      "ÅĵYay": 9158,
      "Ġwolves": 9159,
      "cts": 9160,
      "ĠPaw": 9161,
      "ĠGabby": 9162,
      "Ġbaa": 9163,
      "Ġattitude": 9164,
      "earl": 9165,
      "Ġalongside": 9166,
      "oga": 9167,
      "balls": 9168,
      "Everything": 9169,
      "Ġpills": 9170,
      "ĠGold": 9171,
      "Ġstirs": 9172,
      "Ġtrusts": 9173,
      "Ġstuffing": 9174,
      "Ġcracker": 9175,
      "Although": 9176,
      "Ġrewarding": 9177,
      "Ġlizards": 9178,
      "Ġexercising": 9179,
      "aitlyn": 9180,
      "ĠOrange": 9181,
      "Ġhesitation": 9182,
      "ĠOliver": 9183,
      "Ġcrowded": 9184,
      "Ġchatting": 9185,
      "Ġflashes": 9186,
      "Ġblonde": 9187,
      "Ġhooves": 9188,
      "Ġsoothing": 9189,
      "ĠSkip": 9190,
      "Ġcommunicate": 9191,
[...]
